#version: 0.2
Ġ t
h e
Ġ a
i n
Ġ s
Ġ w
Ġ m
r e
Ġ o
h a
o u
Ġ b
Ġ i
e r
Ġt he
n d
Ġ c
Ġt o
o n
Ġ f
in g
Ġ he
e n
e d
Ġ ha
Ġ n
Ġa nd
Ġo f
Ġ d
Ġb e
l l
i t
i s
Ġ p
l e
Ġ e
a s
o r
Ġ h
a n
Ġ in
Ġn o
e s
a t
a r
- -
o m
v er
Ġhe r
Ġ y
l d
Ġ Ċ
Ġi t
Ġ g
v e
Ġy ou
Ġ l
Ġno t
ha t
Ġw as
g h
l y
s t
Ġs he
Ġt h
u t
c h
s e
ou ld
Ġ "
i on
c e
r i
Ġ re
en t
a y
Ġm r
Ġt hat
Ġa s
o w
gh t
ver y
Ġf or
e t
Ġha d
it h
i m
Ġo n
Ġs u
i d
Ġa n
Ġw ith
Ġw e
i r
c t
he r
Ġ u
Ġs o
Ġha ve
Ġa t
Ġi s
o d
a l
Ġw h
Ġ k
Ġb ut
m a
i ll
. "
Ġh is
Ġ very
Ġm u
u r
a d
i ght
Ġk n
Ġa ll
r o
p e
' s
Ġm e
t er
q u
Ġd e
Ġh im
Ġs e
Ġe m
Ġc on
t on
Ġd o
o re
Ġc om
b le
Ġem ma
Ġc ould
Ġs a
Ġw ould
a in
Ġ j
a nd
Ġm y
Ġn e
o od
l f
Ġf r
Ġha r
p p
Ġbe en
at ion
. --
Ġs t
a k
es s
o t
Ġm is
Ġe x
a ll
Ġmr s
Ġwh i
Ġan y
i c
u l
f e
ar t
s s
ou r
Ġf e
m e
g e
se lf
ha n
Ġl o
Ġ le
Ġwe re
an t
Ġw ill
Ġmis s
Ġa m
re d
Ġb y
Ġf a
Ġmu st
Ġthe re
or t
om e
Ġfr om
Ġwhi ch
Ġp er
l i
Ġw he
ri et
Ġs h
Ġa l
ou t
Ġm an
Ġthe y
d e
Ġo r
Ġl i
ar d
a ble
Ġ r
Ġ qu
in k
u re
Ġse e
Ġe l
Ġw hat
Ġth is
Ġhar riet
it t
o k
Ġsa id
Ġmu ch
Ġkn ow
in d
Ġthe m
Ġt han
Ġm ore
Ġsu ch
Ġth ink
Ġth ou
Ġth ing
at e
Ġw es
Ġ v
Ġa re
Ġwes ton
r y
re at
e ll
Ġd is
Ġc h
Ġh ow
, "
Ġi f
Ġa g
Ġe very
Ġon e
m p
Ġp re
t her
h ing
it e
ou se
Ġ en
e nd
Ġc an
on g
Ġwh o
m ent
r a
Ġin t
Ġu n
Ġel ton
Ġyou r
le y
at her
Ġa b
Ġp ro
Ġa f
ight ley
an ce
Ġkn ightley
Ġs ay
w ay
Ġp o
Ġwhe n
Ġc a
v en
Ġsh ould
i ve
on e
Ġg ood
v ed
w n
Ġl itt
i f
o st
Ġbe ing
Ġlitt le
Ġ Ġ
i l
all y
ou s
al k
k e
Ġ _
! --
Ġu p
Ġne ver
Ġa c
it y
Ġd id
Ġp art
as t
Ġc o
es t
u s
Ġwe ll
Ġg reat
Ġf ri
Ġon ly
m ed
Ġm ight
Ġcom p
t ter
Ġw ood
h ouse
an e
e l
f ore
le as
Ġw or
Ġwood house
u n
f a
v ing
Ġt im
Ġo wn
Ġthe ir
ak e
Ġfri end
nd er
Ġo ther
Ġlo ok
Ġno w
i e
Ġs ha
a ge
Ġs p
e ct
Ġa d
Ġj ane
u st
Ġs ome
Ġp leas
a c
Ġfa ir
od y
Ġo b
Ġat t
Ġher self
Ġha pp
b ut
Ġtim e
en ce
Ġg o
Ġqu ite
n ess
Ġthou ght
er t
Ġfe el
Ġag ain
o s
o l
a b
o se
r u
ad e
pe ct
Ġu s
Ġto o
Ġp l
re n
Ġbe fore
re e
Ġre s
ur ch
Ġli ke
t h
Ġch urch
Ġm ost
Ġnot hing
Ġha s
Ġab out
ou gh
fa x
Ġfair fax
fe ct
Ġh o
way s
? "
Ġchurch ill
p t
Ġso on
i gh
Ġw is
f ul
Ġal ways
p er
Ġe ven
Ġde ar
o h
an k
i ous
p le
he d
Ġcon s
Ġo ut
Ġc ha
i re
i ce
Ġs pe
Ġm ay
Ġl ong
ur n
Ġf ir
Ġin de
n g
Ġsha ll
Ġt w
ou nd
Ġwith out
Ġd ay
i es
Ġs m
Ġw ant
g ed
Ġf ather
Ġfir st
Ġsu re
n ot
in e
a re
e ver
Ġaf ter
? --
a u
n er
t he
Ġfr ank
j ect
Ġm ade
Ġu nder
ad y
t en
i ble
an c
Ġyou ng
ot her
w e
ion s
Ġt alk
Ġb ody
u m
Ġg r
Ġj ust
Ġe ver
w ard
Ġm ar
re ss
Ġinde ed
as s
Ġi mp
ie ld
f ort
Ġ ri
Ġtw o
Ġo ver
Ġb at
i ly
ing s
c om
Ġbe g
o nd
Ġa p
s u
f ield
y ou
Ġbe tter
li e
Ġw ay
ou n
ri ed
Ġsu pp
c l
Ġthou gh
in ess
Ġcom e
ert ain
Ġp r
Ġh igh
is e
n ing
Ġre p
t y
Ġint o
ic ul
! "
t ed
t field
Ġ ro
Ġo p
ow n
Ġhar tfield
Ġde l
c k
Ġa r
Ġw alk
Ġg ive
Ġthe n
a ch
Ġbe lie
Ġsu b
Ġbat es
Ġm ake
Ġof f
om et
Ġre ally
Ġspe ak
Ġw om
Ġg i
Ġhe re
Ġle tter
i g
i ed
s ent
ou b
Ġha ving
Ġme an
Ġhim self
Ġap pe
g et
Ġs at
Ġs omet
Ġd if
Ġwor d
Ġho pe
Ġk ind
Ġup on
a g
Ġd one
Ġb r
t e
Ġ ent
Ġa pp
Ġr ather
w ell
Ġsee med
Ġa way
om ent
fe ren
Ġman y
Ġcan not
c i
Ġm oment
p l
in ed
Ġhe ar
Ġp ass
o y
u ll
v es
ĠĠ ĠĠ
Ġd es
ur y
Ġwis h
p s
Ġp e
Ġre t
Ġm ind
Ġh ome
s he
u d
Ġcon t
Ġwhi le
Ġv is
Ġwom an
b er
l ed
Ġlo ve
Ġcons id
; --
c c
y es
Ġha nd
Ġd oub
Ġl ast
Ġs et
it u
ar y
Ġman ner
Ġdo es
Ġen ough
a ce
Ġt r
Ġc ertain
Ġpo ss
Ġvis it
b ury
i x
Ġas s
Ġhow ever
in t
Ġfe l
Ġpleas ure
u ght
ct ion
Ġhapp y
Ġunder st
Ġhigh bury
a red
Ġm or
at ed
Ġcom fort
Ġdis t
a m
Ġit s
Ġhe ard
o ll
Ġin d
ar m
ar ly
ent ion
ct ly
Ġca me
Ġgo ing
a ve
f or
Ġb l
Ġpo or
Ġob li
Ġha lf
it her
Ġpre sent
Ġac qu
i ld
Ġt ake
Ġi de
Ġex t
Ġdoub t
b e
n o
Ġt e
ate ly
Ġen g
ar s
Ġre g
Ġs ort
Ġo ur
Ġc ar
u se
Ġs c
Ġs en
Ġw r
ce pt
Ġst ill
Ġfel t
c ed
f er
n e
Ġm at
le s
Ġan other
Ġconsid er
Ġc all
Ġn at
is t
Ġfe w
ward s
Ġsub ject
Ġret urn
Ġmor ning
m ost
e re
Ġt ell
Ġo cc
Ġy et
Ġsa w
Ġper fect
Ġfriend s
s er
os ed
ab ly
Ġe nd
ation s
Ġsomet hing
Ġs er
Ġc l
Ġh ouse
Ġg en
ri age
oun t
get her
re t
it s
Ġh our
ac k
e p
Ġsu r
Ġsa me
Ġmy self
Ġbelie ve
id e
Ġfeel ings
Ġri ght
a me
Ġall ow
Ġch ild
Ġdel ight
Ġunderst and
Ġide a
ha ps
Ġc han
Ġg l
ot h
Ġac c
Ġpart icul
Ġcha r
Ġsat is
Ġt ill
Ġm art
Ġi ma
Ġde al
Ġro om
Ġgen er
Ġmart in
Ġ `
Ġima g
Ġe v
Ġcon f
all s
Ġeven ing
Ġacqu ain
ere st
i or
o ple
t hat
Ġf ound
Ġp a
Ġfa m
Ġo ught
Ġof ten
Ġth r
Ġre c
Ġas k
Ġint erest
Ġpart y
Ġsp ir
Ġpe ople
Ġo ld
Ġf ind
Ġg ent
Ġan s
li ed
Ġr and
Ġt ak
Ġin st
-- "
Ġfor t
Ġse c
le ss
Ġlook ed
Ġad v
v our
in ce
Ġi ll
ir c
Ġst r
Ġex pect
Ġpre t
Ġad m
Ġpl ace
oh n
Ġsm ith
Ġrand alls
b ody
c ess
e w
t o
Ġi m
Ġbe st
as e
Ġth ose
et y
ic k
Ġper s
Ġwhe re
Ġaf fect
Ġcertain ly
Ġ (
as on
Ġkn ew
Ġcom ing
Ġhar d
Ġper haps
Ġad d
Ġmar ry
is h
Ġy e
Ġg et
Ġpers on
m on
Ġt urn
Ġc irc
Ġbe c
Ġre f
Ġj ohn
Ġle t
med i
f t
u al
Ġle ast
Ġal most
d ay
Ġc our
Ġbe t
Ġsu s
Ġwor ld
Ġposs ible
m r
Ġb oth
Ġe qu
Ġin v
ce i
Ġon ce
Ġdif feren
Ġim medi
an g
Ġper ry
Ġel se
p ri
Ġto gether
Ġsupp ose
Ġgent le
Ġc ried
Ġg one
Ġre st
Ġex p
Ġli fe
Ġop in
Ġop en
i red
u e
Ġb ro
Ġd own
Ġin c
Ġre ad
Ġres ol
Ġres pect
re me
Ġto ld
Ġd ire
Ġy es
Ġme et
Ġca mp
Ġob ser
Ġrep lied
b ell
n ow
v i
Ġt ru
ow er
pe nd
Ġle ss
Ġag ree
Ġgi ven
Ġfam ily
Ġcamp bell
t ing
Ġhe art
Ġd ra
Ġj ud
Ġsh ort
Ġwho le
Ġhapp iness
au ght
Ġobli ged
Ġw i
Ġw o
Ġb us
it ion
Ġdis p
Ġcomp l
Ġwant ed
Ġbeg in
Ġappe ar
Ġext reme
w er
Ġs ince
Ġm in
Ġm other
Ġp ut
Ġl ady
im ent
Ġsee m
Ġcomp an
we en
m y
w h
Ġw arm
Ġsu per
Ġse en
ra ct
Ġca re
h ow
Ġs ide
Ġsu f
Ġk e
Ġne w
un t
Ġsp ok
Ġho p
ull y
Ġwo nder
r ow
w hat
Ġs or
Ġs itu
ou ght
Ġb ack
Ġc he
Ġcont in
Ġsur pri
Ġans wer
Ġhard ly
Ġbet ween
Ġopin ion
Ġsurpri z
e red
Ġa ble
Ġf oll
Ġg u
Ġwh om
Ġpr om
d d
Ġm ak
Ġf ar
Ġd et
Ġd aught
it ed
ut e
ce ed
ell a
ab ella
Ġcar riage
Ġimmedi ately
Ġsuper ior
Ġdaught er
s o
s ome
Ġa ct
Ġth ree
Ġle ft
Ġfa vour
Ġco ld
Ġob ject
Ġwi fe
i v
m ber
is s
Ġg od
Ġre ason
Ġis abella
Ġfort un
x t
Ġto wards
Ġno body
ma ll
Ġde c
ra id
age ment
Ġtalk ed
Ġnat ur
Ġcirc um
i le
Ġf anc
Ġd on
se l
Ġre me
Ġper su
Ġpro p
Ġaf raid
au se
Ġperfect ly
Ġacc ount
Ġthr ough
Ġpret ty
Ġcircum st
a ut
a im
Ġs ir
Ġd in
Ġe ither
il ity
Ġbeg an
Ġgener al
Ġspir its
Ġstr ong
Ġextreme ly
Ġsitu ation
t ance
Ġs mall
Ġc le
or d
Ġre ady
id ed
Ġde g
Ġne xt
mp t
Ġpo int
Ġcomp le
anc es
Ġapp ro
Ġacquain tance
cei ved
Ġgentle m
c our
c ious
g ing
o ice
u ally
Ġu se
od u
Ġthere fore
Ġthing s
Ġchan ge
Ġsatis f
Ġequ al
Ġtru e
o f
Ġb o
er n
Ġf l
Ġn or
Ġp ower
ir l
Ġex a
Ġwhe ther
Ġco le
Ġcour se
Ġsor ry
u p
Ġd are
ver s
Ġthink ing
Ġother s
Ġdif f
Ġchild ren
Ġaffect ion
Ġbro ther
d ard
Ġs ent
Ġb ad
Ġthe se
Ġg irl
Ġlook ing
Ġatt ention
Ġlong er
Ġass ure
Ġgod dard
a ged
e k
i p
he s
Ġd re
or y
Ġst ay
Ġex c
ul t
ort h
Ġqu est
Ġknow n
Ġfeel ing
Ġtak en
i ent
p ter
Ġa unt
Ġm a
er m
Ġbe aut
Ġl ar
Ġshe w
Ġre m
Ġfor m
Ġst ate
Ġcha pter
ig n
Ġsen se
Ġye ars
Ġfoll ow
sel ves
i b
Ġs l
en ed
Ġn ame
is ter
Ġan x
Ġdo or
me nd
Ġle ave
Ġthan k
Ġyour self
itu de
Ġdeg ree
o ve
s h
Ġa ir
Ġbe ar
Ġab s
Ġatt ach
Ġpass ed
Ġset t
Ġsen s
y ond
Ġo h
it ation
Ġin f
ut ion
Ġso ci
Ġst o
Ġam ong
Ġpro b
the re
Ġgl ad
Ġimag ine
Ġbus iness
Ġdiff icul
u ed
en ess
Ġbe yond
Ġp ri
Ġh on
Ġh or
Ġin ter
Ġg ave
ut es
ro ve
il ed
Ġpleas ant
Ġtalk ing
Ġgr at
Ġbr ought
Ġmanner s
Ġdifferen t
Ġdra w
Ġmin utes
a pp
c ern
f ully
l or
o in
Ġs il
Ġc reat
Ġe le
al th
Ġne cess
Ġpre v
Ġpro per
Ġwalk ed
Ġreg ard
Ġexp ress
Ġnatur al
Ġexa ctly
w he
Ġw a
Ġe yes
as ion
Ġh ur
at ing
Ġwe ek
Ġne ed
Ġsee ing
Ġsay ing
Ġus ual
Ġbec ause
Ġdire ctly
Ġche er
Ġmak ing
Ġfanc y
Ġdin ner
m iss
in ation
Ġm ention
Ġf ull
Ġp ain
ut h
Ġde pend
Ġmis t
Ġli k
itt ing
ac hed
Ġus ed
Ġday s
Ġagree able
Ġcompl iment
Ġsatisf ied
e m
o ss
p ic
Ġo pp
Ġp i
Ġp ur
ay lor
Ġcon v
Ġun e
Ġappe ared
Ġword s
Ġbr ing
ix on
Ġte mp
Ġser ious
Ġreme mber
Ġattach ment
b ert
i al
l ic
Ġt aylor
Ġa w
Ġs on
Ġw orth
re ady
it ing
is hed
Ġp ar
ie w
Ġpl ay
Ġwis hed
Ġmean s
ĠĠĠĠ ĠĠĠĠ
ang er
Ġdon well
Ġsoci ety
p a
Ġto ok
Ġf ond
Ġd ixon
is ed
Ġe s
Ġe as
Ġh um
Ġl au
Ġre com
Ġcon vers
Ġex cept
Ġv oice
Ġdis app
Ġco l
Ġpleas ed
Ġrecom mend
j oy
u red
y e
Ġw ent
Ġm on
re he
Ġf art
Ġhe l
Ġhe ad
en s
is ten
Ġe ach
Ġre al
Ġne ar
Ġst and
Ġv iew
Ġen joy
Ġagain st
Ġlike ly
Ġcha ract
Ġbelie ved
Ġgi ving
Ġdet erm
Ġcomple te
Ġcharact er
. '
p ar
w ill
in s
Ġs ister
nd on
Ġd anc
Ġg ra
Ġl ad
Ġmu s
Ġlo ndon
li ke
Ġal ready
Ġwalk ing
Ġent ire
Ġser v
Ġparticul arly
Ġcreat ure
Ġlad ies
l ing
Ġme re
Ġdo ing
Ġqu ick
Ġco nd
us ed
Ġsm ile
Ġmar ried
Ġcall ed
Ġchar m
Ġke ep
Ġquest ion
Ġele g
Ġfart her
Ġhel p
c ri
Ġt ry
on s
Ġn ight
Ġh us
Ġl a
ent ly
Ġme ant
Ġde cl
Ġqu ar
Ġspeak ing
Ġdes er
Ġev il
Ġhop ed
Ġmon th
_ ,
c es
i et
Ġt ri
Ġs we
Ġm et
Ġf re
Ġp at
Ġl isten
im es
Ġcon ce
Ġcon cern
Ġdis c
Ġen cour
ac y
Ġatt ent
Ġimp oss
Ġmat ter
Ġspok e
Ġconvers ation
a h
Ġf ine
Ġd anger
Ġbe ha
Ġe ar
Ġe arly
Ġsh o
Ġr ound
Ġun c
Ġar ri
ag er
Ġtr uth
Ġparticul ar
b our
e ad
f ic
Ġc r
Ġf ive
Ġbe l
Ġp ay
Ġe ager
Ġin cl
ce ll
Ġwe ather
ro om
Ġcom mon
Ġsa fe
Ġex pl
Ġthem selves
il ing
Ġpl an
Ġafter wards
Ġkind ness
led ge
Ġhand some
oll ect
Ġeng agement
Ġocc asion
Ġallow ed
Ġadv ant
Ġexpect ed
Ġsus pect
Ġbegin ning
Ġdec ided
Ġgentlem an
Ġconv in
Ġmus ic
b and
i ence
Ġs it
Ġs itting
Ġw at
it ies
Ġre ma
Ġne igh
Ġr a
itt ed
one l
ol ute
Ġletter s
Ġreturn ed
Ġdelight ful
Ġmeet ing
Ġfortun e
Ġsett led
Ġhon our
Ġneigh bour
, --
i able
k now
l u
u ri
Ġf o
Ġhe alth
Ġp ra
an ge
se qu
Ġre qu
Ġfor ward
ain ed
Ġex cell
Ġen s
Ġwho se
if ied
Ġac cept
us ion
Ġthought s
Ġsomet imes
feren ce
Ġwr ong
Ġrec ollect
Ġask ed
Ġcontin ued
Ġpersu ad
Ġhus band
Ġimposs ible
l and
m er
ing ly
en se
Ġe f
Ġin qu
Ġwh y
Ġcom m
Ġac know
ast e
ie ce
Ġreg ret
Ġnat ure
Ġcl aim
Ġsatis fa
Ġadd ed
Ġsus pic
Ġsurpriz e
Ġgu ess
Ġanx ious
Ġcol onel
Ġentire ly
Ġconvin ced
c hed
g ment
l er
Ġs im
Ġg ot
Ġre ceived
Ġfor get
Ġne ither
Ġqu iet
ive ly
Ġac com
Ġatt end
th is
com be
Ġsuf fer
Ġnew s
Ġdre ad
Ġnecess ary
Ġtemp er
Ġdeterm ined
Ġens combe
c ome
Ġt aste
Ġb all
ent y
Ġfor g
ur ing
Ġam iable
Ġli ve
Ġint im
Ġint ell
Ġpleas e
Ġsupp osed
Ġeng aged
Ġsec ond
Ġlar ge
Ġabs olute
Ġcheer ful
, '
m or
Ġw ind
Ġc oun
Ġc iv
Ġe ye
Ġin s
.-- "
if ul
os ition
Ġmar riage
Ġar r
Ġcomfort able
for m
Ġobli ging
Ġinc re
Ġcompan y
Ġcircumst ance
Ġsl ight
Ġprob ably
Ġswe et
u ct
Ġt en
Ġm er
ou d
Ġb re
Ġc ase
ar k
ro ss
Ġse nd
Ġcon sequ
Ġcons cious
Ġwant ing
Ġgr and
ress ed
Ġocc ur
Ġacquain ted
Ġpa pa
Ġhur ry
Ġdanc ing
Ġexcell ent
c ul
d o
g r
i les
k ins
r odu
s it
x ion
in ary
ou ble
Ġf in
ma nd
Ġcon st
Ġfa ult
out h
Ġag o
Ġatt e
os ity
Ġpl ain
Ġimp ort
Ġmean ing
Ġhear ing
Ġbl us
Ġmat ch
Ġsurpriz ed
Ġabsolute ly
, )
: --
m b
o int
Ġ .
Ġm en
ha r
er r
Ġc uri
Ġhe n
or ough
Ġg rove
Ġl u
Ġth orough
Ġwith in
ter day
Ġse lf
Ġfa ce
Ġint rodu
Ġab be
Ġpro s
Ġpro ceed
Ġsay s
Ġsm iling
Ġoff er
Ġposs ib
Ġass ist
Ġsc he
Ġinterest ing
Ġadm ir
Ġresol ution
Ġyes terday
Ġcircumst ances
whe re
Ġlau gh
Ġpra ise
Ġpersuad ed
Ġabbe y
v al
z e
Ġs y
Ġs ing
Ġm od
Ġo dd
Ġb ri
Ġf ix
en g
Ġe st
Ġcon ne
Ġex cl
ant ly
Ġknow s
Ġdis ag
Ġwor k
un ic
Ġpl ac
the y
Ġpr odu
ag es
Ġind if
Ġdelight ed
Ġref le
Ġdifferen ce
Ġappear ance
Ġspok en
Ġma ple
Ġdifficul ty
Ġdraw ing
em ma
Ġcharm ing
Ġmonth s
Ġcomm unic
Ġdisag ree
b ation
c y
e x
u b
Ġt end
Ġm ad
Ġi r
Ġre l
Ġsu m
Ġem pl
ain t
Ġst ru
Ġv al
Ġgreat er
Ġgreat est
Ġwor se
Ġlook s
Ġgr ow
Ġri ch
Ġturn ed
Ġcompan ion
dd en
Ġbeaut y
Ġfollow ed
Ġgrat itude
Ġattent ions
Ġintell ig
mor row
Ġempl oy
c ise
g g
i ety
u nd
Ġ x
Ġs ad
Ġs ight
ha med
Ġto ler
Ġf ore
Ġha b
st on
Ġst y
Ġtim es
Ġdel ic
Ġext ra
Ġocc up
Ġunderstand ing
Ġev ent
Ġinst ru
Ġjud gment
Ġcle ver
Ġprev ent
Ġeas y
Ġcond uct
Ġadvant age
Ġsatisfa ction
Ġbre ak
Ġcuri osity
i li
Ġa v
Ġm ort
re s
Ġb less
Ġc ount
Ġf our
Ġn one
or k
at h
Ġl ate
Ġnot ice
Ġas hamed
Ġsu dden
Ġan g
ul ar
Ġlo ved
Ġal one
ure s
Ġhapp ened
Ġgr ound
Ġro bert
Ġtr ouble
Ġdist in
Ġdist ress
Ġte a
Ġspir it
Ġye ar
Ġresol ved
Ġinf lu
rehe nd
Ġmere ly
Ġear n
Ġbel ong
Ġef fect
Ġsty le
Ġinstru ment
_ .
d ing
h ip
o ved
s es
Ġt ried
in ci
Ġb oy
er y
Ġf all
it able
Ġp ity
Ġh int
Ġin fer
ch o
ri es
pe ci
Ġde ep
Ġj oy
Ġknow ledge
Ġv ain
Ġpro of
Ġpr inci
Ġdel ay
Ġhand s
Ġtr an
Ġbl ind
Ġfriends hip
Ġtak ing
Ġinst ead
mr s
Ġcampbell s
Ġact ually
Ġexc use
Ġmention ed
Ġpur p
Ġcomplete ly
Ġconce al
fic ient
Ġcr own
Ġconsequ ence
Ġatte mpt
" --
i i
o ver
u nder
Ġs igh
Ġm ine
ha pp
Ġc or
Ġd en
Ġd ut
Ġl ed
id ence
Ġu nd
Ġsa ke
Ġj oin
Ġst e
ak en
all ant
Ġal arm
Ġli ved
Ġknow ing
Ġun p
Ġpro f
Ġpro v
Ġwhen ever
Ġco ll
ect ed
Ġatt ached
ru pt
su ch
Ġdist ance
Ġsc ru
Ġhour s
Ġconf ess
Ġmarry ing
Ġobser v
vi our
Ġjud ge
Ġfortun ate
ord inary
Ġsens ible
Ġsil ent
Ġaw are
Ġes c
Ġdisapp oint
Ġenjoy ment
Ġbeha viour
Ġextra ordinary
peci ally
Ġpurp ose
a p
n ight
w ith
w ise
y ing
y our
Ġt able
Ġc ou
Ġto ne
ed u
Ġbe h
is ing
Ġp en
as h
Ġg allant
Ġwe l
Ġde are
Ġcom es
Ġlo ss
Ġam use
Ġfa ct
Ġal so
Ġr un
itt en
Ġch use
Ġsp ite
Ġjust ice
Ġhigh ly
Ġent ered
am es
Ġind u
Ġind ul
Ġsc ar
Ġwr ite
Ġgener ally
Ġdisp osition
Ġseem s
Ġdifficul t
Ġpi ct
Ġserv ice
Ġeleg ant
Ġadmir ation
Ġstru ck
Ġcount ry
Ġinflu ence
h ood
o g
o or
r ay
Ġ err
Ġs ix
Ġm id
re ed
Ġto wn
Ġd ue
as ed
Ġnot e
Ġre pe
pp ed
art ed
Ġal to
Ġpre su
os ing
Ġspe e
Ġspe nd
we red
fort un
Ġdes ir
Ġdes cri
Ġunderst ood
Ġconsider ation
Ġend e
Ġsec ret
Ġbec ame
Ġobser ve
Ġfavour ite
Ġgentlem en
Ġbo x
Ġhor ses
Ġlik eness
Ġquar ter
Ġacknow led
Ġlu ck
Ġsche me
Ġsum mer
Ġearn est
Ġcou ple
Ġscar ce
Ġalto gether
i am
j ust
o fort
Ġa ge
Ġs now
Ġw ret
Ġm ot
Ġb or
Ġc al
Ġf ire
Ġd ri
Ġh ill
an ofort
Ġin form
at ter
ve re
id ent
Ġcon cl
Ġcom mand
Ġle ad
Ġr ain
Ġv ar
Ġv ent
Ġelton s
Ġca ught
if ic
Ġpleas ing
ren t
Ġcont r
Ġpresent ly
Ġwr itten
Ġtell ing
Ġans wered
Ġke pt
Ġuse ful
Ġbeaut iful
Ġwa it
Ġmist aken
Ġpi anofort
Ġstand ing
Ġtry ing
Ġunc le
Ġclaim s
Ġforg ot
Ġciv il
Ġblus h
Ġhen ry
Ġav o
Ġinfer ior
Ġpict ure
Ġende a
Ġpianofort e
b ed
c ceed
p he
r ing
s and
t ic
Ġ ut
Ġ edu
Ġt re
Ġt ou
in es
Ġw ed
Ġm ove
ou red
er s
Ġc ut
Ġc red
en e
Ġn iece
Ġd ance
Ġp ast
Ġh ig
at ch
Ġg ri
Ġl ately
ce ive
Ġsu ck
Ġsu cceed
Ġso lic
Ġse par
ic ity
fe red
Ġfe ll
Ġlo st
ort un
Ġr u
Ġr ation
Ġthink s
Ġthou sand
Ġv ic
end ed
Ġun happ
Ġsp ent
ab l
Ġres er
Ġent reat
Ġchar ade
Ġadd ress
Ġinv itation
ang u
Ġobser ved
wh o
Ġhop es
Ġprom ise
Ġappro bation
oin ted
Ġweek s
Ġopp ortun
Ġune as
Ġdeser ve
Ġencour agement
Ġincl ination
Ġintim acy
Ġwind ow
Ġarr ange
Ġconscious ness
Ġpros pect
Ġexcl aim
Ġdisagree able
Ġtend er
Ġdut y
Ġscru ple
Ġbeh ind
Ġscarce ly
Ġinform ation
Ġedu c
Ġgri e
k ing
n ever
o ck
p oor
r ance
u mp
Ġa ston
Ġw it
Ġc e
Ġd est
at ul
at ive
Ġher s
Ġl ow
." --
Ġcon gr
Ġj o
Ġne g
Ġex ert
Ġwill iam
ate ful
Ġag reed
Ġpre fer
Ġpart ies
Ġcomp rehend
Ġother wise
Ġho ld
Ġwis hes
Ġinde pend
the n
Ġbat h
Ġrep ro
ĠĠĠĠ Ġ
Ġpe cul
Ġtr ust
Ġcl ose
Ġchan ce
Ġimag ined
Ġfort night
ish ment
Ġrespect able
Ġdire ct
Ġdisp osed
Ġsuf ficient
Ġreason able
Ġsmall est
Ġrem ark
Ġpri v
Ġsil ence
Ġes pecially
Ġserv ant
ons ense
Ġquar re
Ġsuspic ion
Ġsim ple
Ġfix ed
Ġconne xion
Ġdisappoint ment
Ġvic ar
Ġcongr atul
Ġpecul i
' t
a f
c ing
c hes
f ice
g ust
i er
i ch
i od
l o
n s
s id
w kins
y m
er ing
Ġc ross
Ġha wkins
Ġn er
Ġn um
Ġe ase
an ity
Ġg ard
ro te
Ġcon vi
Ġne phe
Ġfe ar
Ġlo se
Ġper iod
Ġor d
Ġpre p
Ġpre ss
Ġpre par
Ġun re
ĠĠ Ġ
us es
Ġwor st
ru d
ten ance
ass ion
Ġro ad
Ġwom en
Ġent ertain
Ġpass ing
Ġconsid ered
cc ess
Ġconsider ing
Ġcall ing
Ġpa id
Ġthr own
Ġbus y
wh ich
Ġsent iment
Ġform er
Ġanx iety
Ġdisapp ointed
rehe ns
Ġsho ck
Ġsafe ly
Ġimport ant
Ġthorough ly
Ġsing le
Ġang ry
Ġdeare st
Ġrepe ated
Ġspee ch
Ġwret ched
Ġforgot ten
Ġcred it
Ġration al
Ġunhapp y
Ġnephe w
) --
k ward
p art
t w
w as
Ġt ired
in ter
in de
in ite
Ġw rote
Ġm ix
re et
Ġc atch
Ġto t
Ġf arm
Ġhe sit
en cy
Ġd a
Ġe at
as ter
ar ily
Ġl ight
Ġl ines
ri ght
Ġan n
al ent
Ġse vere
Ġj ames
Ġst ri
Ġst ren
Ġex er
Ġli ving
Ġpro t
Ġco x
Ġhapp ily
Ġcons ent
Ġpr ay
te red
Ġcont ri
for d
Ġreg ular
Ġchar ge
Ġturn ing
Ġequ ally
wh y
Ġmak es
Ġcle ar
Ġpri de
Ġaw kward
ĠĠĠĠĠĠĠĠ ĠĠĠĠĠĠĠĠ
Ġarri ved
Ġwat ch
Ġoccur red
har riet
Ġrefle ction
Ġprof ess
Ġdesir able
Ġavo id
Ġendea vour
Ġopportun ity
Ġarrange ment
sid es
d le
d id
h um
t ory
Ġt alent
he re
Ġm iles
Ġf ast
Ġd r
Ġd uring
Ġbe com
Ġbe sides
ve y
Ġre lie
Ġre cei
Ġsu n
Ġwe ym
Ġhis tory
Ġex cess
Ġex ceed
Ġam used
Ġwhat ever
Ġdis like
Ġco les
Ġcomp ar
Ġcomp assion
Ġfriend ly
ol og
Ġwis hing
Ġsm iled
Ġimp at
Ġimp rove
Ġar m
Ġgi ves
feren t
Ġour selves
Ġcar ry
cept ion
Ġconsider able
Ġconf idence
Ġfind ing
mon y
Ġcirc le
Ġinc on
Ġwarm ly
Ġprom ised
Ġshew ed
Ġinf inite
Ġsto pped
Ġworth y
Ġview s
Ġfre sh
Ġexpl an
Ġrema in
Ġfo ot
Ġdread ful
Ġcoun tenance
Ġpossib ly
Ġgrow ing
Ġdifficult ies
Ġwed ding
Ġjo ined
Ġvicar age
inde ed
Ġstren g
Ġexer cise
Ġweym outh
a w
a id
d ge
f r
g hed
h is
m an
n or
v ous
z ed
Ġ ve
Ġt ra
Ġs k
Ġs ound
Ġs ick
ha ve
Ġb ene
on t
on ly
Ġf ut
Ġf ully
Ġn ice
Ġn onsense
is ion
is hing
Ġh und
ve l
Ġl ine
Ġre ached
Ġas su
Ġde v
Ġcon n
Ġcon vey
Ġhar m
Ġany where
ok ing
Ġag itation
Ġint ended
Ġpro ved
Ġca use
ven ience
Ġfri ght
Ġsha re
Ġhapp en
ab ility
Ġimp ro
Ġap olog
Ġway s
Ġrep ly
!" --
ted ly
ag ing
Ġide as
Ġmat er
Ġpa per
Ġget ting
Ġref use
Ġopen ed
Ġmin ute
up on
Ġdre am
ove red
Ġwa iting
Ġlik ed
Ġune x
Ġserious ly
Ġlau ghed
Ġfre qu
Ġrema ined
Ġneighbour s
Ġfo ol
Ġinqu ir
Ġaccom pl
Ġsuffer ing
Ġindif ferent
Ġdelic acy
Ġoccup ied
Ġund oub
Ġwel come
Ġamuse ment
Ġeduc ation
Ġnum ber
Ġconvi ction
tw enty
Ġann oun
Ġfut ure
Ġhund red
a pe
c he
c ertain
u es
v y
Ġt reat
Ġs ink
re ad
er able
Ġc ure
Ġhe a
Ġha ir
Ġd ine
it ated
is on
Ġin j
ar r
Ġit self
Ġfor d
Ġsu ccess
Ġk ing
Ġme as
Ġst ood
Ġv anity
Ġch os
Ġaf ford
fa ir
ie f
Ġsha me
Ġsome body
Ġres ent
Ġchurchill s
are r
Ġgr ateful
Ġapp les
ud ed
ne y
Ġreturn ing
Ġroom s
Ġconf usion
Ġfam ili
Ġinterest ed
Ġadm ire
Ġadm ired
Ġcour t
Ġinv ited
Ġopen ing
Ġread ing
Ġdra wn
Ġobject ion
Ġbo ok
Ġabs ence
Ġgrat ified
Ġmist ake
Ġcompliment s
Ġhum our
Ġeleg ance
Ġdecl are
Ġtri f
Ġlisten ed
Ġconcern ed
Ġneighbour hood
Ġlaugh ing
Ġplac ed
Ġval ue
Ġtoler ably
Ġprinci p
Ġtran s
Ġesc ape
Ġtou ch
Ġord er
Ġprep ared
Ġtot ally
Ġassu red
Ġchos en
; "
a med
a rent
e per
i ze
l it
l our
m od
n at
t han
Ġa ma
Ġs ign
Ġm ut
Ġm aster
re land
Ġb ed
Ġb ur
Ġi reland
Ġc ard
Ġha st
Ġd iv
Ġp ract
Ġp ub
Ġe ld
or s
or ing
at es
-- (
ld om
Ġg re
ri dge
Ġsu it
Ġsu gg
id ently
Ġan im
Ġu r
Ġso ft
ma ma
ill y
Ġse a
Ġse ldom
Ġsa f
Ġne arly
Ġst ory
Ġfe ars
de ar
ard on
," --
ment s
Ġpo st
Ġpo sit
Ġca ution
Ġco ol
leas ant
Ġsp ring
Ġtw enty
Ġsm iles
Ġar t
Ġapp arent
Ġpass age
Ġvisit s
Ġwr iting
Ġinst antly
Ġadv ice
Ġstr ange
Ġexpect ation
Ġadd ition
Ġimmedi ate
Ġdisp leas
Ġfavour able
Ġnatur ally
Ġpersu ade
Ġprop osed
Ġappro ach
cour se
Ġfl atter
Ġpower s
Ġstay ing
Ġfollow ing
ib ility
Ġhor se
whe n
Ġeas ily
Ġsuspect ed
Ġmusic al
Ġacknow ledge
Ġmer it
Ġassist ance
eng aged
Ġprodu ced
Ġindif ference
Ġhab it
cho ol
Ġcoll ect
Ġcal m
Ġut most
Ġsuck ling
Ġservant s
Ġrecei ving
Ġinfinite ly
Ġexplan ation
Ġundoub tedly
than k
Ġbur st
Ġpub lic
Ġsugg est
f ast
g nor
h im
i est
j ud
m as
m ond
o ving
r ist
he st
he arted
Ġs chool
Ġw inter
Ġm ess
ha d
Ġi gnor
Ġf it
Ġf ig
ing u
Ġn ash
it es
is ure
is ite
Ġp iece
le ct
Ġe li
Ġh ot
an ged
Ġyou th
Ġl angu
ay e
ro at
pe red
Ġme l
Ġse at
Ġfe at
Ġle isure
Ġwill ing
de red
Ġli ber
Ġen c
Ġun fortun
Ġab sent
Ġca p
Ġpart ing
us ing
os al
ru el
Ġar ound
Ġappe ars
te en
Ġass ur
Ġbl under
Ġte mpt
Ġend ure
Ġparticul ars
Ġmartin s
Ġimag ination
Ġev idently
Ġrec on
Ġadm itted
Ġbet ray
Ġinv ite
Ġbro ad
Ġwonder ful
Ġprop osal
Ġdin ing
Ġgirl s
Ġlar kins
Ġsens ations
Ġsto p
Ġinter rupt
Ġfancy ing
Ġpar lour
Ġgra ve
Ġarri val
Ġdecided ly
Ġrequ ired
Ġsuspic ions
Ġgrand mama
Ġproceed ed
Ġpossib ility
Ġmod er
Ġbri de
Ġest abl
Ġmad am
Ġrich mond
Ġintellig ence
Ġboy s
Ġunp leasant
Ġobserv ation
Ġsolic itude
Ġquarre l
Ġner vous
Ġstreng th
Ġve x
. ,
b ack
j ane
k en
l aw
o p
p an
p id
in ing
Ġs qu
Ġs ize
Ġs illy
Ġb as
Ġb ar
Ġb ra
is k
Ġp u
Ġp ork
Ġe ight
an cho
Ġin e
ar ance
ar ity
Ġl ay
Ġl oud
Ġth us
ri g
ri ages
Ġre j
et ch
al ity
Ġwh is
Ġde p
Ġse ated
Ġem b
Ġsa cri
ain ing
Ġj our
Ġst ra
ot ed
Ġmis ery
our ces
Ġfe ared
ant ed
riet y
Ġr ate
Ġv ol
Ġdis gust
Ġch rist
Ġpre ference
Ġint ent
Ġab ove
ous es
Ġpart ner
Ġsp are
Ġsoon er
Ġcons ol
Ġsm o
Ġgr ad
Ġbeg un
Ġsupp ly
Ġrep ort
Ġapp rehens
Ġmoment s
Ġdes ired
Ġpe ace
Ġdist ur
Ġind is
Ġind ign
Ġhouse ke
Ġrec overed
Ġill ness
Ġexpect ing
Ġpret end
Ġbec ome
Ġtru ly
Ġwarm th
Ġsuf fered
Ġfoll y
Ġcomple xion
Ġquest ions
Ġdoor s
Ġsett le
Ġprob ability
Ġinter course
miss ion
Ġmist ress
Ġexcept ing
Ġsister s
Ġgra ce
Ġdeser ved
Ġpat ty
Ġadvant ages
Ġra pid
Ġrequ ire
Ġlive ly
Ġarr anged
Ġincre ase
Ġincre ased
Ġfin ished
Ġimport ance
Ġrefle ct
Ġintellig ible
Ġhab its
Ġbreak fast
Ġmort ific
Ġbless ing
Ġgallant ry
Ġindu ce
Ġindu ced
Ġacknowled ged
Ġearnest ly
Ġdri ve
Ġvent ure
Ġsepar ate
Ġneg lect
Ġpriv ate
Ġgard en
Ġunre ason
Ġprot est
Ġbecom ing
Ġexcess ively
Ġimpat ient
Ġfright ened
Ġmater ial
Ġinquir y
certain ly
Ġmel ancho
Ġsqu are
Ġjour ney
Ġmelancho ly
a ir
g es
g ent
g ress
i ally
k n
m itted
n ed
o c
s w
Ġt erm
Ġs le
Ġm ile
Ġo w
Ġo rig
ha s
Ġb it
Ġb ir
Ġc and
Ġc ere
Ġc ord
Ġf at
en ces
ll y
ll able
is ted
Ġp h
Ġp ause
le t
Ġh ither
Ġl at
Ġl ane
Ġth roat
ce l
Ġre ach
Ġfor med
Ġfor ced
im p
Ġan tic
Ġwe ak
ir ty
Ġso f
Ġde ath
Ġse l
Ġst ep
Ġst ead
ot e
Ġmis erable
fe nd
Ġle a
ort ion
Ġper form
Ġdis engaged
Ġwho lly
Ġun w
Ġun ne
Ġun will
Ġpro ve
Ġaf fair
Ġca red
ven ient
if y
if ying
un sw
os ure
per haps
ious ly
Ġcha ir
Ġwant s
not hing
Ġri d
Ġsupp er
Ġkind ly
Ġbr unsw
pl icity
Ġlove ly
Ġposs ess
Ġcomfort ably
Ġdist ingu
Ġcar riages
Ġsubject s
Ġtell s
Ġcl osed
Ġgl ance
Ġacc ord
Ġconf ined
Ġsec ured
Ġadv ise
Ġaffect ions
Ġperson s
Ġinv ol
Ġjud ged
Ġcompl aint
Ġsince re
Ġcompan ions
Ġche ck
Ġcontin ue
Ġprom pt
Ġpersu asion
mpt ion
Ġpoint s
Ġma id
Ġsl ow
Ġthank s
Ġdifferent ly
Ġprev a
Ġdepend ence
Ġbring ing
Ġpar cel
Ġhum an
Ġhum ble
Ġkeep ing
Ġla id
Ġpat ience
Ġpay ing
Ġeager ly
Ġra ise
Ġfault s
Ġplac es
Ġir r
Ġfore se
Ġprinci ple
Ġtran qu
Ġconceal ment
Ġste ady
Ġbor ne
Ġhig hest
Ġsucceed ed
Ġreser ve
Ġuneas y
Ġexclaim ed
Ġindepend ence
Ġrepro ach
Ġpeculi arly
Ġexceed ingly
Ġcompar ison
Ġconn ected
Ġfool ish
Ġaccompl ished
Ġfamili es
Ġhouseke eper
Ġmortific ation
Ġorig in
Ġantic ip
Ġunne cess
Ġunwill ing
Ġbrunsw ick
' --
c an
e en
e very
g ood
g ra
g ence
i an
i ves
i ries
l t
l iness
m ory
m pered
p ond
u able
w ber
x ions
Ġ ing
Ġt all
in a
Ġw ing
Ġm ed
Ġm one
re sent
Ġb ak
Ġb ust
nd ered
Ġc hat
Ġc row
ed ly
Ġha z
Ġd ared
is es
Ġp it
Ġp ardon
as ing
om est
Ġg a
st and
Ġshe wn
se mb
Ġ" _
Ġre ceive
ow s
Ġso le
Ġme mory
ter n
ic ed
ul g
Ġfa il
Ġper ceived
Ġsh ru
Ġor dered
Ġli bert
Ġr ank
Ġqu al
Ġv ulg
Ġch ief
Ġag itated
Ġpre ser
Ġun s
Ġun less
Ġun ited
Ġpro c
Ġpo lit
Ġpart ed
Ġcomp ared
el ve
ac les
Ġhapp ier
Ġgo ver
Ġfeel s
ab out
ren ce
Ġres ources
th ough
Ġtw elve
Ġmar k
Ġbeg ged
Ġpr oud
pl ay
Ġcertain ty
Ġfel icity
Ġdist ant
Ġbl ame
Ġeng land
ne w
Ġmat ri
les ome
Ġperfect ion
Ġconf ir
Ġask ing
Ġadm it
Ġref used
Ġrest r
Ġinc ome
Ġresol ve
Ġseem ing
Ġsor row
Ġsuperior ity
Ġreme mb
Ġsatisf y
Ġrem oved
Ġform ing
Ġhor r
Ġnecess ity
Ġproper ly
Ġexpress ed
Ġpain s
Ġpur su
Ġune qu
Ġtemp ted
.' "
.' --
Ġla w
Ġla ment
Ġevil s
Ġattent ive
Ġmatter s
Ġeager ness
Ġexpl oring
Ġhonour able
Ġaccept ed
Ġsim plicity
Ġaccom mod
Ġaccom pan
Ġintim ate
Ġciv ility
Ġsy llable
eng th
Ġconne xions
Ġprodu ce
Ġemploy ment
Ġdelic ate
Ġground s
Ġdistin ct
Ġdistin ction
Ġdeep ly
Ġcoll ected
Ġmid dle
Ġpresu me
Ġluck y
Ġhig her
Ġru le
Ġuneas iness
Ġscruple s
ump h
Ġprefer red
Ġremark ably
lo oking
Ġda ily
Ġsun k
Ġimprove ment
Ġincon venience
Ġconvey ed
Ġprincip al
Ġgre w
Ġsaf ety
Ġposit ively
Ġmess age
Ġfig ure
Ġliber al
Ġchrist mas
Ġconsol ation
Ġsmo oth
Ġgrad ually
Ġindis p
Ġlea ving
Ġwing field
Ġmone y
Ġbust le
Ġcrow d
a ister
b o
b y
b et
c har
e med
f it
g u
g er
i ct
i ance
i zed
l ish
m u
m other
n ay
o om
o very
s itation
u ing
u ss
u med
w r
Ġa h
Ġa u
Ġa uth
Ġs pect
Ġs outh
Ġm aint
Ġm oving
Ġo st
ha nd
Ġb u
Ġc ot
Ġto ng
Ġhe ld
Ġhe sitation
Ġn amed
Ġd ress
Ġd ull
Ġd ark
it er
it ations
Ġp un
as ions
ar ing
Ġg ruel
ow ed
Ġfor ty
et h
ro ad
qu ite
qu isite
Ġde f
Ġde ceived
Ġse ver
Ġcon te
Ġj e
Ġst ir
Ġst reet
ak ing
Ġex ist
Ġex quisite
ic es
ul ting
Ġfe ma
Ġlo ves
Ġle ar
Ġby e
Ġfa iled
Ġper ple
Ġsh ut
Ġr an
Ġqu itted
ok e
Ġch ose
Ġch oice
Ġpre cise
Ġun com
Ġun like
Ġab rupt
Ġpro gress
il ities
ous ly
Ġpart ial
un e
Ġsha ke
Ġfair ly
Ġatt ack
ol ent
Ġres umed
Ġwis e
Ġspe ed
ress ion
Ġover come
su f
Ġspeak s
te re
te mpered
pl aister
Ġpass ion
ud ing
Ġdoub ted
Ġset ting
Ġvisit or
Ġpleasure s
Ġdoubt ful
Ġte ars
Ġwr ites
Ġsur ry
Ġthr ow
Ġrec over
Ġinst ant
Ġinst ance
Ġsec ure
less ness
Ġpret ence
Ġturn s
Ġrest ore
Ġopin ions
Ġinc ons
Ġput ting
Ġcontin ual
Ġgu est
Ġfanc ied
Ġsmall ridge
Ġaffection ate
Ġshew ing
sh ire
Ġsto pt
Ġhon est
Ġprev ious
Ġexpress ion
Ġhur t
Ġconv ince
Ġpar ish
Ġplay ing
Ġrecommend ed
Ġgra cious
Ġconcern s
Ġdisc over
Ġencour aging
Ġbeha ved
Ġear li
Ġbel oved
Ġplan s
Ġengagement s
Ġinqu ire
Ġinqu iries
Ġsatisfa ct
Ġquiet ly
Ġattend ed
Ġincre asing
Ġgrand mother
Ġhurry ing
Ġconst it
Ġhen ce
Ġself ish
Ġcommunic ation
Ġval uable
Ġemploy ed
Ġx vi
Ġtoler able
Ġprevent ed
Ġtrouble some
Ġfall ing
ash ion
Ġsix teen
Ġmot ive
Ġcivil ities
Ġfell ow
Ġreser ved
Ġaddress ing
Ġwindow s
Ġwit ness
Ġce ase
Ġindepend ent
Ġtrust ed
Ġsufficient ly
rud ent
hum oured
Ġrelie f
Ġcarry ing
Ġhea vy
Ġresent ment
Ġtrif ling
Ġignor ant
Ġlangu age
Ġinterrupt ed
Ġwhis per
Ġsacri fice
Ġstra wber
Ġintent ions
Ġunreason able
air s
Ġterm s
Ġfat ig
Ġshru b
Ġlibert y
mu ch
Ġauth or
Ġspect acles
Ġperple x
c ha
c ur
c iled
i ency
l ings
l eness
m ust
o ld
p ray
r ate
s ed
s omet
t ure
u de
z z
z en
z ab
Ġs our
Ġs angu
Ġb reat
Ġc ur
Ġf etch
Ġhe at
en ing
Ġha ll
Ġn ur
Ġof fered
Ġof fend
Ġd ign
Ġd ressed
ll ing
Ġp le
Ġh ouses
at ory
-- --
om s
om in
ver ing
ver se
Ġy ork
Ġl im
Ġl ab
Ġre new
Ġfor be
et e
Ġsu ited
ir t
Ġso re
al ous
Ġde ce
Ġcon ject
ain s
Ġne arer
Ġst up
Ġst aid
Ġmis under
Ġex am
ic al
Ġmiss ed
Ġper t
Ġper se
Ġper ceive
Ġal oud
ard s
Ġr isk
Ġweston s
Ġdis in
Ġdis play
Ġpre cious
ra ction
Ġint ention
Ġab road
Ġpo p
Ġca ut
il t
Ġco oll
Ġcomp osed
Ġcomp osure
un g
Ġsp read
ac her
Ġob t
Ġatt raction
ol ence
pt ion
Ġcons ci
ire some
urn ing
ten s
um n
Ġsupp ort
cl ock
Ġrep resent
Ġro se
Ġsub st
Ġoff ence
Ġoff ice
Ġgi ps
Ġbr ist
Ġent er
Ġent ering
Ġapp le
Ġcomfort s
Ġeng lish
Ġend ed
Ġdelight fully
Ġgl ow
Ġev ident
Ġpa rent
Ġold er
Ġtak es
vi le
Ġjud ging
wh ile
Ġwarm est
Ġcare s
Ġgu ard
Ġact ing
Ġdec ision
Ġprop riety
Ġstrong er
of fice
Ġbo ast
Ġfl ut
Ġexc uses
Ġlar ger
ib ly
sh ip
Ġpri vile
Ġinter ference
Ġpleasant ly
Ġexpress ing
Ġexpress ions
Ġhur ried
Ġdepend ed
Ġplay ed
Ġdanc ed
Ġquick ness
Ġcond ition
Ġdisc overy
Ġdisc uss
Ġencour aged
Ġdanger ous
Ġsho p
Ġsho ok
Ġwat er
Ġwat ched
Ġaccept able
Ġrecollect ion
Ġattend ing
Ġdread fully
Ġconst antly
Ġlu x
Ġintrodu ce
Ġintrodu ction
Ġintrodu ced
Ġpros per
Ġcommunic ated
Ġir res
Ġmort ified
res pond
Ġcor respond
Ġesc ap
ap pe
Ġpen et
Ġindul gence
Ġerr or
Ġerr and
Ġdescri be
Ġconcl usion
Ġlead ing
Ġcontr ary
abl eness
Ġprospect s
Ġgrie ved
Ġaston ished
Ġdest in
Ġpeculi ar
af ter
Ġpress ed
rud ence
Ġmix ture
Ġfarm er
Ġwatch ing
Ġtalent s
Ġdr ink
fr ank
Ġapolog ies
Ġunex ception
Ġfrequ ent
Ġfrequ ently
arr ass
Ġking ston
Ġafford ed
Ġeld est
Ġdispleas ed
Ġassur ance
Ġtempt ation
Ġrecon ciled
Ġemb arrass
Ġvol unt
Ġbir th
Ġhither to
Ġsof ten
Ġsel ina
Ġperform ance
Ġunnecess ary
Ġbak ed
Ġvulg ar
Ġgover ness
Ġmatri mony
Ġrememb rance
Ġhorr or
Ġtong ue
Ġsever al
Ġje alous
Ġearli er
zab eth
Ġsangu ine
Ġyork shire
Ġforbe arance
Ġstup id
Ġcooll y
Ġconsci ence
Ġbrist ol
) ,
b ru
c il
g ge
l ight
m n
m ing
m es
m ar
m ay
m ill
m ore
o val
p et
r ad
s ha
w ould
y s
Ġt aught
Ġt err
Ġt ues
he ad
Ġa ut
Ġa pt
Ġa like
Ġm ild
Ġm oved
ou che
Ġb ore
Ġb are
Ġf ashion
Ġhe ight
en ced
Ġd ro
Ġd ry
Ġd omest
Ġbe nd
ll i
ll ed
Ġp al
Ġp us
Ġe ating
Ġin suf
at tered
ar ation
ar med
Ġy ield
Ġg ay
Ġg own
ve t
ve red
Ġl ord
Ġl atter
Ġth in
Ġth ir
Ġth reat
Ġre ndered
ent ed
Ġwe alth
Ġwh ite
ill ed
ur day
Ġall iance
Ġse ven
Ġse ason
Ġcon venient
Ġj une
Ġne at
Ġfr ont
pp ing
Ġst art
Ġst ud
Ġmis c
Ġmis fortun
ul ous
Ġfe bru
Ġlo ver
Ġle g
Ġam using
Ġfa ith
Ġal ert
Ġal armed
mp ath
end ing
Ġun fe
Ġun well
Ġab und
Ġaf f
Ġknightley s
Ġpo in
Ġgood ness
Ġup right
Ġac ross
Ġco ach
Ġgreat ly
Ġsha de
Ġsp o
Ġsp ot
Ġsp ared
Ġhapp iest
os ite
Ġres ult
the se
anc y
um ing
Ġgr own
Ġimp ression
Ġri dd
Ġri vet
Ġover p
Ġsupp osing
Ġrep ent
Ġrep et
Ġar ise
Ġar gu
Ġsat urday
Ġbr ain
Ġapp lic
Ġapp rehend
Ġdes ign
Ġvisit ing
Ġmor row
Ġext ent
be red
no body
Ġeng age
Ġeng aging
Ġour s
fer able
Ġocc asions
Ġend ured
Ġcl ass
ep ing
Ġsur m
Ġpa ir
Ġwhere ver
Ġaffect ed
Ġperson al
Ġcour age
Ġsus p
Ġexp ed
Ġexp ense
Ġread ily
Ġobser ving
Ġdra ught
Ġdisp arity
Ġhop ing
Ġdet ained
Ġdaughter s
Ġact ive
Ġcold ness
Ġobject s
Ġstrong ly
Ġdeg rad
mpt oms
Ġappro ve
orth y
Ġrem ind
Ġrem oval
Ġthank ed
Ġcheer fully
Ġdepend s
Ġopp osite
Ġpar ade
Ġcol our
Ġrecommend ation
ens ible
Ġenjoy ed
Ġquick ly
Ġdecl ined
Ġdecl ared
Ġdecl aration
Ġtri ck
Ġlisten ing
Ġunc ertain
land au
Ġguess ed
Ġforget ting
Ġsweet ness
Ġmer its
Ġsend ing
Ġblus hed
Ġoffer ing
Ġsche mes
Ġsy mpath
Ġsy mptoms
Ġbri lli
Ġest e
Ġest im
Ġoccup y
Ġbless ed
Ġang er
Ġdistin ctly
Ġdistress ing
Ġfall en
Ġblind ness
Ġcor re
Ġcor ner
Ġden y
Ġste ps
Ġobserv ations
Ġindul ge
Ġmid st
Ġpresu mption
Ġdescri ption
Ġtre mb
Ġcongratul ations
Ġgard ens
Ġprepar ation
Ġunre ser
Ġsentiment s
Ġshock ed
part ies
Ġhesit ating
Ġda mp
hum our
Ġtra vel
Ġnumber s
Ġannoun ce
Ġtreat ment
Ġmeas ure
nat ured
Ġhast ily
Ġapproach ing
Ġeli zabeth
Ġfeat ures
Ġunfortun ate
Ġmoder ate
Ġestabl ishment
Ġbar ouche
Ġbra gge
Ġpu zz
Ġapprehens ion
Ġindign ation
Ġcere mony
Ġcord ial
Ġtranqu ill
Ġsole mn
Ġchief ly
Ġuns us
Ġpolit eness
Ġunequ al
Ġexist ence
Ġfema le
Ġlear n
Ġprecise ly
Ġguest s
Ġconstit ution
Ġstrawber ries
Ġshrub ber
somet hing
Ġsour ce
omin able
Ġcaut ious
Ġsubst ance
Ġflut ter
Ġescap ed
Ġpenet r
Ġdestin y
Ġunexception able
Ġtues day
Ġaut umn
Ġdomest ic
Ġfebru ary
! '
? '
a ct
a ctly
b b
b ly
c er
c ould
c ont
d ra
f our
h our
i ven
j oin
k et
l ance
m bered
o ci
o ves
r ain
r ather
s ing
s or
s ide
s aid
t ell
t age
t urning
u g
u it
w om
Ġt iresome
he alth
Ġa ver
Ġa st
Ġa ction
in ent
Ġs in
Ġs ong
Ġs well
Ġs ought
Ġw all
Ġw ine
Ġm ill
re sh
Ġo t
ha m
Ġb ab
Ġc ens
Ġto pic
on oun
Ġf al
Ġf ate
Ġf ree
Ġf urn
Ġd well
Ġd ances
Ġbe w
Ġbe ll
is m
or ge
Ġh ung
an ing
Ġin com
-- `
Ġg il
Ġl ace
Ġl ength
Ġnot ions
ly ing
st em
Ġre ck
ow ered
Ġfor ce
Ġon es
id er
Ġwe ar
Ġso l
al ed
ma king
ro y
Ġme al
Ġde li
Ġse pt
Ġse cl
Ġcon venience
Ġsa ve
Ġsa ved
Ġj oke
ak es
Ġmis ch
ul ted
Ġfe ver
Ġam ple
Ġam iss
Ġper pet
Ġal ter
de pend
Ġli able
Ġli ves
Ġli ps
Ġr ising
Ġsee k
Ġv i
Ġv ou
Ġv ast
Ġv ii
Ġdis s
Ġdis cern
mp l
mp le
mp ted
Ġpre s
Ġen vy
Ġun per
Ġun just
Ġab ominable
Ġca pt
us al
Ġcomp are
Ġsha r
Ġsha ken
Ġad join
Ġgo es
ert y
pect ed
Ġres ist
th ose
fect ion
?" --
ful ness
Ġcons ult
Ġout ward
Ġspe cul
Ġlong ed
Ġfir m
Ġtw ice
ound ed
Ġafter no
ject ed
Ġunder t
anc ing
we re
Ġtalk er
um b
Ġri de
Ġover he
Ġap art
Ġpr onoun
Ġar tic
Ġsub d
Ġsub mitted
Ġmean while
pl ace
Ġdes pa
Ġret ire
Ġcont ented
Ġass oci
for med
Ġacqu it
Ġacqu ies
Ġdoubt s
Ġmat ches
Ġchan ged
Ġacc ent
Ġacc ident
Ġchar ity
Ġpa used
Ġrec ur
Ġgent ility
Ġstr anger
Ġref resh
Ġinv al
Ġinv itations
Ġopen ly
Ġresol ute
Ġrespect s
Ġdire ction
Ġmeet ings
Ġheart ily
Ġwarm er
how ever
Ġwonder ing
Ġsitu ations
Ġche ek
Ġcontin ually
Ġgu ided
Ġdec is
Ġreme mbered
Ġprop ortion
Ġprop erty
Ġappro ved
Ġfl ow
Ġdre w
Ġexc ited
sh ould
Ġsens ation
Ġsens ibility
Ġsoci al
Ġprob able
Ġhor ri
Ġinter val
Ġdraw back
Ġcreat ing
Ġnecess arily
Ġwa ited
Ġlik ing
Ġopp osing
Ġpur cha
Ġrecommend ations
Ġcreature s
Ġdeser ves
Ġtri umph
Ġconce it
Ġconce ive
Ġincl ined
Ġra pt
Ġra ised
lu ck
Ġrequ est
Ġaccept ing
Ġrecollect ions
Ġef fort
Ġregret s
Ġanxious ly
Ġforg ive
Ġintell ect
Ġcheerful ness
Ġwind sor
Ġslight ed
Ġfin est
Ġconst ant
Ġatte mpted
Ġplain ly
Ġsy stem
Ġbri ght
ex actly
Ġx ii
Ġbless ings
Ġbelong ed
Ġhint s
Ġattempt s
Ġden ying
Ġalarm ing
Ġprov oking
Ġpen ance
Ġwel com
Ġacknowled gment
Ġmot ion
Ġmot ives
Ġbor n
Ġcal cul
Ġconcl ude
Ġvar ious
Ġvent ured
Ġcontr ad
Ġcontr ast
Ġsuck lings
Ġsolic it
Ġru de
Ġentreat ies
Ġtender ness
Ġaston ishment
Ġce ased
Ġdest roy
Ġneg li
Ġexert ion
Ġexert ions
Ġdirect ed
Ġcross ed
Ġner ves
Ġpress ing
Ġentertain ment
Ġcontri ved
Ġawkward ness
Ġprofess ed
Ġprofess ions
Ġtra ve
Ġsk ill
Ġbene v
Ġimpro per
Ġsink ing
Ġhea ven
Ġbook s
Ġama z
Ġeld er
Ġanim ation
Ġur ge
Ġdispleas ure
Ġcollect ion
Ġcalm ness
Ġsuggest ed
Ġeli g
Ġenc oun
Ġunfortun ately
Ġcap able
Ġblunder s
Ġbetray ed
Ġvex ation
Ġine v
Ġrej o
Ġrej oice
Ġdep ressed
Ġdistur b
Ġdistur bed
Ġrapid ly
Ġreflect ions
kn own
Ġbit ter
Ġlat er
Ġunw orthy
Ġdistingu ishing
Ġinvol ved
Ġsincere ly
Ġpreva iled
Ġforese en
Ġprinciple s
Ġanticip ated
Ġing en
Ġhaz ard
Ġqual ities
Ġaccommod ation
Ġau gust
Ġcot tage
tere st
Ġsatisfact ory
Ġauthor ity
Ġple a
Ġlab our
Ġmisunder stand
Ġgips ies
Ġirres ist
sha ll
Ġterr or
Ġinsuf ferable
Ġmisfortun e
Ġsusp ense
Ġbrilli ant
Ġcorre ct
Ġunreser ve
Ġbab y
Ġcens ure
Ġfal se
Ġgil bert
Ġreck on
Ġadjoin ing
Ġafterno on
Ġresolute ly
Ġpurcha se
; '
_ _
_ ."
a il
b l
c ake
c ence
e c
e mber
g ation
g ance
h or
i vers
k es
l s
l anted
m en
m it
m at
m ble
p re
p ha
r ated
r ase
t s
t im
u ary
w l
w ork
Ġ 2
Ġa mend
Ġs w
Ġs ou
Ġs al
Ġw et
Ġw id
Ġw ra
Ġm ag
Ġm outh
Ġo per
Ġb id
Ġi dle
Ġf ro
Ġha te
Ġn a
Ġn in
Ġd w
Ġd ie
Ġd irty
Ġp red
Ġp ace
Ġp ortion
Ġp rudence
Ġe art
Ġe gg
as es
Ġh od
an y
an uary
Ġin her
Ġin cess
Ġin ex
Ġno ve
Ġno ble
Ġno ise
es pecially
at t
ar se
ar ter
Ġher o
Ġy ards
Ġg e
Ġg ain
Ġg ained
Ġg ates
Ġl ist
Ġl ower
Ġnot ion
st ery
st airs
Ġth ick
ri c
Ġre n
Ġre semb
Ġfor th
im s
id able
Ġan ge
Ġso fa
al ways
ma id
ad es
ro bert
Ġde m
Ġde pl
Ġde fer
Ġde fic
Ġde mand
Ġde ficient
Ġde af
Ġse x
Ġse ized
Ġem ot
Ġcon qu
Ġcom mission
Ġsa fer
Ġj ump
Ġj anuary
Ġfr uit
.-- `
Ġst or
Ġst ore
Ġst ation
Ġex per
Ġex ult
all ed
ul ate
fe re
Ġlo sing
Ġam ount
ort ed
Ġal tered
Ġman age
ard er
Ġr ous
Ġr ise
Ġqu itting
itt y
ok es
Ġmore over
ate fully
Ġv o
Ġv ig
Ġv irt
Ġdis cl
Ġdis gra
Ġpre jud
Ġwho lesome
Ġun t
Ġun se
Ġun us
Ġun su
Ġun who
Ġun gra
Ġun luck
Ġun ivers
Ġca pri
Ġgood will
il s
Ġco p
Ġcomp ose
el come
Ġsha pe
Ġsha wl
Ġsp ru
Ġad o
ust om
Ġsome how
ac ity
ac hes
Ġthought ful
ru e
Ġpl enty
th ree
th ought
Ġeven ings
ound s
ine ment
anc ed
anc ies
Ġgr anted
Ġgr atefully
Ġjust ified
Ġimp rudent
fort able
Ġri bb
com mand
Ġsupp lied
icul ous
Ġro ast
Ġbates es
Ġkind er
Ġent it
Ġent rance
Ġmoment ary
Ġdes p
Ġdes ert
Ġret ired
Ġhand wr
Ġlast ing
Ġvisit ed
Ġvisit ors
Ġass isted
Ġdist ressed
am ing
for ward
Ġbl ood
Ġbl ack
Ġbl oom
Ġobli gation
Ġte ach
Ġeng ross
Ġcar ried
Ġsc ene
Ġcall s
Ġnat ive
ret ion
Ġsur p
Ġsur r
Ġright s
Ġchan ces
Ġref rain
Ġref usal
Ġexp ose
Ġdown right
Ġagree ably
Ġshort ly
Ġappear ing
Ġcontin uing
Ġanswer ing
Ġprom ising
iv ity
Ġdec ide
Ġprop ose
Ġstrong est
Ġappro ached
Ġbo iled
Ġpower ful
Ġexa mple
Ġexc iting
Ġrem ove
Ġthank ful
Ġsto op
Ġhon oured
Ġele v
Ġmention ing
Ġpain ful
Ġlik es
pic ious
Ġopp ose
Ġexcept ion
Ġrecommend ing
Ġdeterm ination
Ġswe ep
Ġfre ed
Ġpat tern
Ġarri ve
Ġarri ving
Ġincl uded
Ġexpl ore
Ġoccasion ally
Ġsuspect ing
Ġgentleman like
Ġrema ins
uri ous
Ġpra ised
Ġexcell ence
Ġpersuad ing
Ġregret ted
Ġguess ing
Ġsuffer ings
Ġforg iven
Ġcoun ter
Ġcoun sel
Ġslight est
gr ateful
Ġfin ery
Ġintrodu cing
Ġoffer s
Ġsing ing
Ġmod est
Ġmod ern
Ġwork ing
Ġcommunic ations
ex cept
Ġrel ate
Ġrel ative
Ġsum mon
Ġstru gg
Ġmort ifying
Ġsudden ly
Ġeffect s
Ġsigh ing
Ġprov ided
Ġpen cil
Ġdeare r
Ġpresu med
Ġspend ing
Ġdescri bed
Ġacknowled ging
Ġvar iety
Ġinferior ity
Ġut ter
Ġcut ting
Ġsucceed ing
Ġthousand s
Ġgrie f
Ġaston ishing
Ġhold s
then ed
Ġcongratul ate
Ġfear ful
Ġprepar ing
Ġentertain ing
Ġformer ly
rehens ion
Ġshock ing
Ġwretched ness
Ġmix ed
Ġhesit ated
Ġcox es
ĠĠĠĠĠĠĠĠĠĠĠĠĠĠĠĠ ĠĠĠĠĠĠĠĠĠĠĠĠĠĠĠĠ
Ġavoid ing
Ġbecom es
Ġrelie ved
Ġimpat ience
fr om
Ġbene fit
Ġnice ly
Ġdev oted
Ġapolog y
Ġannoun ced
Ġtreat ed
Ġking d
Ġadmire r
Ġprincip ally
Ġmut ual
Ġcard s
Ġhast y
Ġanim ated
Ġart less
Ġhorse back
Ġfeat ure
Ġassur ances
Ġrecon ci
Ġgrave ly
Ġestabl ished
Ġbas ket
Ġrequire s
Ġsle eping
Ġow ed
Ġcand our
Ġph rase
Ġstead ily
Ġunw elcome
Ġaffair s
Ġrid iculous
Ġpossess ion
Ġaccord ing
Ġslow ly
Ġforese e
Ġorigin al
semb led
Ġproc uring
Ġconfir med
Ġrestr aint
Ġsorrow ful
char d
Ġost ler
Ġpun ct
Ġconte mpl
Ġuncom fortable
Ġabrupt ly
Ġspeed ily
Ġrestore d
Ġdign ity
Ġdisin terest
Ġpop ular
Ġobt ained
Ġprivile ge
Ġdiscuss ion
Ġprosper ous
Ġdrink ing
Ġembarrass ment
Ġvolunt arily
Ġsoften ed
Ġjealous y
Ġbare ly
Ġpal p
Ġthir d
Ġstud y
Ġabund ance
Ġpoin ted
Ġcoach man
Ġridd le
Ġrepet ition
Ġargu ment
Ġuncertain ty
Ġsympath y
Ġtremb ling
Ġtranquill ity
Ġunsus picious
Ġshrubber y
Ġpenetr ation
wom an
Ġot way
Ġsept ember
Ġsecl usion
Ġmisch ief
Ġvou ch
Ġspecul ation
Ġartic le
Ġdespa ir
Ġretire ment
Ġacquies cence
Ġinval id
Ġdecis ive
Ġhorri ble
Ġrapt ures
Ġnegli gent
Ġtrave lling
Ġencoun ter
Ġirresist ible
Ġeart h
Ġhod ges
Ġincess ant
Ġnove mber
Ġresemb lance
Ġange l
Ġunus ual
Ġunwho lesome
Ġungra cious
Ġspru ce
Ġhandwr iting
Ġdisinterest ed
' d
) .
. )
0 0
; "--
_ ,"
a le
b ing
b id
b ro
b red
b ted
c aut
d on
d ain
e vi
f ri
g l
g o
g am
h od
h ouses
i ver
i fe
i ving
j ohn
l ength
n es
n od
n onsense
o at
o ber
p it
p ly
p ress
p osed
p ret
p ulous
r at
s ight
s um
s ized
t r
t ill
t able
t ake
t ete
t rue
u ly
u ous
v oured
Ġ ze
Ġt id
Ġt ree
Ġt ete
Ġa ro
in ations
Ġs an
Ġs ly
Ġs li
Ġw al
Ġw ound
Ġw ond
Ġw ick
Ġw right
Ġm ain
Ġm il
re p
Ġo ct
Ġb ow
Ġb ank
Ġb alls
Ġb ought
Ġi i
Ġi ii
er g
er ous
Ġc re
Ġc ow
Ġc ous
Ġc ruel
Ġf id
Ġf ill
ing er
Ġha ng
Ġn ar
Ġn arr
Ġd ied
Ġd ouble
Ġd iver
it i
it al
it ions
is is
is ser
is hes
Ġp et
Ġp ounds
le nd
Ġe ss
as hed
Ġh os
Ġin n
Ġin just
ver ance
Ġg ather
Ġl and
Ġshe l
Ġth ither
ut ed
ch ing
Ġre mon
Ġre vi
Ġre ign
Ġre lu
Ġre ception
Ġre verse
Ġre appe
Ġre jected
Ġas sent
Ġas ide
Ġas sembled
im ens
Ġsu itable
id ing
id ious
Ġwe ight
Ġwe lf
Ġu pp
Ġso ot
Ġso ber
Ġso lit
od e
al most
Ġwh ist
Ġwh ims
Ġk illed
ur d
ur al
ur ity
ur bation
ad ows
Ġall evi
ro b
ro ot
Ġme adows
ter ing
qu ality
qu arter
Ġde b
Ġde part
Ġde emed
Ġse as
Ġcon und
Ġcon cur
Ġdo zen
Ġcom mend
Ġsa u
ain ted
Ġj oint
Ġmy stery
Ġst able
Ġst ret
Ġst airs
Ġst okes
ot hed
Ġex tens
ic ing
ic ious
ul arly
me aning
Ġle vel
ant ity
Ġper for
Ġper ception
Ġper mitted
li es
li ve
Ġsh if
Ġal as
Ġal ong
Ġal pha
Ġqu it
Ġqu antity
Ġv ac
Ġdis per
Ġdis su
Ġdis appe
Ġdis dain
Ġch uses
Ġpre tens
Ġen v
Ġint ently
Ġint ending
Ġun ion
Ġun af
Ġun fair
Ġun fit
Ġun known
Ġun grateful
Ġyour s
Ġpro ving
Ġca uses
ive te
!-- (
Ġcomp et
Ġcomp rehension
Ġwood houses
el t
el ing
un k
un ction
Ġown ed
Ġsp ace
Ġsome what
Ġsome where
ac he
Ġatt ract
but e
Ġthought less
os o
ab ilities
ru m
Ġus ually
Ġbefore hand
Ġres ign
Ġres idence
Ġlike wise
th ink
fect ed
Ġwis er
Ġcons ulting
Ġcons ulted
Ġcha ise
Ġlong ing
Ġinde bted
the m
Ġyoung est
Ġtalk s
Ġmar ries
Ġimp ert
Ġimp lied
Ġbat hing
ond uct
Ġsupp lanted
Ġar row
Ġwalk s
Ġsub sequ
Ġbr ings
Ġbr isk
Ġhear s
ĠĠĠĠ ĠĠĠ
Ġdes per
Ġmind s
Ġcont ained
Ġcont aining
;-- "
Ġhand ed
Ġtr ain
Ġtr ade
Ġass ert
Ġass uming
Ġind ub
Ġbl ank
Ġbl ue
Ġbl ock
be er
Ġte ar
Ġte acher
Ġsc ra
Ġwr iter
Ġconsider s
Ġconsider ably
Ġfew er
Ġser ies
Ġcl ub
Ġright ly
Ġallow ing
Ġallow able
Ġgl imp
Ġgl oves
Ġgl ancing
Ġchar itable
Ġchar ades
Ġgener ous
Ġgener osity
Ġimag inary
Ġconf used
Ġconf ident
Ġpa le
Ġfort itude
Ġsec urity
Ġadv ent
Ġadv ance
Ġadv ised
Ġexpect ations
Ġadd ressed
Ġget s
mon ious
Ġinv iting
Ġexp osed
Ġdown stairs
Ġresol ving
vi al
Ġless en
Ġagree ing
Ġwi ves
Ġcompl ain
Ġcompl ac
Ġappear ances
Ġcare ful
Ġcare less
Ġke y
Ġprom oted
Ġprom ote
Ġprom ises
Ġact ed
Ġact ivity
Ġcold s
Ġobject ions
Ġfanc iful
Ġdon ke
Ġaccount s
Ġthrough out
aim ed
Ġcle ared
Ġcle vere
Ġappro ving
Ġequal ity
Ġbo ot
Ġfl attered
Ġexa ct
Ġbrother s
Ġsent ence
Ġexc han
Ġrem iss
Ġform al
Ġsl ave
Ġair ing
Ġsett ling
Ġsens es
Ġsto ck
Ġsto pping
Ġpri ze
Ġgrat ifying
Ġdraw ings
Ġregard ed
Ġneed less
Ġopp osed
Ġplay s
Ġfond ly
Ġhum ili
Ġhead ache
Ġenjoy ing
Ġdeterm ine
Ġcharm ingly
Ġquestion ed
ons cious
Ġla wn
Ġdecl ining
Ġdeser ving
Ġtri al
Ġmet hod
Ġpat h
Ġpat ient
Ġconce ited
Ġdisc reet
Ġdisc overed
Ġdisc retion
Ġimposs ibility
Ġsho es
Ġunc on
Ġunc onscious
Ġtruth s
Ġcr it
Ġcr isis
Ġbel ow
Ġpay s
Ġexpl ain
Ġhandsome ly
Ġoccasion ed
Ġrequ isite
Ġhusband s
Ġcomm itted
Ġsim il
Ġattend ance
Ġball room
Ġlive liness
Ġins p
Ġins olent
Ġins ensible
Ġconsequ ently
Ġfin ish
Ġproceed ing
ze ment
Ġmod el
Ġprodu cing
Ġtend ency
Ġmad ness
Ġir ish
Ġrel ated
Ġrel ations
Ġval ued
Ġintellig ent
Ġfore st
Ġoccup ation
Ġbelong ing
Ġinfer red
Ġproof s
Ġdelay s
Ġblind ed
Ġconceal ing
Ġden ied
Ġunp ret
Ġunp ardon
Ġprov ide
Ġscru pulous
Ġconfess ing
Ġconfess ion
Ġrun ning
Ġindul ged
Ġerr ors
Ġmid sum
Ġspee ches
Ġfire side
Ġdri ving
Ġconcl uded
Ġconcl uding
Ġvar ied
Ġavo ided
Ġendea voured
bed s
Ġtre as
Ġtou ched
Ġsepar ation
Ġentreat ed
Ġexclaim ing
Ġdest ined
Ġrepro of
Ġdirect ions
Ġpriv ations
Ġquarre lled
lo ok
Ġprepar atory
Ġrepeated ly
Ġnephew s
Ġcatch ing
Ġhesit ate
Ġstri king
Ġcontri ve
Ġclear ness
Ġprofess ion
Ġcompassion ate
Ġincon venient
Ġstreng thened
Ġsick ly
Ġdev ot
Ġhappen ing
Ġimpro ved
Ġmater ially
Ġunex pected
Ġinquir ing
Ġannoun cing
Ġinj ured
Ġmeas les
Ġfamili ar
Ġtrif le
nat ure
Ġama zed
Ġama zement
Ġsign ific
Ġdiv ided
Ġposit ive
Ġcool er
Ġapparent ly
Ġaddition al
Ġflatter y
Ġflatter ing
Ġcollect ing
Ġignor ance
Ġmoder ately
Ġvex ed
Ġbas in
Ġpu pp
Ġeight een
Ġine quality
Ġapprehens ive
Ġgrace ful
Ġinduce ment
kn ightley
Ġcord ially
Ġlat est
Ġreach ing
Ġstead iness
Ġaccord ingly
Ġcomplaint s
Ġprompt ed
Ġpreva il
Ġirr itation
Ġtranqu il
Ġanticip ation
Ġunwilling ness
can not
Ġing rat
Ġga iety
Ġpreser ved
Ġproc ure
Ġconfir m
Ġpursu it
Ġaccompan ied
Ġmaint ain
Ġmaint ained
Ġpun ishment
Ġconte mpt
Ġuncom mon
Ġunlike ly
Ġrecover ing
Ġincons ider
Ġgracious ly
Ġdiscover ies
Ġselfish ness
Ġwitness ed
Ġwhisper ing
Ġfatig ued
Ġperplex ity
Ġoffend ed
Ġdece mber
Ġconject ures
Ġpert urbation
Ġperse verance
Ġparent s
Ġboast ed
Ġlux ury
Ġpus hed
Ġthreat ened
Ġmisc onduct
Ġalert ness
Ġspo iled
Ġoverp owered
Ġsurm ise
Ġdegrad ation
Ġeste em
cer ity
Ġast ley
Ġsin cerity
Ġperpet ual
Ġdiss ip
Ġpres ence
Ġshar k
Ġsubd ued
Ġcheek s
Ġwelcom ed
Ġsolicit ous
Ġbenev olence
Ġamaz ing
Ġelig ible
Ġinev itable
Ġmisunderstand ings
tim e
Ġamend s
Ġsw isser
Ġoper ation
Ġna ivete
Ġdw elt
Ġge orge
Ġdefic iency
Ġexper ience
Ġexult ation
Ġvo ices
Ġvig or
Ġunluck y
Ġunivers ally
Ġado pt
Ġribb on
Ġsurr ounded
Ġkingd om
Ġpopular ity
Ġvouch s
gam mon
nod ding
Ġze al
Ġaro se
Ġsan ction
Ġwond ered
Ġwick ed
Ġoct ober
Ġfid get
Ġnar row
Ġinjust ice
Ġremon st
Ġrelu ct
Ġwelf are
Ġupp er
Ġconund rum
Ġconcur rence
Ġextens ive
Ġalpha bet
Ġunaf fected
Ġsubsequ ent
Ġindub itable
Ġglimp se
Ġhumili ation
Ġmidsum mer
Ġswisser land
! '--
, --"
_ ;
_ .--
a is
a fe
a ment
a irc
b oy
b oth
b ye
b read
c on
c her
c al
c han
c ol
c ies
c use
c ount
c ause
c ons
d en
d ent
d ious
d ling
e f
e le
e ur
e ven
f f
f ir
f ted
f ied
g en
g ate
g reat
g ive
g ged
h ic
h umph
i ation
i ps
i ction
i vering
l ow
l ong
m ight
m ind
m itting
n et
o b
p h
p ath
p riety
r s
r on
r ity
r ust
r ances
s m
s ay
s pe
s ince
s mall
s aw
s cur
t om
t ily
u ation
u me
u ine
v ent
v ance
v ity
v ag
w ood
y er
Ġ &
Ġ 1
Ġ ver
Ġt er
Ġt est
Ġa ch
Ġa id
Ġa de
Ġa live
in ct
in formed
Ġs ne
Ġs ang
Ġs ins
Ġw ar
Ġw and
Ġw ild
Ġm our
re c
re w
re ll
re es
re ly
re qu
re ci
re cy
Ġo x
Ġo dious
Ġb on
Ġb ot
Ġb urn
Ġb ond
Ġb ick
Ġb ili
Ġb owed
Ġi v
Ġi x
er ton
er ably
nd ing
Ġc ent
Ġc ast
Ġc ake
Ġc ough
Ġc ured
Ġc ustom
Ġto p
Ġf ly
Ġf et
Ġf ood
Ġf if
Ġf ield
Ġf aint
Ġf inger
Ġhe ir
Ġhe ated
Ġn ay
Ġn ine
Ġn orth
Ġn ames
Ġn aming
Ġd er
Ġd ent
Ġd ul
Ġd rove
Ġd ial
Ġd arted
Ġbe at
ll s
it ly
it ate
it che
is y
is er
is ions
Ġp ul
Ġp ort
Ġp ack
Ġp ang
Ġp rudent
as hes
or ation
or able
or ily
Ġh it
Ġh om
Ġh ind
Ġh ol
Ġh ug
an s
an ter
an other
Ġin ch
Ġin im
Ġin no
Ġin fection
Ġno vel
at is
at ively
at tere
ar ch
om er
ver t
ver ty
Ġy ell
Ġg ame
Ġl od
Ġl iter
Ġnot icing
st e
st ill
st art
st ead
st reet
Ġth irty
ut able
se c
ri l
Ġre ward
Ġre fer
ent ial
Ġas par
Ġas certain
Ġfor lor
Ġfor bid
Ġsu its
id ay
id ity
Ġwith dra
ir ing
ir th
ct ions
Ġu mb
Ġso ld
Ġis su
od ig
al s
Ġk ings
Ġmu lt
ad d
ad able
ight forward
Ġkn ock
Ġall oy
Ġall usion
ro bation
ro gance
Ġme mor
qu ate
Ġde ad
Ġde ceive
Ġse es
Ġse vent
Ġcon c
Ġcon fer
Ġcon ceived
Ġdo ating
Ġcom b
ble ss
lf ul
Ġst om
Ġst out
Ġst arted
Ġst airc
Ġmis erably
Ġex ulting
Ġex ec
ic able
ic ally
ic ian
ul ation
fe lt
Ġfe e
Ġlo in
Ġlo vers
Ġlo cal
ant s
ant ation
ant ry
Ġmiss ing
Ġfa me
Ġfa ces
Ġper cei
Ġper man
li ation
li ven
li hood
Ġal ac
Ġor n
Ġli e
Ġr om
Ġr out
Ġr us
Ġr ough
Ġr um
Ġr ub
Ġr ode
itt le
ok ed
Ġv a
Ġv ill
Ġdis ord
Ġevery where
Ġpre ced
Ġen erg
Ġen liven
Ġun f
Ġun m
Ġun ite
Ġun not
Ġun nat
Ġab ilities
Ġpro se
Ġpro ject
Ġpo ndered
Ġpo verty
Ġshould ers
Ġlitt leness
if ully
Ġbeing s
Ġup start
Ġpart ridge
Ġco vered
Ġco arse
us able
Ġfri day
Ġcomp lying
Ġwor n
un ted
Ġfriend liness
nder ing
ie ces
Ġsha d
Ġsha king
Ġsp ort
Ġsp oso
ect ing
Ġpleas es
Ġpleas anter
ac ing
ac count
Ġfair y
Ġob st
Ġob scur
Ġatt ri
Ġatt itude
ol ved
ab s
Ġwis est
per fect
ple ss
ple te
Ġcons ist
ire s
Ġspe c
Ġlong est
Ġsure ly
are st
ject ion
Ġtalk ative
Ġgr ant
Ġmar king
Ġimp ed
Ġimp art
Ġimp ud
Ġimp ressed
Ġimp rudence
Ġri ver
Ġri chard
Ġover look
com b
com ing
Ġap ril
su ccess
su adable
oun ted
cl aimed
Ġpr odig
Ġdel usion
ck ed
Ġar ch
Ġar rogance
Ġbelie ving
Ġsub s
Ġsub miss
Ġsub mission
Ġsub mit
Ġhere after
Ġkind est
ag us
ag ue
Ġapp lied
Ġpass es
ĠĠĠĠ ĠĠ
Ġret ract
Ġlove liness
Ġdoub ly
Ġlast ed
ary ing
Ġmor al
Ġcomfort ed
Ġdist rust
am ation
Ġind ust
Ġind iv
Ġbl ow
Ġobli ge
Ġpresent ed
Ġacqu ire
Ġacqu ired
ild ered
Ġreg ularly
Ġcar o
Ġcar ing
Ġsc old
Ġsc attered
cept ions
Ġconsider ate
ser y
Ġend ing
Ġser le
Ġser ve
Ġcl os
Ġcl oud
Ġgen uine
Ġallow ances
Ġunderstand s
Ġchan ging
Ġgl ass
Ġgl oom
Ġdeal ing
Ġfound ation
Ġfam ous
Ġoften er
Ġrec ent
Ġrec all
Ġask s
Ġspir ited
Ġgent leness
Ġinst ances
Ġsec uring
Ġsec res
Ġsec recy
Ġadv oc
Ġadv anced
Ġstr ing
Ġpret tily
Ġadm iss
Ġaffect edly
Ġhard ship
mon th
Ġref ined
Ġref inement
Ġlet ting
Ġinv ent
Ġperry s
Ġrest lessness
Ġopen ness
Ġbro ken
Ġtru er
Ġless on
Ġjud icious
Ġcompl ais
Ġbegin s
Ġseem ingly
wh om
ract ed
Ġcare fully
Ġwonder s
what ever
Ġback gammon
Ġgu ilt
Ġprom inent
Ġdet ected
Ġdet ail
Ġact ual
Ġfavour ably
iv oc
Ġreason ings
Ġfortun ately
Ġdec or
Ġprop riet
Ġprop osition
Ġsmall er
Ġcle arly
Ġcle arer
Ġcomple ted
cour t
cour agement
Ġfl our
Ġfl attere
Ġsent ences
Ġexc ite
Ġexc used
ult ure
Ġfeeling ly
Ġbeaut ies
Ġbeaut ifully
Ġshew s
Ġrem oving
Ġform idable
Ġthank ing
Ġair s
Ġair y
Ġbear ing
Ġabs urd
Ġamong st
Ġglad ly
Ġinter fere
Ġpleasant est
Ġgrat ify
Ġdraw s
cern ed
Ġsil enced
whe ther
whe never
Ġfull er
Ġdepend ent
oss ible
Ġpur se
Ġplay fulness
ĠĠĠĠĠĠĠĠ Ġ
pa pa
Ġdixon s
Ġeas ier
Ġhum anity
Ġconvers able
Ġmon arch
ens ion
ens able
Ġdanc er
Ġmus ing
Ġquick est
Ġcond es
Ġeleg ancies
Ġhelp ed
cri bed
Ġnight s
Ġhus h
iet ies
Ġtri vial
Ġpat ron
Ġencour age
Ġattent ively
Ġbeha ve
Ġbeha ving
fic es
Ġcr omer
Ġincl uding
Ġcommon place
Ġexpl ained
Ġplan ning
Ġoccasion al
Ġconvin cing
Ġwat ering
Ġfo ld
Ġhealth y
Ġrecollect ed
Ġef f
Ġins ens
Ġslight ly
Ġmer cy
Ġbre ad
Ġsend s
Ġgrand eur
Ġoccur rence
do or
do es
gr own
Ġconst ancy
Ġcuri ous
Ġassist ing
Ġadmir ing
Ġadmir able
Ġodd est
Ġbri ef
Ġest ate
Ġexcl uded
Ġexcl amation
Ġplac ing
Ġcommunic ate
Ġcommunic ative
Ġdisagree ment
ex cuse
Ġx i
Ġx v
Ġx iv
Ġsad ly
Ġtoler ate
Ġfore tell
Ġfore saw
Ġextra vag
Ġevent s
Ġbreak ing
Ġeffect ually
Ġjoy ous
Ġjoy ful
Ġdelay ed
Ġhands omest
Ġden ial
Ġden ote
Ġdut ies
Ġund es
Ġste pt
Ġprov ision
Ġprov oked
Ġenjoyment s
Ġbeh old
Ġindul ging
og ue
Ġluck iest
Ġearnest ness
Ġsnow ing
Ġbor row
Ġvent uring
tic oat
Ġtre es
Ġsepar ated
Ġru les
Ġaddress es
who ever
Ġeduc ated
Ġgrie ve
Ġjo b
Ġcomprehend ing
Ġtrust ing
Ġremark able
Ġquarre lling
Ġnum erous
Ġprepar ations
Ġentertain ed
part y
inter rupt
Ġtot al
Ġeat en
Ġstri ct
Ġstri kes
Ġcox comb
Ġcontri but
ĠĠĠĠĠĠĠĠĠĠĠĠĠĠĠĠ ĠĠĠĠĠĠ
Ġendeavour ing
Ġrelie ve
Ġexcess ive
Ġfresh ness
Ġexplan ations
Ġremain ing
Ġfoot ing
Ġfoot path
fr on
Ġsk in
Ġsk etch
Ġsound s
Ġbene ath
Ġdev ice
Ġharm less
Ġpaper s
Ġaccompl ishment
Ġinj ury
Ġinj unction
Ġsuccess ful
Ġshame ful
Ġshame fully
Ġcourt es
Ġhumour ist
Ġdeclare s
Ġtrans ition
Ġsign ify
Ġmut ton
Ġmut ually
Ġdiv ision
Ġdiv isions
Ġpract ice
Ġpract ise
Ġpract ised
Ġpract icable
Ġanim ating
Ġsoft ness
Ġsaf est
Ġcalm ly
jud ging
Ġenc umb
Ġcap ital
Ġproposal s
Ġloud er
Ġloud ly
Ġwhis pered
Ġstra ightforward
Ġvol ume
Ġsupply ing
Ġillness es
Ġrapid ity
Ġreflect ed
Ġneglect ing
Ġneglect ed
Ġunreason ably
Ġow ing
Ġow es
Ġcere monious
Ġph ys
imp ossible
Ġsof ter
Ġsel ves
Ġpossess ed
Ġdistingu ished
Ġinvol unt
Ġcheck ed
Ġparcel s
Ġirr itated
Ġunnecess arily
Ġhaz le
Ġga ze
stand ing
Ġpreser ve
about s
Ġtwelve month
Ġmark ed
Ġblame less
Ġrestr ain
Ġlaw yer
Ġaccompan y
Ġsmooth ness
Ġindisp osed
Ġindisp ensable
bo arder
bet ween
Ġost ensible
Ġbu ild
Ġcot ton
Ġhonest ly
Ġxvi i
Ġxvi ii
Ġperplex ities
Ġbreat h
Ġbreat he
Ġnur sed
Ġnur sery
Ġlim ited
Ġrenew ed
Ġrenew al
Ġconject ure
Ġexam ining
Ġdisin cl
Ġrepresent ing
Ġrepresent ation
Ġguard ed
Ġlux urious
Ġprosper ity
Ġcorrespond ent
Ġvolunt ary
mar ried
Ġdro pt
Ġmisc on
Ġunfe eling
Ġoverp ower
Ġapplic ation
Ġapplic ations
Ġapprehend ed
Ġexped iency
Ġdegrad ing
Ġremind ed
Ġeste emed
Ġestim ation
Ġhesitating ly
Ġpuzz led
act ually
cont re
dra per
Ġaver ting
Ġwall is
Ġtopic s
Ġbew it
Ġbew ildered
Ġbell a
Ġhung ry
Ġincom mod
Ġsol itude
Ġdeli ber
Ġvii i
Ġdiscern ed
Ġunper suadable
Ġcapt ain
Ġoverhe aring
Ġpronoun ced
Ġassoci ate
Ġaccident al
Ġintellect ual
Ġxii i
Ġcalcul ated
Ġcontrad ict
Ġcontrad iction
Ġrejo iced
Ġaugust a
Ġfalse hood
Ġreckon ed
Ġsou l
Ġsal ary
Ġwid ow
Ġwra pt
Ġmag n
Ġfro zen
Ġpred ict
Ġinex press
Ġren contre
Ġdem ure
Ġdepl orable
Ġemot ion
Ġstor m
Ġrous ing
Ġvirt ue
Ġdiscl osure
Ġdisgra ced
Ġunse en
Ġunsu itable
Ġcapri ce
Ġcop ied
Ġentit led
Ġsurp r
Ġstoop ing
Ġelev ation
Ġfreed om
Ġcounter act
Ġreconci liation
Ġpunct ually
Ġpalp ably
fri end
pit ality
pret ty
sight ed
tr ade
Ġtid ings
Ġsli ce
Ġhang ing
Ġpet ticoat
Ġess ential
Ġhos pitality
Ġrevi ved
Ġreign s
Ġreappe ared
Ġsoot hing
Ġsolit ary
Ġdepart ure
Ġsau cy
Ġperfor mer
Ġdissu ade
Ġdisappe arance
Ġcompet ent
Ġarrow root
Ġdesper ate
Ġblock head
Ġteacher s
Ġcomplac ency
Ġdonke y
Ġclevere r
Ġsimil ar
Ġunpret ending
Ġunpardon able
Ġtreas ure
Ġpupp y
Ġingrat itude
Ġconfirm ation
Ġcontempt ible
Ġvigor ously
Ġwicked ness
Ġreluct ance
fir st
mind ed
spe aking
Ġter ri
Ġach ie
Ġbon net
Ġbot tom
Ġbick erton
Ġbili ous
Ġcent re
Ġfif ty
Ġdent ist
Ġdul ness
Ġhom es
Ġhol iday
Ġhug hes
Ġinim itable
Ġinno c
Ġyell ow
Ġaspar agus
Ġforlor n
Ġwithdra wn
Ġumb rell
Ġsevent een
Ġstairc ase
Ġpercei ving
Ġalac rity
Ġdisord er
Ġenerg y
Ġunnot iced
Ġunnat ural
account able
Ġobscur ity
Ġindiv id
Ġsecres y
Ġadvoc ate
Ġencumb rance
. _
: "
: --"
: "--
: '--
_ --
_ ;--
a pt
a ide
a iled
a iling
b r
b re
b at
b od
b ad
b able
b ition
b row
b ility
b ating
b reed
b by
c u
c re
c and
c ation
c ot
c ra
c are
c ried
c ame
c ue
c ision
c has
c ension
d y
d is
d es
d if
d ixon
d ump
d read
d ges
e g
e ight
e lf
e el
e my
e xt
e mption
f fe
f ive
f ull
f arm
f ited
f ashion
g s
g ur
g ain
g ular
g ency
h ome
h igh
h ib
i z
i pp
i us
i um
i ating
i pped
i ences
j ar
j ug
k s
k ed
l in
l ar
l im
l ite
l au
l ady
l ashes
l ittle
l aide
m s
m in
m ous
m med
m ense
m aster
m ming
n n
n ut
n ic
n one
n ful
n ings
o on
o ps
p as
p at
p ent
p ur
p ment
p ired
p iece
p assion
p resent
p owered
p rob
r m
r ained
s p
s ion
s ir
s al
s pect
s we
s atis
t c
t z
t is
t ly
t ri
t art
t ry
t hing
t ive
t ty
t aken
t aking
t iresome
u le
u ce
u ance
u ity
u ations
u mption
v is
v ive
v il
v ice
v ances
v iew
w a
w or
w ish
w ife
x ter
z a
Ġ [
Ġ ."
Ġ vers
Ġ ----
Ġt our
Ġt up
Ġt ipp
he red
he ard
he cked
Ġa im
Ġa ven
Ġa ud
Ġa ired
Ġa ye
Ġa jar
in u
in en
in et
in qu
in ate
in ity
in ced
in ition
Ġs ton
Ġs me
Ġs ig
Ġs ources
Ġs ashed
Ġw in
Ġw an
Ġw ore
Ġw itt
Ġw arr
Ġw ains
Ġw itty
Ġm ent
Ġm ant
Ġm are
Ġm ond
Ġm ount
Ġm oves
Ġm oon
re pe
re nder
re am
re gular
Ġo we
Ġo mission
ha ut
ha lf
ha ved
ha ust
ou p
ou lt
Ġb a
Ġb is
Ġb an
Ġb ent
Ġb and
Ġb red
Ġb ount
Ġb lend
er al
er fection
nd ay
Ġc her
Ġc art
Ġc ases
Ġc ulture
on y
Ġf le
Ġf les
Ġf ish
Ġf aster
Ġf illed
Ġf ainted
Ġf lies
ing en
Ġhe al
Ġhe dge
Ġhe dges
Ġhe tty
en ough
ed ience
Ġha t
Ġha ting
Ġha nn
Ġn ieces
Ġd ar
Ġd ess
Ġd ate
Ġd ust
Ġd ies
Ġd ined
Ġd ub
Ġd edu
Ġd ict
Ġd ashed
Ġd imens
Ġbe au
Ġbe am
Ġbe ars
Ġbe arer
ll or
it im
it ure
it ably
it ute
it ating
is en
is able
is per
is abella
Ġp an
Ġp om
Ġp ure
Ġp age
Ġp ud
Ġp ages
Ġp oult
le ave
le ep
le light
Ġe cc
Ġe tern
Ġe tc
as ible
or ious
or ary
or ned
Ġh y
Ġh ost
Ġh ue
an ch
Ġin ade
Ġin fect
Ġin formed
Ġno d
Ġno dd
Ġno isy
es se
es cri
at ious
at ives
at uation
ar ls
-- ,
-- .
-- _
om ed
om eness
ver ie
Ġg if
Ġg est
Ġg ross
Ġg aining
ve ment
ve lo
ve aled
Ġl ent
Ġl ame
Ġl inen
Ġwas te
gh ing
st er
st ay
st ood
st ru
st ep
st op
st ancy
Ġshe et
Ġth y
Ġth ri
Ġth rew
ut ing
ut ions
se e
se emed
se llor
Ġ" `
ce nding
ri ch
ri ment
ri ck
ri ously
Ġre leas
Ġre plete
Ġre verie
Ġre vealed
ent ive
ent ire
ent ric
Ġas per
Ġas under
Ġas pired
Ġas leep
ow ard
Ġfor fe
Ġfor ci
Ġfor wards
et ite
et ches
Ġsu ng
Ġsu nday
id ant
id erable
Ġan t
Ġan ne
Ġwe igh
ir m
ir ation
ir iting
ct ed
Ġat e
Ġat one
od ies
Ġk iss
Ġk itty
Ġk itche
Ġbut ter
Ġbut ler
Ġbut cher
ill ing
Ġmu rm
ur s
ur ous
ad ing
ad ed
Ġkn itting
Ġall uded
Ġall uding
ro ke
ro cation
pe re
pe lled
Ġme at
ter ior
qu ick
Ġde ed
Ġde em
Ġde ference
Ġde eper
Ġde fend
Ġde xter
Ġde velo
Ġse ize
Ġse iz
Ġem p
Ġcon cess
Ġcon cise
Ġcon jug
Ġdo ct
Ġdo ated
Ġsa le
Ġsa ving
Ġsa ck
Ġj uly
and um
Ġfr own
Ġfr ame
Ġfr amed
Ġhar p
Ġhar sh
Ġhar mony
pp ery
pp osing
Ġst im
Ġst ain
Ġst ake
Ġst ag
Ġst ip
Ġst ability
ak s
ess ion
Ġmis led
Ġmis inter
Ġex ten
Ġex emption
Ġex haust
Ġex terior
ic s
ic er
ic ated
ic ities
ic ism
ic ule
ul ated
our s
Ġfe ed
Ġfe asible
me rely
ge orge
Ġle st
Ġle ct
Ġle aning
ant y
Ġwill ingly
Ġam id
Ġam ity
Ġam uses
Ġam ply
Ġam bition
red ible
Ġfa ire
Ġfa iling
Ġfa gged
ort ions
Ġper verse
li ance
li est
li ction
Ġsh r
Ġsh ower
Ġsh illing
Ġal tern
de ceived
de light
Ġor chard
Ġli p
Ġli es
Ġr ouse
Ġr are
Ġr ange
Ġqu ality
Ġqu ivering
itt al
Ġv en
Ġv an
Ġv iv
reat ed
Ġdis com
Ġdis ci
Ġdis eng
Ġdis course
Ġdis gu
Ġdis couragement
Ġch ick
Ġch using
Ġag es
Ġag ric
Ġag rees
Ġag ony
Ġevery day
Ġpre mat
Ġpre caut
Ġen qu
Ġen able
Ġen emy
Ġen lar
Ġen rich
ong ru
Ġint ol
Ġun qu
Ġun able
Ġun fa
Ġun mer
Ġun man
Ġun health
Ġun att
Ġun gen
Ġun ans
Ġun stead
Ġun interrupt
Ġun accountable
Ġun heard
Ġab using
Ġab hor
Ġpro cess
Ġpro jected
Ġpro long
Ġpro claimed
Ġpro pere
Ġaf for
Ġaf fron
Ġpo et
Ġpo ck
Ġpo ign
Ġpo em
Ġpo ison
Ġpo ndering
Ġpo lite
Ġwhen ce
Ġca ps
ven iences
if ice
il os
!-- _
Ġac ute
Ġpart s
Ġpart ake
Ġpart ially
Ġco ars
Ġco ffe
us hing
us age
us hed
us ions
us ively
Ġfri ed
Ġcomp liance
ane ous
el ton
el piece
Ġwor sh
un ting
fa re
fa ce
Ġnow here
Ġsha red
Ġsha ring
Ġsha bby
age able
Ġsp ark
Ġsp lend
ect ion
Ġad oration
Ġad apt
ac iously
ac itly
Ġob edience
Ġgo ld
Ġgo ss
Ġgo ose
os es
ru ction
Ġus hered
Ġpl ague
ren ces
Ġres isted
Ġres iding
Ġres cue
Ġlike lihood
th row
th roat
th irty
Ġho arse
?" --"
Ġdear s
Ġdear ly
Ġcons umption
Ġcha mber
Ġinde f
Ġinde lic
Ġfather s
Ġunder rated
Ġunder go
Ġyoung er
Ġgr oup
Ġjust ly
Ġjust ify
ass able
Ġimp ly
Ġimp osed
Ġimp ute
Ġimp arted
Ġimp uted
Ġimp erfection
Ġimp assable
Ġover char
Ġover taken
su pposing
Ġsupp ers
cl osed
Ġrep ul
Ġrep ressed
Ġrep lies
own ish
Ġar dent
Ġar isen
Ġbelie f
Ġsub ord
Ġsub side
Ġsub mitting
Ġsub lim
Ġoff ences
Ġoff ices
Ġhere abouts
ig ning
Ġappe al
Ġappe ased
Ġappe aled
ag s
Ġbr anch
Ġent ang
Ġapp ly
Ġapp lying
Ġapp reci
Ġapp etite
pl ine
Ġpass able
Ġdes ires
Ġpe w
Ġpe arls
Ġret reated
she ned
ud es
Ġvis ible
Ġvis ibly
Ġlast s
Ġtr unk
ix ed
Ġass uring
Ġfel icities
Ġdist aste
am b
am or
Ġind ist
Ġbl unt
Ġpoor ly
Ġpresent s
Ġpresent ing
Ġacqu ittal
Ġext ract
Ġdoubt ingly
be fore
be aut
be cause
be haved
Ġeng ra
Ġsc ore
Ġsc ale
Ġsc anty
ne ither
Ġconsider ations
Ġnat ured
ist ing
ist ence
Ġsubject ion
ser vice
Ġcl er
Ġcl ot
Ġcl osing
Ġcl othed
Ġcl ownish
Ġgen ius
ret urning
Ġsur render
Ġallow ance
Ġchild hood
Ġdelight s
Ġgl ory
Ġacc um
Ġacc ustom
Ġdeal ings
Ġgener ations
Ġimag ining
Ġimag inations
Ġev idence
Ġconf inement
Ġconf idant
Ġrec ently
Ġrec alled
Ġinterest s
Ġgent eel
Ġrand om
Ġadv ances
Ġadv ising
Ġadv isable
vour able
ince re
Ġill iter
Ġill eg
Ġstr ay
Ġadm in
to ld
Ġim mense
Ġbest ow
Ġbest owed
Ġpers isting
Ġaffect ation
mon ial
Ġref ine
Ġref res
Ġref using
Ġworld s
Ġequ alled
Ġinv ention
Ġelse where
pri ated
Ġgentle woman
Ġrest ed
Ġrest less
Ġexp ert
Ġinc ap
Ġinc umb
Ġinc redible
Ġinc ongru
Ġread s
Ġread iness
Ġrespect ing
Ġrespect ed
Ġrespect ful
reme ly
Ġobser ver
Ġless ened
Ġagree ableness
Ġwi lful
Ġdisp ens
Ġdisp ense
Ġcompl ains
Ġmin or
Ġmother ly
wh isper
Ġsuper sed
Ġsuf fic
Ġke en
Ġche ap
Ġcontin uance
Ġanswer s
Ġsurpriz es
Ġgu ide
Ġdet ain
Ġdet aining
Ġfavour ing
Ġobject ed
Ġreason s
sel ina
Ġprop he
Ġprop osing
Ġprop ortions
Ġcomple t
Ġappro val
Ġappro priated
Ġsatisf ies
Ġbo arder
ern al
ern ation
Ġfl own
Ġfl ower
Ġfl oor
Ġfl ock
Ġfl irt
Ġfl akes
Ġdiff idence
Ġdiff ident
Ġbrother ly
ip lied
Ġexc usable
Ġma ma
ign ed
ign edly
Ġthank fully
sh ort
Ġinf ant
Ġinf li
Ġinf atuation
Ġsto ops
Ġprob abilities
Ġinter view
Ġpleasant ness
Ġgrat ific
app robation
Ġsil ver
Ġele ven
Ġprev iously
Ġregard s
Ġregard less
Ġexpress ive
Ġwa vering
Ġneed s
Ġneed ed
Ġcheer ing
Ġdinner s
Ġfull est
Ġcompliment ary
em n
Ġopp ress
Ġopp osition
Ġpi qu
Ġpur chas
Ġtemp orary
Ġserious ness
Ġremember ing
Ġaw ake
Ġpar k
Ġpar ley
Ġpar ishes
Ġplay er
Ġplay ful
Ġplay fully
Ġfond ness
Ġeas ter
Ġhum ane
Ġexcept ed
Ġcol oured
Ġfart hest
Ġhel pless
ens es
isten ed
isten cy
Ġreal ity
Ġreal ised
Ġview ed
Ġcharacter s
will iam
Ġgra m
Ġgra ver
Ġgra ces
Ġgra vel
Ġgra vity
Ġcond uce
Ġcond emn
Ġeleg antly
Ġhus wife
Ġla mp
Ġdecl ine
Ġtri ump
Ġtri bute
Ġtri mming
Ġswe pt
Ġfre shened
Ġdisc ont
Ġdanger s
Ġunc hecked
Ġcr ay
Ġincl ine
Ġincl inations
Ġplan ned
ollect ing
Ġmusic ian
Ġra ising
uri es
Ġrequ iring
Ġens ure
Ġaccept ance
Ġrecollect ing
Ġpersuad able
Ġinqu ired
Ġcomm it
Ġclaim ed
Ġsuspic ious
Ġsuspic iously
Ġsim ply
Ġdread ed
Ġintim ates
Ġsecond ary
Ġwind y
Ġcoun ty
Ġcoun cil
Ġcoun sellor
Ġciv illy
Ġeye brow
Ġins pect
Ġins isted
Ġins olence
Ġins idious
Ġins inu
Ġins incere
Ġslight ing
Ġsweet ly
Ġsweet est
Ġsweet bread
Ġten aciously
Ġmer ry
Ġmer maid
Ġmer riment
Ġconsequ ences
Ġgrand papa
gr and
Ġconst ruction
Ġconst ernation
Ġplain tive
Ġblus hing
Ġproceed ings
Ġmod es
eng er
Ġexcl usively
Ġwork b
Ġwork ed
Ġcommunic ating
ex pect
ex am
ex cell
Ġtend erest
Ġir on
Ġir regular
Ġrel ating
Ġrel ates
Ġgrow s
Ġrich ly
morrow s
Ġemploy ing
gg es
Ġsight s
Ġfore bod
Ġprevent ing
Ġav ail
res pect
Ġfour teen
Ġsudden ness
Ġtrouble s
Ġinflu enced
Ġearn ed
Ġbelong s
Ġdeep est
Ġconceal ed
happ y
Ġjoin ing
Ġalarm s
Ġunp rep
Ġprof it
Ġprof its
Ġprof usion
Ġprov oc
Ġconfess ed
Ġconfess es
Ġobserv ant
Ġobserv ance
Ġesc orted
Ġdisappoint ing
Ġpurpose ly
with in
with out
Ġwel ch
Ġrun s
Ġindul gent
Ġpict ures
Ġservice able
Ġsix p
Ġrepe ating
fortun ate
Ġdesir ing
Ġdesir ous
Ġdescri bing
Ġlikeness es
Ġsnow ed
Ġwret ch
Ġbor dered
Ġcal mer
Ġfire s
Ġdri ven
Ġcommand ed
Ġlead s
Ġvar iously
Ġvar iation
Ġvar ieties
ific ent
Ġcontr ition
Ġtre acher
Ġtre mble
Ġtou ches
Ġwed nes
Ġration ally
Ġunhapp iness
Ġopportun ities
Ġbehind hand
Ġgrie vous
Ġgrie vance
Ġce ases
Ġdest ination
Ġexert ing
Ġprefer able
Ġcomprehend ed
Ġrepro bating
Ġpriv y
Ġsimple ton
Ġdisappointment s
Ġcongratul ation
Ġcongratul ated
Ġcongratul ating
Ġcongratul atory
Ġconvi ctions
Ġfear fully
Ġord inary
Ġprep are
Ġprep oss
Ġsentiment ally
rehens ible
part icul
Ġfarm ing
Ġhesit ations
Ġeat s
Ġlight ened
Ġstri ke
Ġstri ving
Ġstri ctly
Ġprot racted
Ġprot ection
Ġcox e
Ġconsent ing
Ġcontri ving
Ġclear ing
Ġarrangement s
Ġfast en
Ġdr ank
Ġdr own
Ġrecei ves
Ġcompar ative
Ġcompar atively
Ġarm s
Ġincon stancy
Ġfoot step
man s
Ġsk etches
Ġsick ness
Ġbene fited
Ġconn ect
Ġfright ful
Ġimpro priety
Ġapolog ise
Ġreply ing
Ġdream er
Ġfool s
Ġaccompl ish
Ġinj ure
Ġinj urious
Ġsuccess fully
Ġmeas ures
Ġobjection able
Ġhumour s
Ġtrif les
Ġtrans pl
Ġtrans fer
Ġtrans cribed
Ġtouch ing
Ġsign ed
Ġsign ified
Ġmut tering
Ġdiv ide
Ġpract ising
Ġur ging
Ġur gent
Ġur gency
Ġcool ed
Ġart ist
Ġart ifice
Ġsuggest ing
Ġsuggest ion
Ġsuggest ions
jud ged
Ġmess enger
Ġhot ter
Ġyouth ful
Ġlangu or
Ġseat s
Ġliber ality
Ġenc han
Ġabsent ing
Ġcap abilities
Ġbetray ing
Ġbroad er
Ġbroad wood
Ġinterrupt ion
Ġparlour s
Ġmoder ation
op en
op hic
Ġbas is
Ġbar gain
Ġbra gges
Ġeight h
Ġdep os
Ġemb rocation
Ġsacri fices
Ġdisgust ing
Ġdisgust ed
Ġdisgust ingly
Ġchrist ian
Ġconsol ing
Ġsmo othed
Ġreport s
Ġindis c
Ġindign ant
Ġindign antly
Ġpretend ing
Ġdeserved ly
Ġprotest ed
gent le
gress ion
Ġsle ep
Ġbir ming
Ġcand id
Ġcand les
Ġcand lelight
Ġph ilos
Ġweak ness
Ġdistingu ish
Ġcheck ing
Ġirr itate
Ġfoolish ly
Ġmed itated
Ġmed ium
Ġchat ty
Ġpit ch
Ġpit ied
Ġpit iable
Ġpit iful
Ġfail ure
Ġqual ified
Ġvulg arity
Ġpreser ving
Ġgover ned
Ġmark s
Ġmatri monial
Ġrestr ained
Ġrememb rances
Ġhorr ors
Ġpursu ing
Ġpursu its
Ġunequ ivoc
Ġlament ing
Ġlament ed
Ġaccommod ate
Ġaccommod ations
Ġaccompan ying
Ġprincipal s
Ġindisp osition
Ġindisp utable
Ġcrowd ed
bo ard
bo ok
bet ter
char ming
wr itten
Ġau gur
hand some
Ġbu y
Ġbu ried
Ġbu ilt
Ġdark er
Ġdef ence
Ġdef iance
Ġdef inition
Ġfema les
Ġlear ned
Ġpartial ity
Ġattack ed
Ġincons iderable
Ġincons istency
Ġgracious ness
Ġsatisfact orily
Ġhence forward
Ġcease less
humoured ly
Ġstrawber ry
Ġfatig ue
Ġfatig ues
Ġshrub s
Ġauthor ised
Ġbreat hing
Ġcur t
Ġnur se
Ġdign ified
Ġple ading
Ġlim e
Ġrenew ing
Ġdece it
Ġdece ase
Ġmisunder stood
Ġexam ine
Ġexam ined
Ġperse vering
Ġperse vered
Ġrisk s
Ġdisplay s
Ġdisplay ed
Ġpop ulous
Ġcomposed ly
Ġobt ru
Ġgips y
Ġglow ing
Ġparent age
Ġprivile ged
Ġirres olute
Ġcorrespond ence
Ġembarrass ed
Ġsoften ing
Ġstupid ity
Ġstupid est
mar ry
head ed
Ġdro p
Ġdry ly
Ġbend s
Ġpus hing
Ġyield ed
Ġlord s
Ġthir teen
Ġthreat ening
Ġconvenient ly
Ġstud ied
Ġfaith ful
Ġaff irm
Ġaff liction
Ġpoin tedly
Ġridd les
Ġrepet itions
Ġargu ments
Ġdesign s
Ġsurm ised
Ġexped ient
Ġdraught s
Ġremind ing
Ġcolour ing
Ġestim ate
Ġpuzz le
Ġcordial ity
Ġtranquill ised
Ġunsus pected
Ġlearn t
Ġshrubber ies
?' "
Ġaver ted
Ġast ray
Ġswell ing
Ġmill ion
Ġfurn ish
Ġfurn ished
Ġfurn iture
Ġones elf
Ġwear iness
Ġsol ace
Ġmeal s
Ġdeli vered
Ġperpet ually
Ġalter ation
Ġvi olent
Ġunper ceived
Ġcapt ious
Ġshar p
Ġfirm ly
Ġundert aking
Ġundert akes
Ġoverhe ard
Ġapart ment
Ġpronoun ce
Ġsubd uing
Ġassoci ates
Ġaccident ally
Ġrecur rence
Ġrefresh ment
Ġintellect s
Ġbright er
Ġwelcom ing
Ġcalcul ate
Ġdestroy ed
Ġbenev olent
Ġimproper ly
Ġheaven s
Ġamaz ingly
Ġelder ly
Ġinev itably
Ġrejo ined
Ġdisturb ance
Ġbitter ly
Ġingen ious
Ġingen uity
Ġhazard ed
__ __
bl ushing
hor ses
pre ted
Ġ2 8
Ġwid ower
Ġmag ist
Ġnin th
Ġnin ety
Ġegg s
Ġinher ited
att le
Ġhero ism
Ġlist s
maid s
Ġdepl ore
Ġdemand s
Ġemot ions
Ġconqu est
Ġconqu ered
Ġjump ed
Ġstore s
Ġrous ed
Ġvirt ues
Ġdisgra ce
Ġprejud ice
Ġprejud iced
Ġunt ainted
Ġunt oward
Ġdesp atch
Ġdesert ed
Ġengross ed
Ġsurp ass
Ġelev ate
Ġsummon s
Ġstrugg le
Ġstrugg led
ĠĠĠĠĠĠĠĠĠĠĠĠĠĠĠĠĠĠĠĠĠĠĠĠĠĠĠĠĠĠĠĠ ĠĠĠĠĠĠĠĠĠĠĠĠĠĠĠĠĠĠĠĠĠĠ
Ġreconci le
Ġforesee ing
Ġrestraint s
Ġpunct ual
Ġcontempl ation
00 0
bro ke
length s
uous ness
Ġwal nut
Ġwal tz
Ġmain tenance
Ġmil iti
Ġcre ate
Ġcous in
Ġcous ins
Ġnarr ation
Ġdiver ted
Ġgather ing
Ġland s
Ġshel ter
Ġshel tered
Ġallevi ation
Ġallevi ations
quarter s
Ġcommend ation
Ġstable s
Ġstret ch
Ġstret ching
Ġshif t
Ġvac ant
Ġdisper sed
Ġpretens ion
Ġpretens ions
Ġenv ious
Ġattract ive
Ġresign ed
think s
Ġimpert in
Ġimpert inent
Ġbrisk ly
Ġassert ed
Ġscra pe
Ġscra mble
Ġadvent ure
Ġexchan ge
Ġuncon cerned
Ġunconscious ly
Ġcrit ical
Ġforest all
Ġdevot ing
Ġdevot ion
Ġsignific ant
Ġsignific antly
Ġinconsider ate
Ġdissip ated
Ġvouchs af
Ġvouchs afe
Ġremonst rance
Ġalphabet s
col ours
cons ider
ele g
ob ser
Ġ1 0
Ġade laide
Ġsne ering
Ġwar fare
Ġwand er
Ġmour ning
rec ollecting
Ġox ford
Ġfet ched
Ġdial ogue
Ġpul se
Ġport ra
Ġnovel ty
Ġlod ged
sec ret
Ġissu e
Ġmult iplied
Ġknock ed
Ġmemor andum
Ġconc ert
Ġstom ach
Ġexec ution
Ġperman ently
Ġorn ament
Ġrom ance
Ġrus h
Ġrum our
Ġrub ber
Ġvill age
Ġenliven ed
Ġshad ow
Ġattri but
abs olute
perfect ly
Ġspec imens
Ġimped e
Ġimpart ial
Ġimpud ent
Ġprodig y
Ġsubmiss ive
Ġindust riously
Ġacquire ments
Ġscold ed
Ġclos est
Ġcloud s
Ġglass es
Ġadmiss ible
Ġcomplais ance
Ġdecor um
Ġpropriet or
court ship
Ġflour ishes
Ġflattere r
Ġabsurd ity
Ġcondes cension
Ġpatron ess
Ġeff usion
Ġinsens ibility
Ġextravag ance
Ġborrow ed
Ġcourtes y
Ġphys ic
Ġinvolunt arily
Ġbuild ing
Ġdisincl ination
Ġbewit ching
Ġincommod ed
Ġdeliber ately
Ġmagn ificent
Ġinexpress ibly
Ġsurpr ising
friend ly
Ġterri bly
Ġachie ved
Ġinnoc ently
Ġumbrell as
Ġindivid ual
bat hing
breed ing
cu its
cand les
care ful
des k
dread ful
ext remely
fashion ed
high bury
lau ghing
prob ably
satis fied
tri mmed
Ġvers es
Ġ---- ----
Ġtipp et
Ġaim ed
Ġston e
Ġsig hed
Ġwitt ier
Ġwarr ant
Ġwains cot
Ġment al
Ġmant elpiece
Ġmond ay
Ġmoon light
repe ated
haut boy
Ġbis cuits
Ġban ished
Ġbount iful
Ġblend ed
Ġfle w
Ġfles h
Ġhann ah
Ġdess ert
Ġdedu ction
Ġdimens ions
itim acy
Ġpan ic
Ġpom p
Ġpoult ry
Ġecc entric
Ġetern al
Ġinade quate
Ġinfect ious
escri bable
entire ly
Ġforci bly
Ġatone ment
Ġkiss ed
Ġkitche n
Ġdevelo pment
Ġseiz ure
Ġconcess ion
Ġconjug al
Ġmisinter preted
Ġexhaust ed
Ġfaire st
Ġaltern ative
delight ful
Ġrare ly
Ġviv acity
Ġdiscom posed
Ġdisci pline
Ġdiseng age
Ġchick en
Ġpremat ure
Ġintol erable
Ġunfa vourable
Ġunmer ited
Ġunman ageable
Ġunhealth y
Ġunatt ended
Ġunstead iness
Ġaffor ding
Ġaffron ted
Ġpock et
Ġpoign ant
Ġcoffe e
Ġspark ling
Ġsplend our
Ġoverchar ged
Ġentang led
Ġindist inct
Ġextract s
beaut iful
Ġaccustom ed
Ġilliter ate
Ġilleg itimacy
Ġrefres hing
Ġincap able
Ġincumb ent
Ġsupersed ed
Ġsuffic ed
Ġflirt ation
Ġtriump han
Ġeyebrow s
Ġunprep ared
Ġtreacher y
Ġwednes day
Ġbirming ham
Ġphilos ophic
Ġwalnut s
Ġmiliti a
! )--
' ;
) .--
) ;--
. ]
. ,"
. ,'
1 6
8 16
: '
; '--
? )--
_ !
_ '
_ :
_ ?
_ ?"
_ ,"--
a e
a v
a x
a very
a mp
a us
a ps
a ction
a fer
a its
a vour
a vers
a ments
a unted
b i
b u
b ri
b ow
b al
b ak
b ot
b est
b us
b ol
b ade
b are
b alls
b ited
b raid
b acy
b band
b lu
b ath
b bed
b oured
b anity
b ridge
b riety
b leness
b ham
b irth
b inet
b aits
c o
c le
c as
c ar
c st
c ill
c ant
c red
c ry
c ost
c ity
c ast
c iness
c ary
c irc
c ult
c ap
c atch
c ises
c illed
c akes
c oat
c usable
d as
d ro
d ure
d ance
d ness
d ress
d ings
d oub
d iss
d ances
d ating
d irty
d ote
d leness
e e
e u
e er
e qu
e li
e ast
e ful
e ach
e ps
e ase
e ye
e gr
e pless
f o
f ar
f et
f ton
f ind
f ather
f urn
f ine
f used
f fic
f res
f right
f etch
f old
f fere
f low
g ard
g est
g ings
g ave
g irl
g itation
g ued
g ating
g ressed
g over
g allant
g lance
g acity
h on
h us
i a
i en
i as
i at
i lf
i ate
i ved
i ber
i ations
i ances
i plicity
i ableness
i enced
i pping
i lful
j ac
j oint
j ames
j uly
k y
k in
k ind
k some
k ingly
k itty
l is
l ore
l ower
l ord
l ove
l ins
l atter
l amed
l cer
l acing
l ogue
l istened
m is
m ith
m id
m al
m ess
m our
m ate
m ity
m ane
m os
m ine
m um
m oment
m ist
m ired
m ination
m ark
m inary
m ency
m oving
m eth
m ulous
n u
n al
n ation
n ry
n ance
n el
n ine
n ip
n ons
n night
n ames
n amed
o le
o id
o pe
o ak
o ose
o per
o ated
o ft
o iling
o pping
o idable
o eu
p r
p ut
p se
p ion
p her
p al
p ro
p han
p ort
p riet
p ite
p ies
p ace
p ared
p ens
p osition
p ressed
p itable
p leasant
p oc
p ening
p orted
p ieces
p rehensible
p ilf
r d
r ou
r an
r ment
r ast
r un
r ating
r ised
r ines
r ates
r isy
r ants
r istened
s y
s on
s ad
s our
s ive
s ac
s ix
s how
s itting
s ens
s chool
s low
s cre
t t
t re
t le
t ar
t ain
t all
t ies
t ied
t ired
t aylor
t imes
t rees
t esse
t acitly
t attle
u pe
u ck
u ently
u gg
u ously
v ill
v ad
v ant
v ite
v ol
v ass
v ided
v ished
v ring
v idently
v atory
v iti
v arying
v inced
w s
w ing
w es
w ic
w ink
w ind
w alk
w are
w arted
w rote
w anted
w orthy
w dling
y st
y et
y el
y ork
y ards
y ran
z y
z ard
z ig
z ags
Ġ '
Ġ 7
Ġ 8
Ġ ed
Ġ --"
Ġ verse
Ġ zig
Ġt ha
Ġt ed
Ġt an
Ġt ur
Ġt ro
Ġt art
Ġt un
Ġt ie
Ġt ies
Ġt aut
Ġt ens
Ġt ers
Ġt une
Ġt umb
Ġt ittle
Ġt ires
Ġt acitly
Ġt ax
Ġt yran
he l
he ld
he um
he res
he rence
he mat
he ts
he cary
he nry
Ġa ld
Ġa us
Ġa ust
Ġa we
Ġa right
Ġa head
in ar
in st
in cl
in ction
in fer
in ist
in ating
in ished
in arily
in uing
in suf
in terest
in acity
in stead
in cre
in vite
Ġs ed
Ġs ar
Ġs ch
Ġs han
Ġs way
Ġs cept
Ġs edu
Ġs ash
Ġw reat
Ġw ake
Ġw ide
Ġw ins
Ġw aking
Ġw ilt
Ġw ounded
Ġw aded
Ġm im
Ġm al
Ġm ic
Ġm ick
Ġm ute
Ġm ock
Ġm itche
Ġm irth
Ġm ounted
re l
re v
re en
re ar
re ma
re ally
re ction
re ason
re mpt
re monious
re rs
re fused
re mark
Ġo ath
Ġo mit
Ġo live
Ġo mitting
Ġo yst
ha st
ha el
ha ving
ha bited
ou ched
ou rers
Ġb en
Ġb le
Ġb al
Ġb ul
Ġb one
Ġb ake
Ġb os
Ġb ound
Ġb ury
Ġb ars
Ġb ase
Ġb ang
Ġb ord
Ġb ash
Ġb ows
Ġb ounded
Ġb ounds
Ġb odies
Ġb ias
Ġi ce
Ġi do
Ġi dleness
er ation
er ate
er ning
er get
er vour
er fully
er ial
er ney
er ates
er oom
er vatory
Ġthe od
nd s
nd ages
nd wic
Ġc od
Ġc li
Ġc ry
Ġc ell
Ġc ra
Ġc ather
Ġc ost
Ġc ust
Ġc ert
Ġc ree
Ġc ip
Ġc ows
Ġc iti
Ġc attle
Ġto m
Ġto ss
Ġto tter
Ġto oth
Ġto ken
Ġto nes
Ġto rment
on ne
on ist
Ġf ed
Ġf ur
Ġf ight
Ġf est
Ġf un
Ġf ence
Ġf ren
Ġf iness
Ġf its
Ġf alls
Ġf itted
Ġf ath
Ġf uss
Ġf enced
Ġf lying
Ġf ervour
ing ing
ing ering
Ġhe ed
Ġhe ire
Ġhe ap
Ġhe aled
Ġhe ms
en es
en ness
en ient
en ers
en cer
en couragement
en za
ed ed
ed al
ed erates
Ġha y
Ġha ted
Ġha ber
Ġha unt
Ġha pha
Ġha unted
Ġha unting
Ġn on
Ġn our
Ġn est
Ġn ought
Ġn ons
Ġn icer
Ġd it
Ġd as
Ġd ur
Ġd art
Ġd il
Ġd us
Ġd ru
Ġd int
Ġd ated
Ġd up
Ġd iet
Ġd ili
Ġd ork
Ġd ying
Ġd rud
Ġd aring
Ġd irt
Ġd uly
Ġd upe
Ġbe et
Ġbe aming
Ġbe fri
Ġbe friend
Ġbe avers
Ġbe held
ll e
ll ent
ll ation
ll ied
ll ards
ll enness
it en
it ance
it age
it ence
it ious
it ary
it ers
is ition
is ons
is king
is tered
is cerned
Ġp ent
Ġp ill
Ġp ore
Ġp all
Ġp ic
Ġp our
Ġp ink
Ġp ull
Ġp ars
Ġp ick
Ġp up
Ġp ens
Ġp antry
Ġp acing
Ġp edal
le e
le en
le ful
le ham
le gance
le work
le gating
Ġe cl
Ġe pit
Ġe cst
Ġe jac
Ġe yel
Ġe rection
as ies
as ively
as hamed
as ures
as ket
as sembled
as ked
or ied
or ating
or ney
or dered
or bing
or mous
or nful
or atives
Ġh id
Ġh ood
Ġh ous
Ġh ired
Ġh ym
Ġh inde
Ġh umph
Ġh unting
an ed
an im
an ry
an ne
an za
Ġin se
Ġin ad
Ġin fa
Ġin ward
Ġin su
Ġin ference
Ġin ability
Ġin road
Ġin att
Ġin habited
Ġno bility
Ġno min
Ġno viti
es e
es sel
es pion
at or
at ic
at able
at ure
at us
at ible
at ig
at ched
at iven
ar a
ar ies
ar iable
ar rick
ar atus
-- :
-- ."
-- .'
om ise
om anry
ver b
ver ings
Ġher itage
Ġit al
Ġg al
Ġg li
Ġg out
Ġg ate
Ġg ang
Ġg ames
Ġg rud
Ġg reet
Ġg ains
Ġg arter
Ġg inger
Ġg lee
Ġg arrick
ve ying
Ġl ur
Ġl ain
Ġl ot
Ġl ic
Ġl one
Ġl ined
Ġl oth
Ġl ang
Ġl imes
Ġl onel
Ġl eng
Ġl ingu
Ġl ung
Ġl acing
Ġl amb
Ġl ingering
Ġl enient
Ġnot es
Ġnot ch
Ġnot iced
hat ically
Ġwas hing
Ġwas hed
Ġwas ted
ly head
st ic
st ra
st one
st ained
st rick
st opping
Ġshe ep
Ġshe dd
Ġshe lls
Ġshe eps
Ġshe pher
Ġth read
Ġth warted
ut al
ut ation
ut eness
ch urch
ch ili
ch rist
se ven
se ers
se ys
se mble
Ġ" '
Ġ" --
ion ed
ion ably
ce remonious
ri d
ri ot
ri dden
ri fice
ri cted
ri ae
ri lle
Ġre d
Ġre de
Ġre med
Ġre nder
Ġre lic
Ġre ndering
Ġre jection
Ġre vive
Ġre igning
Ġre vol
Ġre inst
Ġre assembled
Ġre anim
Ġre semble
ent s
ent ing
ent ation
ent ment
ent ance
ent ious
ent iet
ent imes
ent iful
ent rated
ent atious
ay ton
Ġas pect
Ġas cending
ow ing
ow edly
Ġfor cing
Ġfor swe
Ġfor bade
et een
ith wa
im en
im ate
im ag
im medi
im ney
Ġsu p
Ġsu llenness
id es
id ance
id ering
id ote
Ġan al
Ġan ci
Ġan ec
Ġwe pt
Ġwe ary
Ġwe arying
ir a
ir able
ir ted
ir ons
ct ing
ct ive
her s
Ġu lt
Ġu lcer
Ġso li
Ġat mos
od ied
od ical
al is
al one
al ence
al ified
al mane
Ġwh im
Ġwh irl
Ġwh iten
Ġk ite
Ġbut ton
ma de
ma ple
ma kes
ma dness
Ġmu d
Ġmu le
Ġmu ff
ur red
ur ry
ur ance
ur ged
ur atively
ad ings
ad oring
ad air
ad orned
ad mired
ad vant
ad rille
Ġkn it
Ġkn ight
Ġkn ack
Ġkn ives
Ġkn ife
Ġkn ee
Ġall ay
Ġall ies
Ġall ied
Ġall usions
Ġall iances
ro t
ro ved
ro ach
ro pri
ro priety
ro spect
ro vided
ro stic
pe l
pe are
pe ople
Ġme nd
Ġme chan
ter s
ter ings
qu y
qu or
qu ant
qu el
Ġde fe
Ġde fect
Ġde ci
Ġde pri
Ġde vi
Ġde mer
Ġde jection
Ġde ceptions
Ġde afer
Ġde ws
Ġde legating
Ġse ll
Ġse ren
Ġse lect
Ġse aled
Ġse minary
Ġse quel
Ġem pt
Ġem inent
Ġem ulate
Ġcon ci
Ġcon verse
Ġcon ceptions
Ġcon veniences
Ġcon veying
ton ness
Ġdo g
Ġdo er
Ġdo at
Ġdo om
Ġdo th
Ġdo ings
Ġdo ci
Ġdo omed
Ġdo leful
ore d
ore r
Ġcom ment
Ġcom miss
Ġcom ments
Ġcom tesse
ble ached
Ġsa un
Ġsa ves
Ġsa under
Ġsa mple
Ġsa ils
Ġsa cred
Ġsa gacity
Ġsa ndwic
ain able
Ġj um
Ġj ew
Ġj okes
Ġmy ster
Ġne pt
Ġne arest
lf ully
Ġfr au
Ġfr ag
Ġhar ry
Ġhar mon
Ġhar bour
Ġhar boured
pp ics
ation al
.-- _
Ġst ing
Ġst il
Ġst ol
Ġst ab
Ġst are
Ġst ared
Ġst ars
Ġst ating
Ġst ale
Ġst ream
Ġst roke
Ġst uck
Ġst anza
ak ened
ess ing
ot ing
ot es
ot ting
ot land
ot hecary
Ġmis be
Ġmis app
Ġex ag
Ġex isted
Ġex hib
all op
all owing
Ġwhi che
Ġany thing
ic ate
ic ine
ic ising
ic ament
ic iating
ul se
ul ity
ul ations
ul ging
ul ative
fe ver
fe el
fe aring
fe eling
art o
art ened
our se
Ġfe et
Ġfe min
Ġfe igning
ge on
ge red
self ish
han ged
han ced
Ġlo ck
Ġlo ser
Ġlo cked
Ġle ather
Ġle vity
Ġle nding
Ġle ague
Ġle aned
ant ic
Ġmiss es
Ġmiss pent
Ġam ounted
Ġam iableness
Ġfa re
Ġfa cing
Ġmust ered
Ġthere abouts
ort ing
ort ant
Ġper mission
Ġper usal
Ġper mit
Ġper vert
li o
li ved
li ves
li ating
li zed
li ked
li bacy
Ġwhe at
Ġsh y
Ġsh ow
Ġsh od
Ġsh ine
Ġsh ows
Ġsh ivering
Ġal though
Ġal add
Ġal tar
out ed
Ġman agement
Ġman aged
Ġman che
Ġman sion
Ġman ia
Ġman oeu
de cl
de lic
de arer
de arest
Ġor phan
Ġli fted
Ġli br
Ġli quor
ard ing
Ġr ing
Ġr ow
Ġr ud
Ġr ave
Ġr ack
Ġr ued
Ġr ained
Ġr arity
Ġr ises
Ġr ows
Ġr amb
Ġr heum
Ġr isking
Ġqu its
Ġqu aint
Ġqu een
Ġqu eer
Ġqu adrille
Ġqu arto
ink ing
ink ling
ure ls
Ġsee king
Ġel ms
Ġel bow
ok en
ind er
ind if
ind led
ind ign
ind icated
ind escribable
ind ulging
Ġwes t
Ġwes tern
Ġv ag
Ġv oted
Ġv oc
Ġv ict
Ġv owed
Ġv arying
Ġv essel
Ġv indicated
ell ig
Ġdis h
Ġdis sent
Ġdis hes
Ġdis cri
Ġdis may
Ġdis ingen
Ġdis pelled
Ġdis service
Ġdis respect
Ġdis mal
Ġdis ordered
Ġdis advant
Ġdis pel
Ġdis liked
Ġch il
Ġch oose
Ġch ristened
Ġch imney
Ġhow s
Ġag itate
Ġag itating
Ġag grand
Ġag gression
Ġag hast
mp er
mp ers
Ġpre cl
Ġpre ached
Ġpre sid
Ġpre sides
Ġpre con
Ġpre cision
Ġpre face
Ġen ab
Ġen um
Ġen su
Ġen ig
Ġen vi
Ġen em
Ġen light
Ġen closed
Ġen mity
Ġen nu
Ġen erget
Ġen ormous
Ġen hanced
end s
Ġcan vass
Ġwho ever
Ġwho les
ment ioned
ra ge
ra ces
ra ising
ra pped
ra ph
Ġint reat
Ġint rig
Ġint egr
Ġint ends
Ġun ost
Ġun ab
Ġun sent
Ġun ci
Ġun int
Ġun be
Ġun ison
Ġun mod
Ġun fast
Ġun imp
Ġun bid
Ġun bro
Ġun ob
Ġun ste
Ġun married
Ġun closed
Ġun friendly
Ġun av
Ġun bi
Ġun gallant
Ġun kind
Ġun varying
Ġun asked
Ġun ceremonious
Ġun adorned
Ġun bleached
Ġun selfish
Ġun mentioned
Ġab ol
Ġab ide
Ġab used
Ġab ode
Ġab dy
Ġab bot
Ġab stained
Ġpro ves
Ġpro hib
Ġpro logue
Ġpro verb
Ġaf fa
Ġaf lo
Ġpo ol
Ġpo pl
Ġpo lish
Ġpo nds
Ġpo llards
Ġpo orer
Ġca ress
Ġca bb
Ġca vil
Ġca binet
Ġca vill
ven ness
Ġshould er
one ous
Ġgood ly
Ġgood humoured
Ġgood natured
if ies
if ull
if tly
ost ed
ost alis
il ight
il ty
ke ys
Ġ_ ____
!-- "
!-- `
Ġup stairs
Ġup braid
Ġac re
Ġac ced
Ġac uteness
Ġac rostic
Ġpart ly
Ġco pe
Ġco ok
Ġco ast
Ġco ck
Ġco vering
Ġco aches
Ġco vert
Ġco bham
Ġco gitation
Ġco oper
est ed
est ation
est able
est ate
est ionably
us ation
Ġgreat ness
Ġgreat coat
Ġfri cas
Ġmight y
Ġcomp ress
Ġcomp osition
Ġcomp ressed
Ġcomp osing
Ġcomp unction
Ġcomp rised
Ġcomp atible
Ġwood s
house bre
el s
el ingly
Ġwor ry
Ġwor ship
un cl
un ken
un grateful
un requ
un accountable
un cle
un reason
fa ct
fa me
fa ction
ving s
Ġtim id
Ġtim ber
Ġtim idity
Ġown er
Ġown ing
Ġtheir s
ie us
ie vous
Ġsha kes
Ġsp ac
Ġsp urn
Ġsp here
Ġsp ont
Ġsp inet
Ġsp heres
Ġsp encer
Ġsp leen
Ġad vers
Ġad vert
Ġad herence
Ġad ored
Ġad ieus
ac le
ac cept
ac ities
Ġob vi
Ġatt ained
Ġatt orney
Ġatt ainable
Ġatt estation
Ġhapp ens
Ġgo ings
ness es
Ġthought fully
Ġthought lessness
os itions
ol ar
ol ite
ol ine
ol ished
ab ominable
pect edly
Ġus ing
Ġus her
Ġpl ump
Ġpl ants
Ġpl antation
Ġpl aus
Ġpl entiful
Ġpl otting
Ġres ided
Ġres ident
Ġres ulting
Ġres uming
Ġres ulted
Ġres orted
Ġres pite
Ġres orting
Ġlike liest
th ur
Ġchurch ward
Ġmost ly
Ġho lyhead
pt ive
per on
per able
per ry
per ience
per fection
per bol
Ġcons ole
Ġcons ervatory
Ġout ree
Ġout we
Ġout ste
Ġout grown
Ġout cry
Ġout lived
Ġout rage
Ġcha ined
Ġspe ck
Ġspe cious
Ġinde cision
Ġtw isted
Ġtw entiet
Ġtw ilight
ound ing
ound rel
Ġsm oke
Ġsm artened
ine a
ine ated
?-- "
?-- (
?-- _
au gust
ner s
the ir
ject ure
Ġmade ira
Ġunder to
Ġunder val
Ġunder bred
ten er
anc he
Ġtalk ativen
um ber
um ination
um bered
Ġjust est
Ġmar ch
Ġmar riages
ress ing
ass ist
ass ured
ass orted
Ġimp ose
Ġimp lic
Ġimp osing
Ġimp air
Ġimp lanted
Ġimp lore
Ġimp ulse
Ġimp olite
fort h
Ġri ce
Ġri val
Ġri dden
Ġri ding
Ġri che
Ġri bband
Ġri pening
Ġtwo fold
Ġover rated
Ġover take
Ġover coming
Ġover came
Ġover throw
Ġover board
Ġover careful
Ġover flow
Ġover rating
Ġover seers
Ġbat tle
com pl
com pan
com passion
com pared
Ġbeg s
Ġbeg ging
Ġap iece
Ġap othecary
su it
su me
you ng
oun ced
Ġsupp ress
Ġsupp lic
Ġsupp osition
Ġsupp ressed
Ġsupp oses
cl ub
cl ara
Ġpr one
Ġpr ince
Ġpr ison
Ġrep ast
Ġrep ute
Ġrep rove
Ġrep aid
Ġrep ug
Ġrep rehension
Ġrep rehensible
Ġrep lacing
Ġrep utation
Ġrep ressing
icul ate
Ġro be
Ġro oted
Ġro bbed
Ġdel ineated
ck ing
Ġar ises
Ġar gued
Ġar rear
Ġar thur
Ġwalk er
Ġbelie ves
Ġoff icious
Ġoff icer
Ġoff iciating
Ġgi ver
Ġgi gg
Ġhere to
ig ator
Ġmean ly
Ġappe ase
Ġappe ndages
Ġappe llation
Ġsat in
Ġdif fer
Ġword ing
Ġhope less
Ġkind red
Ġkind led
ag ain
ag reed
ag onist
Ġbr own
Ġbr unt
Ġbr utal
te a
te acher
te mper
Ġent ree
Ġent ers
Ġent rapped
Ġapp oint
Ġapp ointed
Ġapp aratus
pl ed
pl ain
pl ot
pl oring
Ġpass ant
Ġpass ive
oy ed
oy ance
Ġdes ire
Ġdes ult
Ġdes pond
Ġdes cried
Ġpe ep
Ġpe mb
Ġpe rempt
Ġret ain
Ġret ort
Ġret ained
Ġret aining
Ġret entive
Ġret icule
Ġret rospect
Ġhome ly
Ġhome wards
ud inar
Ġcont ain
Ġcont end
Ġcont ract
Ġcont racted
Ġcont ingen
Ġcont ents
Ġvis ion
Ġwoman ly
;-- _
Ġhand le
Ġhand led
Ġdoub led
Ġset s
itu al
Ġtr ay
Ġtr ades
Ġvisit ings
Ġass ailed
int end
int rodu
Ġmor ality
Ġmor nings
Ġcomfort less
am ined
am used
oll en
Ġind oor
Ġind olent
Ġind icated
Ġind escribable
Ġind icate
Ġcame os
for give
Ġbl ot
Ġbl own
Ġbl oss
Ġbl und
Ġbl amed
Ġacqu itted
Ġext end
Ġext ended
Ġext ric
Ġext inction
Ġdoubt fully
be g
be ing
be en
be yond
Ġte xt
Ġte ased
Ġte mpered
Ġte aches
Ġeng ages
Ġreg iment
Ġreg ained
Ġreg ulate
Ġreg ulated
Ġsort s
Ġcar ries
Ġcar pet
Ġcar rot
Ġcar oline
Ġsc iss
Ġsc rew
Ġsc ream
Ġsc orned
Ġsc reen
Ġsc enes
Ġsc ornful
Ġsc otland
Ġsc allop
Ġsc outed
Ġsc oundrel
Ġwr ist
fer ing
ne arer
Ġmat ting
Ġmat ched
Ġmat ernal
Ġmat hemat
ist ent
ist ic
ist ingu
ere r
Ġend s
Ġend anger
Ġend uring
Ġend urance
Ġser ved
Ġcl oth
Ġcl over
Ġcl ock
Ġcl ung
Ġcl erg
Ġcl amor
Ġcl oak
Ġcl inging
Ġcl ayton
Ġcl imate
Ġhouse maid
Ġgen ial
Ġgen lis
Ġhour ly
ack ened
Ġsur vi
Ġsur vey
Ġsur vive
Ġunderstand ings
Ġchan cing
Ġchan ges
Ġchan nel
Ġgl ances
Ġgl oss
Ġgl aring
Ġgl anced
Ġgl orious
Ġgl oried
Ġacc use
Ġacc used
Ġacc rue
Ġacc ounted
Ġacc ession
Ġacc osted
Ġacc usation
Ġchar med
Ġchar ges
Ġima ge
Ġdeal t
Ġimag ines
Ġimag inist
Ġev asions
Ġev inced
Ġconf ound
Ġconf ine
Ġconf use
Ġconf ide
Ġconf iding
Ġconf ederates
Ġpa les
Ġpa pas
Ġthr ows
Ġrec ited
Ġrec ord
Ġrec overy
Ġrec ital
Ġrec antation
Ġrec ourse
Ġfind s
Ġgent ly
Ġrand all
Ġinst inct
Ġinst itute
Ġinst igator
Ġfort uit
Ġsec ures
Ġadv ancing
Ġadv iser
Ġill iber
Ġill umination
Ġstr ang
Ġpret ended
Ġadm its
Ġsmith s
to o
Ġim pend
Ġim itation
Ġim mat
Ġim pelled
ase ment
Ġwhere s
Ġaffect ing
Ġ( _
ason ableness
Ġhard y
Ġhard ened
Ġhard sh
Ġadd ing
Ġye omanry
Ġperson ally
Ġperson age
mon ies
mon ary
Ġturn ip
Ġturn ips
Ġcirc les
Ġcirc ular
Ġcirc ulate
Ġref uted
Ġref rained
Ġlet s
medi ate
medi oc
ft ing
Ġcour ses
Ġworld ly
Ġequ ivoc
Ġinv ites
Ġinv ariable
ang ing
pri ce
Ġrest oring
Ġrest oration
Ġrest oratives
Ġrest ricted
Ġexp iation
Ġexp iration
Ġexp enses
Ġopen s
Ġbro ke
Ġbro th
Ġbro iling
Ġinc ident
Ġread ier
Ġread iest
Ġresol utions
Ġrespect ive
Ġrespect ably
Ġrespect fully
Ġrespect ability
reme mber
Ġdire ful
Ġmeet s
Ġless ons
Ġless ening
Ġagree ment
Ġheart s
Ġheart y
Ġheart ed
Ġheart felt
Ġdra wer
Ġjud ges
Ġshort en
Ġshort ness
Ġwi lfully
Ġwo ol
Ġwo eful
Ġwo ollen
Ġbus iest
Ġbus hel
Ġdisp ose
Ġdisp osing
Ġdisp utable
Ġdisp uting
Ġdisp iriting
Ġdisp ositions
Ġcompl ained
Ġbegin nings
wer able
Ġmin ced
Ġmin ister
Ġmin iat
Ġput rid
Ġlady like
iment s
iment al
my self
my stery
wh ite
wh ose
Ġsuper add
Ġsuper intend
Ġcare er
Ġcare lessness
Ġcare fulness
Ġside board
Ġsuf fice
Ġsuf fere
Ġnew ly
Ġwonder ings
Ġsitu ated
Ġback ward
Ġback gr
Ġche ese
Ġfoll ies
Ġgu ile
Ġgu idable
Ġgu idance
Ġgu ilty
Ġgu inea
Ġprom oting
Ġdet ach
Ġdet ached
Ġdet ecting
Ġdet ailed
Ġdet ailing
Ġdet estable
so ft
some body
Ġact ions
Ġcold er
Ġcold ly
Ġcold est
Ġobject ing
iv ation
iv ance
iv ated
Ġreason ably
Ġdec ent
Ġdec ree
Ġdec iding
Ġdec ides
Ġcircum spect
Ġfanc ies
Ġpersu asions
Ġpersu asively
Ġprop ens
Ġaccount ing
Ġaccount able
aim ing
aim able
Ġsmall ness
Ġcle an
Ġcle arest
Ġcle mency
ord ancies
mpt uous
Ġpoint ing
Ġappro ver
Ġappro ves
Ġuse able
Ġuse less
Ġchange able
Ġequal s
of f
of fend
of fices
of tener
Ġbo il
Ġbo iling
Ġbo ils
Ġbo arding
Ġfl ing
Ġfl ight
Ġfl ame
Ġfl uct
Ġfl owed
Ġfl ushed
Ġfl avour
Ġfl oated
Ġfl uently
Ġfl irted
Ġfl urry
Ġpower less
Ġdare s
vers mith
Ġdiff use
Ġdiff uses
Ġaffection ately
Ġbad ly
ip id
Ġstay s
Ġstay ed
Ġexc ites
ult ural
Ġma le
Ġma ps
Ġma ils
Ġlar gest
Ġrem ote
Ġform s
Ġform ation
Ġstate ment
Ġchapter s
ign ific
Ġsense less
Ġfollow s
ib ilities
Ġsl ap
Ġsl ices
Ġsl avery
Ġsl ope
Ġsl ugg
Ġsl umber
Ġsl ackened
Ġthank er
Ġthank fulness
sh ine
sh ock
Ġabs ences
Ġabs orbing
Ġattach ing
Ġsens ibilities
Ġinf ancy
Ġinf antry
Ġinf inity
Ġinf lamed
Ġglad ness
Ġpri ce
Ġpri me
Ġpri zed
Ġinter ior
Ġinter fered
Ġinter mission
Ġinter posed
Ġinter pret
Ġinter chan
Ġinter nal
Ġinter position
Ġinter mediate
app ointed
app ropri
Ġsil ently
Ġsil versmith
Ġcreat ed
Ġele ct
Ġprev alent
Ġprev alence
Ġregard ing
Ġexpress ly
Ġwa x
Ġwa its
Ġwa ives
Ġwa iving
Ġwa verings
Ġhur ting
Ġweek ly
Ġneed lework
Ġcheer less
Ġcheer lessness
Ġcheer full
miss ibility
Ġpain ed
Ġdepend ing
Ġmist akes
Ġcompliment er
Ġcompliment ed
pic es
Ġopp ressed
Ġopp ression
Ġpi geon
Ġpur ity
Ġpur ple
Ġune mpl
Ġune venness
Ġtemp ting
Ġattachment s
Ġaw es
Ġaw oke
Ġaw akened
Ġson s
Ġworth ies
Ġpar adings
ĠĠĠĠĠĠĠĠ ĠĠĠĠĠ
pa per
pa pas
Ġfond est
Ġfond ling
Ġes peci
Ġes pal
Ġhum ility
Ġconvers ed
Ġconvers ations
Ġdisapp rove
Ġdisapp robation
Ġdisapp roved
Ġcol umn
ye ar
Ġhead ed
Ġhead aches
ens ward
ens ical
Ġstand s
Ġstand ard
Ġstand ers
Ġenjoy able
Ġdeterm ining
Ġcharacter istic
par ably
par lour
will ed
Ġdanc ers
Ġgra ham
Ġmus lin
Ġmus lins
Ġserv ices
Ġmere st
Ġquick er
Ġquick en
Ġquick ened
Ġquick sighted
Ġcond olence
Ġquestion able
Ġhelp ing
Ġhelp mate
cri be
cri bing
Ġla pse
Ġla vished
Ġla zy
Ġla urels
Ġdecl aring
_, )
iet udes
Ġtri dent
Ġswe eping
Ġfre ak
Ġfre aks
Ġpat ch
Ġpat ernal
Ġpat riot
Ġlisten er
Ġlisten ers
Ġdisc har
Ġdisc erning
Ġdisc ordancies
Ġencour ager
Ġbeha lf
Ġsho ps
Ġsho pping
Ġround ly
Ġround about
Ġunc outh
Ġunc hanged
Ġparticular ity
fic ing
fic acy
fic iency
Ġcr ushed
Ġincl ines
Ġcommon ly
Ġcommon est
Ġexpl ains
Ġsit ters
Ġwat ers
Ġwat ches
Ġrema inder
Ġra ved
Ġra ving
Ġhonour s
Ġhonour ing
Ġhonour ably
know ing
Ġfo gs
Ġfo ppery
Ġpra ising
Ġpra ises
ange ment
sequ ence
Ġrequ isition
Ġforward ing
Ġforward ed
Ġaccept s
mer maids
Ġef ficacy
Ġinqu ietudes
Ġcomm iser
Ġclaim ing
gment ation
Ġforget s
Ġquiet er
Ġquiet ness
Ġattend s
Ġattend ant
Ġsuffer s
Ġsuffer able
Ġnews paper
Ġtemper s
Ġforg ave
Ġforg iving
Ġlive lihood
Ġlive liest
Ġintim ation
Ġintim ately
Ġsecond s
Ġsecond ed
Ġsecond ly
,' "
mor ning
Ġcoun cill
Ġeye ing
Ġins ight
Ġins ane
Ġins ult
Ġins ulting
Ġins ulted
Ġins ipid
Ġins ignific
Ġarr anging
form ation
Ġincre ases
Ġslight ingly
Ġmer ited
Ġmer chan
Ġmer cant
Ġbre ast
Ġbre wing
Ġcase ment
Ġcase ments
ark ed
Ġconsequ ent
Ġconscious ly
Ġgrand papas
Ġoccur s
Ġoccur rences
do ing
Ġfin is
Ġfin al
Ġfin ishing
Ġfin ale
Ġfin esse
Ġconst rain
Ġconst rained
Ġfault less
Ġplain er
Ġplain est
Ġimport ation
Ġblus hes
har d
har t
har tfield
err antry
Ġintrodu ces
Ġintrodu ctions
Ġpros ing
Ġpros ings
Ġsmiling ly
Ġpossib ilities
Ġassist ant
Ġsche med
Ġadmir ably
Ġsing ular
Ġsing ularly
Ġmod e
Ġodd ities
Ġbri ck
Ġfix ing
eng agement
Ġexcl ude
Ġwork s
Ġwork men
Ġplac idity
Ġprodu ces
Ġprodu ctive
Ġdisagree ments
Ġdisagree ableness
ex press
ex claimed
ex istence
ex ploring
ub ility
Ġtend erer
Ġmad ame
Ġir ks
Ġir ksome
Ġrel ation
Ġrel ish
Ġrel ap
Ġrel ented
Ġrel inqu
Ġrel aps
Ġrel enting
Ġsum s
Ġval ues
Ġcompanion ably
Ġcompanion ableness
Ġemploy ments
Ġx ix
Ġsad dle
Ġtoler ated
Ġfore ver
Ġfore sight
Ġfore told
Ġfore run
Ġhab itation
Ġhab itual
Ġsty les
Ġdelic ious
Ġdelic ately
Ġoccup ations
Ġevent ually
Ġinstru ction
Ġclever ness
Ġconduct ing
Ġadvantage ous
Ġbreak s
ili p
ili ff
ili ppics
Ġav owed
Ġav ailing
Ġav owedly
Ġmort ify
Ġmort als
res uming
res olved
Ġcount ies
Ġcount ries
Ġfour th
Ġang les
Ġground less
Ġground work
Ġdistress es
Ġtea zed
Ġinflu enza
Ġeffect ing
Ġinstrument s
Ġinstrument al
Ġboy ish
Ġhint ing
Ġjoy fully
Ġjoy ously
Ġvain ly
Ġblind s
Ġblind er
Ġpurp oses
under stand
Ġsigh s
happ ily
happ ier
Ġcor n
Ġcor rob
Ġcor als
Ġden oted
Ġden otes
Ġdut iful
Ġund one
Ġund ue
Ġund ec
Ġund aunted
Ġund iscerned
Ġund istingu
Ġste ep
Ġste alth
Ġste eper
Ġste aks
Ġunp rovided
Ġunp olished
Ġprof itable
Ġprov ince
Ġprov oke
Ġcoll ation
Ġobserv able
night s
your s
Ġcou pled
Ġpen ury
Ġpen kn
Ġpen cilled
Ġpen itence
Ġgallant ries
Ġloss es
Ġfact s
Ġrun g
Ġscar let
og y
og ues
og raph
Ġerr s
Ġerr ant
Ġerr oneous
Ġsix ty
Ġmid night
Ġrepe at
Ġrepe llent
Ġpresu mptuous
fortun ately
Ġdesir ableness
Ġdescri ptive
Ġende ared
Ġsecret s
Ġsecret ly
Ġcouple t
Ġsnow s
Ġwret ches
Ġmot to
Ġdri zz
Ġdri fted
Ġdri lls
Ġdri fting
Ġinform s
Ġcommand s
Ġcommand ing
Ġcommand ingly
Ġvar iations
ific ial
Ġuseful ness
Ġwait ers
Ġinferior ities
phe re
phe red
ring ing
tic ally
Ġut ility
Ġut tered
Ġtre ble
Ġtre mor
Ġtre mulous
Ġwed ging
Ġwed dings
Ġmove ment
Ġmove ments
Ġcred itable
Ġcred ulity
Ġpast ures
Ġsuck ing
Ġsolic ited
Ġsolic itation
Ġsepar ations
Ġsepar ating
Ġfell ing
Ġfell ows
Ġru in
Ġru ined
Ġvic inity
Ġreser ves
Ġopportun e
Ġencouragement s
Ġdisagreeable s
Ġtender ly
Ġeduc ate
Ġeduc ating
Ġgrie vances
Ġaston ish
Ġce iling
Ġce asing
Ġce libacy
Ġlow ly
Ġlow est
Ġneg ative
Ġneg atives
Ġexert ed
Ġprefer s
Ġprefer ment
Ġhold ing
Ġrepro ached
Ġrepro bation
Ġrepro aches
Ġclose t
Ġclose ly
Ġremark s
Ġpriv ation
Ġpriv ately
Ġpeculi arity
lo city
lo quy
ym an
Ġcross er
Ġcross es
Ġcross ness
Ġconvi vial
Ġfear less
Ġperiod s
Ġord ers
Ġord inarily
Ġpress ure
Ġpress ingly
Ġentertain ingly
ccess fully
Ġwretched ly
Ġwretched est
Ġcredit ably
Ġrational ity
tw o
tw inkling
Ġmix ing
reet ly
Ġda wdling
Ġeat able
Ġlight s
Ġlight er
Ġlight ed
Ġann a
Ġann oyance
Ġstri ve
Ġstri kingly
Ġstren uously
Ġexer cises
Ġprot ected
Ġprot ecting
Ġconsent s
Ġconsent ed
Ġcontri bute
Ġcontri vance
Ġcontri vances
Ġregular ity
ĠĠĠĠĠĠĠĠĠĠĠĠĠĠĠĠ ĠĠĠ
ĠĠĠĠĠĠĠĠĠĠĠĠĠĠĠĠ ĠĠĠĠĠĠĠĠĠĠĠĠĠ
Ġprofess ing
Ġprofess edly
Ġendeavour s
Ġfast ening
Ġfast idious
Ġdr ain
Ġdr unk
Ġdr unken
Ġrecei pt
Ġsun shine
Ġexcess es
Ġexceed s
Ġexceed ing
Ġcompar ing
Ġcompar isons
olog y
Ġincon veniences
Ġfoot ste
aw are
Ġve ils
Ġve hic
Ġve locity
Ġtra its
Ġtra ffic
Ġtra mpers
Ġsk y
Ġsk ilful
Ġsound ed
Ġnice ty
Ġassu me
Ġdev il
Ġdev ise
Ġdev ote
Ġdev oid
Ġconn iving
Ġconn ecting
Ġconn ivance
Ġconvey ance
Ġfright en
Ġshare r
Ġimpro ving
Ġimpro ves
Ġimpro priet
Ġimpro vidently
Ġapolog ised
Ġdream s
Ġdream t
Ġdream ing
Ġunex amp
Ġunex pens
Ġunex pectedly
Ġunex amined
Ġundoub ted
Ġundoub ting
Ġhundred s
che erfully
che cking
Ġtreat s
Ġhair dress
Ġinj uries
arr angement
Ġsuccess less
Ġsuccess ively
Ġmeas ured
Ġmeas uring
Ġafford s
Ġresent fully
Ġadmire s
Ġcourt s
Ġcourt ship
Ġtrans gression
Ġtrans action
Ġtrans gressed
Ġtrans ported
Ġtrans cribing
Ġtrans formation
Ġtouch stone
Ġorder ly
Ġmut terings
Ġmaster s
Ġbed s
Ġhast en
Ġhast ening
Ġdiv ined
Ġdiv ested
Ġgre y
Ġgre en
Ġgre ase
Ġgre ensward
Ġsuit ableness
Ġur ged
Ġur banity
Ġsoft ly
Ġsoft est
Ġsaf fron
Ġpost ure
Ġcaution ed
Ġcool ing
Ġcool ness
Ġart lessness
Ġart iculate
Ġart ificial
Ġflatter ies
Ġhorse woman
Ġcollect ions
Ġburst s
Ġpublic ity
jud ge
jud gment
jud iced
hearted ness
Ġschool room
Ġmess ages
Ġfig ured
Ġfig ures
Ġfig uratively
Ġlangu id
Ġlangu ish
Ġmel odies
Ġfeat ured
Ġliber ally
Ġenc roach
Ġenc umbered
Ġabsent ed
Ġcap acity
Ġcap acities
Ġtempt ations
Ġbroad ly
Ġbroad way
Ġinterrupt ing
Ġinterrupt ions
Ġestabl ish
Ġquarrel s
Ġquarrel some
Ġnervous ly
Ġnervous ness
Ġvex ations
Ġvex atious
Ġbas ins
Ġbar nes
Ġbar onne
Ġbra ce
Ġbra vad
Ġbra ithwa
Ġpu ff
Ġpork er
Ġine briety
Ġine legance
Ġlay ing
Ġloud ness
Ġdep arted
Ġdep ression
Ġdep rec
Ġdep reci
Ġemb odied
Ġemb races
Ġsacri ficing
Ġvol ubility
Ġdisgust s
Ġpartner s
Ġgrad ations
Ġgrad ual
Ġapprehens ively
Ġindign ity
Ġhouseke eping
Ġmistress es
Ġreflect ing
Ġmortific ations
Ġinduce ments
Ġgarden ers
Ġprotest ing
Ġprotest ation
Ġterm ination
Ġsle pt
Ġsle ety
Ġsle ek
Ġsle epless
has is
Ġbir d
Ġcere monies
Ġfat al
llable s
Ġph ilippics
let ting
let udinar
Ġlat eness
imp rudent
imp ropriety
imp ortant
Ġweak er
Ġweak ly
Ġweak ened
Ġdeath bed
Ġstead ier
Ġstead iest
Ġlea ves
Ġperform ances
Ġrid es
Ġrid icule
Ġpossess es
Ġaccord ant
Ġinvol ve
Ġinvol vement
Ġcheck er
Ġprompt itude
Ġpreva ils
Ġirr itable
Ġirr ational
Ġreproach ing
Ġreproach ful
Ġorigin ally
Ġorigin ating
Ġanticip ating
pond s
wber ries
Ġtall er
Ġmed ley
Ġmed itations
Ġmed ical
Ġmed als
Ġmed itating
Ġmed icine
Ġbak er
Ġbak ing
Ġchat ter
Ġchat ted
Ġchat tering
Ġhaz ards
Ġpit cher
Ġpit ifull
Ġpardon ed
Ġga ily
Ġga ieties
Ġga iters
Ġfail s
Ġfail ings
Ġfail ures
Ġshru gged
Ġlibert ies
Ġrank s
Ġqual ify
Ġqual ifying
Ġpreser ves
Ġuns aid
Ġuns afe
Ġuns pent
Ġproc rast
Ġpolit est
Ġpolit ician
Ġpolit ics
Ġmark et
Ġproud ly
Ġproud est
play ing
play ers
Ġblame able
new s
Ġconfir ming
Ġsorrow fully
Ġpursu e
Ġpursu ed
Ġunequ alled
.'-- `
Ġlaw fully
Ġlament ations
Ġaccompan iment
Ġcollected ly
bo ot
bo iled
ger ation
wr ong
wr ites
Ġau gmentation
Ġsouth ward
Ġmaint aining
Ġost entation
Ġtong ues
Ġdress ing
Ġdef ies
Ġdef ined
Ġdef ying
Ġsever ity
Ġje ffere
Ġstir red
Ġstir ring
Ġstreet s
Ġabrupt ness
Ġattack ing
Ġwise ly
Ġspeed y
suf ficiency
Ġpassion ately
Ġthrow ing
Ġinstant aneous
Ġincons istent
Ġhonest y
Ġhurt s
Ġdiscover ing
Ġearli est
Ġsatisfact ions
Ġconstit uted
Ġconstit utions
Ġhence forth
Ġwitness ing
Ġwhisper s
Ġfatig uing
Ġperplex ing
Ġperplex ed
cha mber
cha peron
cur tain
old ed
somet imes
Ġcur s
Ġcur ve
Ġcur se
Ġcur led
Ġcur ls
Ġcur rants
Ġfetch ing
Ġoffend ing
Ġdign ities
omin ated
Ġlim b
Ġlim its
Ġlim itations
Ġlab orious
Ġlab ourers
Ġconject uring
Ġexam ination
Ġpert inacity
Ġdisplay ing
Ġintention ally
Ġcaut iously
Ġspread ing
Ġobt aining
Ġrepresent ations
Ġsubst itute
Ġboast s
Ġboast ful
Ġflut tered
Ġprivile ges
Ġcondition ing
Ġcondition ally
Ġdiscuss ing
Ġdiscuss ed
Ġlux uries
Ġcorrespond ing
Ġcorrespond ed
Ġescap ing
Ġpenet rate
Ġerrand s
Ġpeculiar ities
after wards
Ġunexception ably
Ġembarrass ing
Ġbirth day
Ġsanguine ly
mar riage
mar ian
sha king
Ġterr ors
Ġmild er
Ġmild est
Ġmild ness
Ġfashion ed
Ġfashion able
Ġheight ened
Ġdro ps
Ġdro pped
Ġdry ness
Ġbend ing
Ġpal ing
Ġpal atable
Ġpus h
Ġinsuf ficient
Ġyield ing
Ġgay est
Ġlatter ly
Ġthin ner
Ġthreat en
Ġseason able
Ġneat ly
Ġstart ing
Ġstart led
Ġmisfortun es
Ġleg al
Ġunfe lt
Ġunfe igned
Ġunfe ignedly
Ġunfe elingly
Ġabund ant
Ġabund antly
Ġaff able
Ġaff ix
Ġaff ixed
Ġcoach men
Ġspo on
Ġspo il
Ġspo ilt
Ġresult s
Ġrepent ance
Ġapplic ants
Ġapprehend ing
Ġdesign edly
Ġclass ing
Ġclass ed
Ġsurm ises
Ġcourage ous
Ġsusp ension
Ġexped ition
Ġexped itious
Ġcolour s
Ġtrick s
Ġtrick ing
Ġsympath ise
Ġsympath iser
Ġbrilli ancy
Ġestim able
Ġestim ated
Ġcorre ctly
Ġtremb led
Ġtremb lings
Ġunreser ved
Ġdamp s
Ġtravel s
Ġpuzz les
Ġpuzz ling
Ġsolemn ly
Ġsolemn ity
Ġcautious ness
Ġpenetr ated
Ġpenetr ating
cont aining
cont rou
cont entment
wom en
Ġaver t
Ġsin ned
Ġsong s
Ġswell ed
Ġwall ises
Ġot ways
Ġfree ze
Ġdwell ing
Ġdwell ings
Ġincom plete
Ġincom pat
Ġincom prehensible
Ġwear ied
Ġsol idity
Ġdeli ver
Ġsecl uded
Ġmisch ievous
Ġfever ish
Ġvi olence
Ġvou ches
Ġdiss atis
Ġdiss olved
Ġpres uming
Ġpres cribed
Ġunper mitted
Ġcapt ivated
Ġresist ing
Ġconsult ation
Ġoutward ly
Ġspecul ations
Ġundert ake
Ġundert aken
Ġoverhe ar
Ġapart ments
Ġpronoun s
Ġartic les
Ġdespa ired
Ġassoci ations
Ġacquies ced
Ġaccent s
Ġrecur rences
Ġstranger s
Ġrefresh ments
Ġinval uable
Ġdecis ively
Ġproportion ate
Ġproportion ably
Ġhorri d
Ġinterval s
Ġrapt urous
Ġrequest ing
Ġrequest ed
Ġeffort s
Ġsystem s
Ġbright est
Ġbright ened
Ġacknowledgment s
Ġmotion less
Ġcalcul ation
Ġcontrast ed
Ġsolicit ously
Ġsolicit udes
Ġnegli gence
Ġawkwardness es
Ġtrave lled
Ġelig ibility
Ġelig ibly
Ġencoun tered
Ġrejo icing
Ġdisturb ing
Ġbitter ness
Ġingen iously
Ġingen uousness
Ġlabour s
Ġlabour ing
Ġmisunderstand ing
Ġirresist ibly
Ġcorrect ed
Ġgilbert s
Ġreckon ing
bl ains
bl aming
bl anche
hor se
mat ical
pre cious
pre sume
pre judiced
tim ed
Ġ2 3
Ġ2 4
Ġ2 6
Ġamend ment
Ġsw iftly
Ġsou p
Ġsou ls
Ġsal ted
Ġsal ting
Ġwra p
Ġwra pped
Ġoper ations
Ġbid s
Ġidle st
Ġfro st
Ġhate ful
Ġna iled
Ġnin eteen
Ġdw indled
Ġpred icament
Ġpred ominated
Ġportion ing
Ġportion less
Ġinher its
Ġinher iting
Ġinher itance
Ġinex cusable
Ġinex perience
Ġhero ine
Ġge ograph
Ġgain er
Ġlist lessness
Ġren ting
Ġren ounced
Ġdem urs
Ġdem urred
Ġdefic ien
Ġdemand ing
Ġdemand ed
Ġdeaf ness
Ġconqu ering
Ġjump ing
Ġfruit less
Ġstor ies
Ġstor my
Ġstore room
Ġstation ing
Ġstation ary
Ġexper ienced
Ġamount ing
Ġvo id
Ġvig our
Ġdiscl aimed
Ġdiscl aiming
Ġprejud ices
Ġunt ouched
Ġunse tt
Ġunse asonableness
Ġunsu llied
Ġunsu ccessfully
Ġunluck ily
Ġunivers al
Ġcapri cious
Ġcapri ces
Ġcop y
Ġcop ying
Ġado ption
thought s
Ġribb ons
Ġroast ed
Ġentit le
Ġentit ling
Ġdesp ise
Ġdesp oiling
Ġdesp atched
Ġdesert s
Ġbloom ing
Ġteach ing
Ġengross ing
Ġengross es
Ġsurr ounding
Ġexplore d
Ġcounsel s
Ġmodest y
Ġmodest ly
except ing
Ġsummon ed
Ġstrugg les
Ġutter ance
Ġastonishing ly
ĠĠĠĠĠĠĠĠĠĠĠĠĠĠĠĠĠĠĠĠĠĠĠĠĠĠĠĠĠĠĠĠ ĠĠĠĠĠĠĠĠĠ
Ġkingd oms
Ġartless ly
Ġbasket s
Ġcontempl ate
Ġcontempl ated
Ġcontempl ating
Ġpalp able
Ġpalp itations
Ġargument ative
Ġinvalid s
Ġungracious ly
Ġdisinterested ness
bro ther
caut ion
caut ious
don well
gl ass
gl aring
gl ancing
gl anced
go ing
tr ouble
table s
Ġtid y
Ġsly ness
Ġsli ppery
Ġwound ing
Ġmil mans
Ġmil itary
rep lied
rep entance
Ġcre ation
Ġcre am
Ġcow per
Ġfill s
Ġfill ing
Ġnarr ower
Ġnarr ative
Ġdiver t
Ġdiver ting
Ġess ay
Ġhos pitable
Ġland ed
Ġrevi ving
Ġreappe arance
Ġassent ed
Ġsoot he
Ġsober ing
Ġsolit arily
rob in
Ġdeb t
Ġdeb ate
Ġdeb ased
Ġdeb asement
Ġseas ide
Ġcommend ed
Ġsau ciness
Ġjoint s
Ġperfor ce
Ġshif ted
Ġshif ts
Ġvac ation
Ġvac ancies
Ġdisper se
Ġdisper sing
Ġdissu aded
Ġdisappe aring
Ġenv ied
Ġenv irons
Ġcompet ence
Ġattract ions
Ġresign ation
Ġbrisk ness
Ġdesper ately
Ġassert ion
Ġblock ed
Ġconfident ial
Ġadvent uring
Ġadvent urous
Ġcomplac ently
Ġcareless ly
Ġfanciful ness
Ġdonke ys
Ġclevere st
Ġexchan ged
Ġexchan ging
Ġstock ings
Ġneedless ly
Ġmethod ical
Ġpatient ly
Ġdiscreet ly
Ġuncon cern
Ġuncon vinced
Ġcrit icism
Ġcrit icising
Ġsimil arity
Ġinsp ire
Ġinsp ired
Ġinsp iration
Ġinsp iriting
Ġunpret ty
Ġunpardon ably
Ġtreas uring
Ġreproof s
Ġprofession al
Ġinconvenient ly
Ġfamiliar ise
Ġpupp ies
Ġingrat iating
Ġcontempt uous
Ġinconsider ation
Ġinconsider ately
Ġesteem ing
Ġdissip ation
Ġdissip ate
Ġshark s
Ġvigor ous
Ġfidget s
Ġfidget ing
Ġfidget iness
Ġremonst rated
Ġremonst rances
Ġreluct ant
Ġupper most
Ġconundrum s
Ġalphabet ically
con jecture
con sequence
col onel
cons idering
den ial
den ying
ele gance
even ing
gen eral
great er
ph ies
ph ilip
sm ith
sm iling
sm iles
since rely
small ridge
wood house
Ġ1 816
Ġver ified
Ġver bal
Ġver dure
Ġtest ify
Ġtest ifying
Ġtest ifies
Ġaid s
Ġade quate
Ġsne ers
Ġwand ering
Ġmour nful
requ ired
requ ently
Ġcough ing
Ġfet ches
Ġfield s
Ġfaint s
Ġnorth ward
Ġder anged
Ġder iving
Ġder ived
Ġdial ogues
Ġpul monary
Ġport fo
Ġpack s
Ġpack et
Ġpang s
Ġhind rance
ans wer
Ġnovel ties
Ġlod gings
Ġliter ally
Ġliter ary
Ġliter ature
sec ond
Ġreward ed
Ġrefer ring
irth ful
Ġissu ed
Ġmult iplicity
add ition
Ġmemor ial
Ġdead ening
Ġconc entrated
Ġconfer s
Ġconfer red
Ġconfer ring
Ġdoating ly
Ġcomb ine
Ġcomb ined
Ġcomb ated
Ġstom acher
Ġstout ly
Ġexulting ly
Ġexec uting
Ġfee ble
Ġfee bly
Ġfee bleness
Ġperman ent
Ġorn aments
Ġlie u
Ġlie ut
Ġrom antic
Ġrout e
Ġrout ine
Ġrus hed
Ġrum ination
Ġva ult
Ġva unted
Ġva letudinar
Ġvill ain
Ġpreced ed
Ġpreced es
Ġpreced ent
Ġunf inished
Ġunf olded
Ġunf requently
Ġunm ixed
Ġunm arked
Ġunm irthful
Ġproject s
Ġupstart s
Ġshad ed
Ġsport s
Ġobst acles
Ġobst inate
Ġobst acle
Ġattri bute
abs urd
Ġconsist ing
Ġconsist ent
Ġconsist ently
Ġspec imen
jection able
Ġimped iment
Ġimpart ially
Ġimpud ence
Ġrichard son
Ġprodig ies
Ġarch ly
Ġsubs ided
Ġsubs istence
Ġsubs cribe
Ġsubmiss ively
Ġmoral ised
Ġmoral ising
Ġdistrust ed
Ġindust ry
Ġclos er
Ġgloom y
Ġadmiss ion
Ġinvent ing
Ġcomplais ant
Ġdecor ated
Ġpropriet ies
Ġflour ishing
Ġflattere rs
Ġabsurd ities
Ġcondes cending
Ġpatron age
Ġfold ing
Ġfold ed
Ġeff usions
Ġinsens ibly
Ġbrief ly
Ġforetell ing
Ġextravag ant
Ġundes igned
Ġundes ignedly
Ġundes irable
interrupt ed
Ġcontribut ing
Ġcontribut ed
Ġcontribut ion
Ġaccomplishment s
Ġcourtes ies
Ġphys ician
Ġinvolunt ary
between s
Ġdisincl ined
Ġmiscon ception
Ġmiscon ceptions
Ġmiscon stru
Ġoverpower ing
Ġbewit ches
Ġincommod ing
Ġdeliber ating
Ġcontradict ed
Ġfalsehood s
Ġmagn ified
Ġpredict ions
Ġinexpress ible
Ġsurpr ise
Ġpetticoat s
Ġsoothing s
Ġperformer s
Ġpuppy ism
Ġterri fied
Ġachie vement
Ġholiday s
Ġinnoc ent
Ġumbrell a
Ġindivid ually
br ought
bre ak
cra ig
cra mer
dy ed
dis posed
dis appointed
dif ference
dif fering
dixon s
dump ling
dump lings
eight een
farm er
pat riae
pur port
pur suit
passion ately
sp oso
sp oken
sal t
sal ted
swe et
tart s
try ing
vis it
vis iting
wa it
wor ld
wor se
Ġtup man
Ġtup mans
Ġaven ue
Ġaven ues
Ġaud ible
Ġaud ibly
inqu iries
Ġsme ll
Ġsme lls
Ġwin ning
Ġwan tonness
Ġmount s
Ġba ly
Ġba iliff
Ġband ied
Ġcher ries
Ġcher ishing
Ġcart e
Ġhat red
Ġdar ling
Ġdar ingly
Ġdust y
Ġdub ious
Ġdub lin
Ġdict ate
Ġdict ated
Ġbeau fet
Ġbearer s
Ġpure st
Ġpud ding
Ġpud dle
Ġhy poc
Ġhy perbol
Ġnod s
Ġnodd ing
Ġnodd ed
Ġgif ted
Ġgif ts
Ġgest ure
Ġgest ures
Ġgross ly
stru ck
Ġsheet s
Ġthri ve
Ġthri ving
Ġreleas e
Ġreleas ed
Ġasper ity
Ġasper sion
Ġforfe it
Ġforfe ited
Ġant idote
Ġant agonist
Ġweigh s
Ġweigh ing
Ġmurm ured
Ġmurm urs
quick ness
Ġdeed ily
Ġdefend ed
Ġdexter ity
Ġdexter ously
Ġemp hatically
Ġemp hasis
Ġdoct oring
Ġdoct rines
Ġsack s
Ġharsh ly
Ġstim ulate
Ġstim ulative
Ġstag nation
Ġstag gered
Ġstip ulate
Ġstip ulation
Ġexten uation
Ġexten uations
Ġexterior s
Ġfeed ing
Ġlect ure
Ġlect ured
Ġamid st
Ġshr unk
Ġshr inking
Ġven ice
Ġven eration
Ġvan ish
Ġvan ities
Ġdisgu ise
Ġdisgu ised
Ġagric ulture
Ġagric ultural
Ġprecaut ion
Ġprecaut ions
Ġenqu ired
Ġenqu iring
Ġenlar ge
Ġenlar ged
Ġunqu alified
Ġunqu estionably
Ġungen ial
Ġungen erous
Ġunans wered
Ġunans werable
Ġuninterrupt ed
Ġuninterrupt edly
Ġabhor red
Ġprolong ed
Ġpropere r
Ġpropere st
Ġcoars er
Ġcoars eness
Ġworsh ipped
Ġworsh ipping
Ġgold smith
Ġgoss ip
Ġgoss ips
throat s
Ġchamber s
Ġindef inite
Ġindef atig
Ġindelic ate
Ġindelic acy
Ġundergo ing
Ġrepul sed
Ġrepul sive
Ġsubord ination
Ġsubord inate
Ġsublim e
Ġsublim ity
Ġappreci ate
Ġappreci ating
Ġdistaste ful
Ġblunt ness
Ġengra fted
Ġengra vings
Ġcler k
Ġcler ks
Ġclot hing
Ġclot hes
Ġaccum ulation
Ġaccum ulations
Ġconfidant es
Ġadmin ister
Ġadmin istered
Ġincongru ous
Ġincongru ity
Ġdispens ing
Ġdispens ed
Ġminor ity
Ġkeen ly
Ġprophe cies
Ġprophe tically
Ġcomplet ion
Ġcomplet est
Ġflower s
Ġflock s
short ening
Ġinfli cted
Ġinfli cting
Ġgratific ation
Ġgratific ations
Ġoppress ive
Ġpiqu e
Ġpiqu et
Ġpurchas ing
Ġpurchas ed
Ġhumane ly
Ġgram marian
Ġgram matical
Ġdiscont ent
Ġdiscont inuing
Ġcray on
Ġcray ons
Ġinspect ion
Ġinsinu ate
Ġinsinu ating
grand papa
Ġworkb ags
Ġworkb asket
expect ing
expect ant
exam ination
exam ining
excell ent
excell ently
Ġforebod ed
Ġforebod ings
Ġprovoc ation
Ġprovoc ations
Ġsixp ence
Ġsixp ences
Ġgrievous ly
Ġpreposs ession
Ġpreposs essing
particul ar
particul arly
Ġdrown ed
Ġtranspl anted
Ġtranspl antation
Ġenchan ted
Ġenchan ting
Ġdepos it
Ġdepos ited
Ġindisc retion
Ġindisc reetly
gentle man
gentle men
Ġcandid ly
Ġcandid ates
Ġunequivoc al
Ġunequivoc ally
Ġbuy ings
Ġcurt ains
Ġcurt seys
Ġobtru de
Ġobtru ding
marry ing
Ġaffirm ative
Ġexpedient s
Ġmagist rate
Ġmagist rates
Ġuntoward ly
Ġpunctual ity
Ġwaltz es
Ġlands cap
Ġimpertin ence
Ġimpertin ently
Ġforestall ing
Ġvouchsaf ing
Ġvouchsaf ed
consider ation
eleg ant
eleg antly
obser ved
obser ving
Ġportra it
Ġportra its
secret ly
Ġmemorandum s
Ġconcert s
Ġornament ed
Ġrubber s
Ġattribut ing
Ġattribut ed
absolute ly
Ġimpartial ity
Ġ-------- .'
Ġ-------- --,
hautboy s
Ġindistinct ness
Ġtriumphan t
Ġtriumphan tly
bu ilt
bri de
bak ed
best owed
bus iness
blu nder
car o
cast ic
circ le
cult ivation
catch ing
das her
dro pt
doub ts
diss olved
equ ipped
eli zabeth
eye ing
find ing
furn ished
fres co
fright fully
fetch ing
gard eners
gover ness
hon our
hus h
lower ing
latter ly
mis ery
mid dling
mess age
mour ners
mist ake
meth odical
nons ensical
oft entimes
pr omise
put ting
pro of
pilf ering
sy llables
sour ce
sac rifice
sens ation
slow ly
scre en
tre asures
wes ton
wind ow
Ġed ition
Ġzig zags
Ġtha w
Ġted ious
Ġtur keys
Ġtro phies
Ġtun bridge
Ġtaut ology
Ġters eness
Ġtumb ler
Ġtyran nic
Ġald erney
Ġaus pices
Ġaust en
incl ining
infer ior
insuf ferable
incre ase
Ġsed ate
Ġsar castic
Ġsch olar
Ġsway ed
Ġscept icism
Ġsedu ced
Ġwreat h
Ġwake field
Ġwide ly
Ġwilt shire
Ġmim ic
Ġmal t
Ġmic hael
Ġmick leham
Ġmitche ll
rema ined
remark ably
Ġoyst ers
Ġben ch
Ġble ak
Ġbal ance
Ġbul ky
Ġbos om
Ġbury ing
Ġbang s
Ġbord ering
Ġbash fulness
Ġido lized
Ġtheod ore
Ġcod dling
Ġcli fton
Ġcell ery
Ġcra mp
Ġcather ine
Ġcust ard
Ġcert ified
Ġcree p
Ġcip hers
Ġciti zen
Ġtoss es
Ġtotter ing
Ġtorment ing
Ġfur ther
Ġfest ivity
Ġfun eral
Ġfren ch
Ġfiness ing
Ġfath omed
Ġheed lessness
Ġheire ss
Ġhaber dasher
Ġhaunt s
Ġhapha zard
Ġnour ishing
Ġnest led
Ġnons enses
Ġdit ch
Ġdas hing
Ġdur able
Ġdart ing
Ġdil atory
Ġdus k
Ġdru gs
Ġdup ed
Ġdili gence
Ġdork ing
Ġdrud ge
Ġbefri ended
Ġpill ars
Ġpall iate
Ġpic nic
Ġpull ing
Ġpars nip
Ġpup il
Ġpens ive
Ġecl at
Ġepit hets
Ġecst asies
Ġejac ulation
Ġeyel ashes
Ġhous eroom
Ġhym en
Ġhinde red
Ġinse parably
Ġinad missibility
Ġinfa mous
Ġinsu perable
Ġinroad s
Ġinatt entive
Ġnomin al
Ġnoviti ate
espion age
Ġital ian
Ġgal a
Ġgli bly
Ġgrud ged
Ġgreet ed
Ġgarter s
Ġginger bread
Ġlur king
Ġlic entious
Ġlone ly
Ġlang ham
Ġlonel iness
Ġleng thened
Ġlingu ist
Ġlung s
Ġlenient ly
stra wberries
strick en
Ġshedd ing
Ġsheeps kin
Ġshepher d
Ġthread bare
church ill
christ mas
Ġrede em
Ġremed y
Ġrevol ts
Ġreinst ate
Ġreanim ation
Ġforswe ar
imag ine
immedi ately
Ġanal ogy
Ġanci ent
Ġanec dote
Ġulcer ated
Ġsoli loquy
Ġatmos phere
Ġwhirl ing
Ġbutton s
Ġmuff in
Ġmechan ically
quant ities
Ġdefe at
Ġdefect s
Ġdeci phered
Ġdepri ved
Ġdevi ation
Ġdemer its
Ġseren ity
Ġempt y
Ġconci liating
Ġdoci le
Ġcommiss ions
Ġsaun tering
Ġsaunder s
Ġsandwic hes
Ġjum ble
Ġjew els
Ġmyster iously
Ġnept une
Ġfrau d
Ġfrag rance
Ġharmon ise
Ġstil ton
Ġstol en
Ġstab bed
Ġmisbe have
Ġmisapp ly
Ġexag geration
Ġexhib itions
Ġwhiche ver
feel ings
Ġfemin ine
Ġaladd in
Ġmanche ster
Ġmanoeu vring
decl ined
delic ious
Ġlibr ary
Ġrud eness
Ġramb ling
Ġrheum atic
Ġqueer nesses
indif ferent
indign ation
Ġvag aries
Ġvoc al
Ġvict ims
ellig ible
Ġdissent ient
Ġdiscri mination
Ġdisingen uousness
Ġdisadvant ages
Ġchil blains
Ġaggrand ise
Ġprecl ude
Ġpresid ing
Ġprecon ceived
Ġenab led
Ġenum erate
Ġensu ed
Ġenig mas
Ġenvi able
Ġenem ies
Ġenlight ened
Ġennu i
Ġenerget ic
Ġcanvass ing
Ġwholes omeness
Ġintrig ue
Ġintegr ity
Ġunost entatious
Ġunab ated
Ġunsent imental
Ġunci vil
Ġunint elligible
Ġunbe coming
Ġunmod ulated
Ġunfast idious
Ġunimp eded
Ġunbid den
Ġunbro ken
Ġunob jectionable
Ġunste ady
Ġunav oidable
Ġunbi ased
Ġunceremonious ness
Ġabol ition
Ġabbot s
Ġprohib ited
Ġaffa bility
Ġaflo at
Ġpool s
Ġpopl in
Ġcaress es
Ġcabb age
Ġcabinet s
Ġcavill er
Ġ_____ __
Ġacced ed
Ġcock ade
Ġfricas see
housebre aking
uncl osing
unrequ ited
unreason able
Ġshakes peare
Ġspac ious
Ġspont aneous
Ġadvers ary
Ġadvert ising
accept ed
Ġobvi ate
Ġplaus ible
Ġchurchward ens
Ġoutwe igh
Ġoutste pped
Ġtwentiet h
august a
Ġunderto ok
Ġunderval ued
Ġtalkativen ess
assist ance
Ġimplic itly
Ġriche st
Ġoverflow ing
compl iments
compan y
Ġsupplic ation
Ġprison er
Ġrepug nance
Ġgigg le
Ġhereto fore
Ġappoint ments
Ġdesult ory
Ġdespond ing
Ġpeep ed
Ġpemb roke
Ġperempt orily
Ġcontingen cies
Ġtrades man
introdu ction
Ġindoor s
Ġbloss om
Ġblund ered
Ġextric ated
Ġtext s
Ġsciss ors
Ġscrew ed
Ġscallop ed
Ġmathemat ician
Ġclerg yman
Ġclamor ous
Ġsurvi ving
Ġgloss ed
Ġrecord able
Ġinstinct ive
Ġfortuit ous
Ġilliber al
Ġstrang est
Ġimpend ing
Ġimmat erial
Ġhardsh ips
medioc re
Ġequivoc ation
Ġincident al
Ġdrawer s
Ġminiat ures
Ġsuperadd ed
Ġsuffere rs
Ġbackgr ound
Ġguile less
Ġcircumspect ion
Ġpropens ity
offend ed
Ġfluct uations
Ġslugg ish
Ġslumber ing
shock ing
Ġinterchan ge
appropri ation
Ġcheerfull er
Ġunempl oyed
Ġespeci al
Ġespal ier
Ġpatriot ism
Ġdischar ged
Ġuncouth ness
Ġcommiser ation
Ġcouncill ors
Ġinsignific ance
Ġmerchan t
Ġmercant ile
Ġirks omeness
Ġrelap se
Ġrelinqu ished
Ġrelaps ing
Ġforerun ner
Ġcorrob orating
Ġundec ided
Ġundistingu ishing
Ġpenkn ife
Ġdrizz le
Ġdrunken ness
Ġfootste ps
Ġvehic le
Ġimpropriet ies
Ġunexamp led
Ġunexpens ively
Ġhairdress er
Ġbravad o
Ġbraithwa ites
Ġdeprec ated
Ġdepreci ating
Ġpitifull est
Ġprocrast inating
Ġjeffere ys
controu l
Ġincompat ible
Ġdissatis faction
Ġgeograph y
Ġdeficien cies
Ġunsett led
Ġportfo lio
Ġvaletudinar ian
Ġmisconstru ed
Ġhypoc risy
Ġhyperbol ical
Ġindefatig able
Ġlandscap es
Ġalderney s
Ġmichael mas
Ġlicentious ness
