{
  "version": "1.0",
  "truncation": null,
  "padding": null,
  "added_tokens": [
    {
      "id": 0,
      "content": "<s>",
      "single_word": false,
      "lstrip": false,
      "rstrip": false,
      "normalized": false,
      "special": true
    },
    {
      "id": 1,
      "content": "<pad>",
      "single_word": false,
      "lstrip": false,
      "rstrip": false,
      "normalized": false,
      "special": true
    },
    {
      "id": 2,
      "content": "</s>",
      "single_word": false,
      "lstrip": false,
      "rstrip": false,
      "normalized": false,
      "special": true
    },
    {
      "id": 3,
      "content": "<unk>",
      "single_word": false,
      "lstrip": false,
      "rstrip": false,
      "normalized": false,
      "special": true
    },
    {
      "id": 4,
      "content": "<mask>",
      "single_word": false,
      "lstrip": false,
      "rstrip": false,
      "normalized": false,
      "special": true
    },
    {
      "id": 11750,
      "content": "<|endoftext|>",
      "single_word": false,
      "lstrip": false,
      "rstrip": false,
      "normalized": false,
      "special": true
    }
  ],
  "normalizer": {
    "type": "Sequence",
    "normalizers": [
      {
        "type": "Lowercase"
      }
    ]
  },
  "pre_tokenizer": {
    "type": "ByteLevel",
    "add_prefix_space": false,
    "trim_offsets": true,
    "use_regex": true
  },
  "post_processor": null,
  "decoder": {
    "type": "ByteLevel",
    "add_prefix_space": true,
    "trim_offsets": true,
    "use_regex": true
  },
  "model": {
    "type": "BPE",
    "dropout": null,
    "unk_token": null,
    "continuing_subword_prefix": null,
    "end_of_word_suffix": null,
    "fuse_unk": false,
    "byte_fallback": false,
    "ignore_merges": false,
    "vocab": {
      "<s>": 0,
      "<pad>": 1,
      "</s>": 2,
      "<unk>": 3,
      "<mask>": 4,
      "!": 5,
      "\"": 6,
      "&": 7,
      "'": 8,
      "(": 9,
      ")": 10,
      ",": 11,
      "-": 12,
      ".": 13,
      "0": 14,
      "1": 15,
      "2": 16,
      "3": 17,
      "4": 18,
      "6": 19,
      "7": 20,
      "8": 21,
      ":": 22,
      ";": 23,
      "?": 24,
      "[": 25,
      "]": 26,
      "_": 27,
      "`": 28,
      "a": 29,
      "b": 30,
      "c": 31,
      "d": 32,
      "e": 33,
      "f": 34,
      "g": 35,
      "h": 36,
      "i": 37,
      "j": 38,
      "k": 39,
      "l": 40,
      "m": 41,
      "n": 42,
      "o": 43,
      "p": 44,
      "q": 45,
      "r": 46,
      "s": 47,
      "t": 48,
      "u": 49,
      "v": 50,
      "w": 51,
      "x": 52,
      "y": 53,
      "z": 54,
      "Ċ": 55,
      "Ġ": 56,
      "Ġt": 57,
      "he": 58,
      "Ġa": 59,
      "in": 60,
      "Ġs": 61,
      "Ġw": 62,
      "Ġm": 63,
      "re": 64,
      "Ġo": 65,
      "ha": 66,
      "ou": 67,
      "Ġb": 68,
      "Ġi": 69,
      "er": 70,
      "Ġthe": 71,
      "nd": 72,
      "Ġc": 73,
      "Ġto": 74,
      "on": 75,
      "Ġf": 76,
      "ing": 77,
      "Ġhe": 78,
      "en": 79,
      "ed": 80,
      "Ġha": 81,
      "Ġn": 82,
      "Ġand": 83,
      "Ġof": 84,
      "Ġd": 85,
      "Ġbe": 86,
      "ll": 87,
      "it": 88,
      "is": 89,
      "Ġp": 90,
      "le": 91,
      "Ġe": 92,
      "as": 93,
      "or": 94,
      "Ġh": 95,
      "an": 96,
      "Ġin": 97,
      "Ġno": 98,
      "es": 99,
      "at": 100,
      "ar": 101,
      "--": 102,
      "om": 103,
      "ver": 104,
      "Ġher": 105,
      "Ġy": 106,
      "ld": 107,
      "ĠĊ": 108,
      "Ġit": 109,
      "Ġg": 110,
      "ve": 111,
      "Ġyou": 112,
      "Ġl": 113,
      "Ġnot": 114,
      "hat": 115,
      "Ġwas": 116,
      "gh": 117,
      "ly": 118,
      "st": 119,
      "Ġshe": 120,
      "Ġth": 121,
      "ut": 122,
      "ch": 123,
      "se": 124,
      "ould": 125,
      "Ġ\"": 126,
      "ion": 127,
      "ce": 128,
      "ri": 129,
      "Ġre": 130,
      "ent": 131,
      "ay": 132,
      "Ġmr": 133,
      "Ġthat": 134,
      "Ġas": 135,
      "ow": 136,
      "ght": 137,
      "very": 138,
      "Ġfor": 139,
      "et": 140,
      "Ġhad": 141,
      "ith": 142,
      "im": 143,
      "Ġon": 144,
      "Ġsu": 145,
      "id": 146,
      "Ġan": 147,
      "Ġwith": 148,
      "Ġwe": 149,
      "ir": 150,
      "ct": 151,
      "her": 152,
      "Ġu": 153,
      "Ġso": 154,
      "Ġhave": 155,
      "Ġat": 156,
      "Ġis": 157,
      "od": 158,
      "al": 159,
      "Ġwh": 160,
      "Ġk": 161,
      "Ġbut": 162,
      "ma": 163,
      "ill": 164,
      ".\"": 165,
      "Ġhis": 166,
      "Ġvery": 167,
      "Ġmu": 168,
      "ur": 169,
      "ad": 170,
      "ight": 171,
      "Ġkn": 172,
      "Ġall": 173,
      "ro": 174,
      "pe": 175,
      "'s": 176,
      "Ġme": 177,
      "ter": 178,
      "qu": 179,
      "Ġde": 180,
      "Ġhim": 181,
      "Ġse": 182,
      "Ġem": 183,
      "Ġcon": 184,
      "ton": 185,
      "Ġdo": 186,
      "ore": 187,
      "Ġcom": 188,
      "ble": 189,
      "Ġemma": 190,
      "Ġcould": 191,
      "Ġsa": 192,
      "Ġwould": 193,
      "ain": 194,
      "Ġj": 195,
      "and": 196,
      "Ġmy": 197,
      "Ġne": 198,
      "ood": 199,
      "lf": 200,
      "Ġfr": 201,
      "Ġhar": 202,
      "pp": 203,
      "Ġbeen": 204,
      "ation": 205,
      ".--": 206,
      "Ġst": 207,
      "ak": 208,
      "ess": 209,
      "ot": 210,
      "Ġmis": 211,
      "Ġex": 212,
      "all": 213,
      "Ġmrs": 214,
      "Ġwhi": 215,
      "Ġany": 216,
      "ic": 217,
      "ul": 218,
      "fe": 219,
      "art": 220,
      "ss": 221,
      "our": 222,
      "Ġfe": 223,
      "me": 224,
      "ge": 225,
      "self": 226,
      "han": 227,
      "Ġlo": 228,
      "Ġle": 229,
      "Ġwere": 230,
      "ant": 231,
      "Ġwill": 232,
      "Ġmiss": 233,
      "Ġam": 234,
      "red": 235,
      "Ġby": 236,
      "Ġfa": 237,
      "Ġmust": 238,
      "Ġthere": 239,
      "ort": 240,
      "ome": 241,
      "Ġfrom": 242,
      "Ġwhich": 243,
      "Ġper": 244,
      "li": 245,
      "Ġwhe": 246,
      "riet": 247,
      "Ġsh": 248,
      "Ġal": 249,
      "out": 250,
      "Ġman": 251,
      "Ġthey": 252,
      "de": 253,
      "Ġor": 254,
      "Ġli": 255,
      "ard": 256,
      "able": 257,
      "Ġr": 258,
      "Ġqu": 259,
      "ink": 260,
      "ure": 261,
      "Ġsee": 262,
      "Ġel": 263,
      "Ġwhat": 264,
      "Ġthis": 265,
      "Ġharriet": 266,
      "itt": 267,
      "ok": 268,
      "Ġsaid": 269,
      "Ġmuch": 270,
      "Ġknow": 271,
      "ind": 272,
      "Ġthem": 273,
      "Ġthan": 274,
      "Ġmore": 275,
      "Ġsuch": 276,
      "Ġthink": 277,
      "Ġthou": 278,
      "Ġthing": 279,
      "ate": 280,
      "Ġwes": 281,
      "Ġv": 282,
      "Ġare": 283,
      "Ġweston": 284,
      "ry": 285,
      "reat": 286,
      "ell": 287,
      "Ġdis": 288,
      "Ġch": 289,
      "Ġhow": 290,
      ",\"": 291,
      "Ġif": 292,
      "Ġag": 293,
      "Ġevery": 294,
      "Ġone": 295,
      "mp": 296,
      "Ġpre": 297,
      "ther": 298,
      "hing": 299,
      "ite": 300,
      "ouse": 301,
      "Ġen": 302,
      "end": 303,
      "Ġcan": 304,
      "ong": 305,
      "Ġwho": 306,
      "ment": 307,
      "ra": 308,
      "Ġint": 309,
      "Ġun": 310,
      "Ġelton": 311,
      "Ġyour": 312,
      "ley": 313,
      "ather": 314,
      "Ġab": 315,
      "Ġpro": 316,
      "Ġaf": 317,
      "ightley": 318,
      "ance": 319,
      "Ġknightley": 320,
      "Ġsay": 321,
      "way": 322,
      "Ġpo": 323,
      "Ġwhen": 324,
      "Ġca": 325,
      "ven": 326,
      "Ġshould": 327,
      "ive": 328,
      "one": 329,
      "Ġgood": 330,
      "ved": 331,
      "wn": 332,
      "Ġlitt": 333,
      "if": 334,
      "ost": 335,
      "Ġbeing": 336,
      "Ġlittle": 337,
      "ĠĠ": 338,
      "il": 339,
      "ally": 340,
      "ous": 341,
      "alk": 342,
      "ke": 343,
      "Ġ_": 344,
      "!--": 345,
      "Ġup": 346,
      "Ġnever": 347,
      "Ġac": 348,
      "ity": 349,
      "Ġdid": 350,
      "Ġpart": 351,
      "ast": 352,
      "Ġco": 353,
      "est": 354,
      "us": 355,
      "Ġwell": 356,
      "Ġgreat": 357,
      "Ġfri": 358,
      "Ġonly": 359,
      "med": 360,
      "Ġmight": 361,
      "Ġcomp": 362,
      "tter": 363,
      "Ġwood": 364,
      "house": 365,
      "ane": 366,
      "el": 367,
      "fore": 368,
      "leas": 369,
      "Ġwor": 370,
      "Ġwoodhouse": 371,
      "un": 372,
      "fa": 373,
      "ving": 374,
      "Ġtim": 375,
      "Ġown": 376,
      "Ġtheir": 377,
      "ake": 378,
      "Ġfriend": 379,
      "nder": 380,
      "Ġother": 381,
      "Ġlook": 382,
      "Ġnow": 383,
      "ie": 384,
      "Ġsha": 385,
      "age": 386,
      "Ġsp": 387,
      "ect": 388,
      "Ġad": 389,
      "Ġjane": 390,
      "ust": 391,
      "Ġsome": 392,
      "Ġpleas": 393,
      "ac": 394,
      "Ġfair": 395,
      "ody": 396,
      "Ġob": 397,
      "Ġatt": 398,
      "Ġherself": 399,
      "Ġhapp": 400,
      "but": 401,
      "Ġtime": 402,
      "ence": 403,
      "Ġgo": 404,
      "Ġquite": 405,
      "ness": 406,
      "Ġthought": 407,
      "ert": 408,
      "Ġfeel": 409,
      "Ġagain": 410,
      "os": 411,
      "ol": 412,
      "ab": 413,
      "ose": 414,
      "ru": 415,
      "ade": 416,
      "pect": 417,
      "Ġus": 418,
      "Ġtoo": 419,
      "Ġpl": 420,
      "ren": 421,
      "Ġbefore": 422,
      "ree": 423,
      "Ġres": 424,
      "urch": 425,
      "Ġlike": 426,
      "th": 427,
      "Ġchurch": 428,
      "Ġmost": 429,
      "Ġnothing": 430,
      "Ġhas": 431,
      "Ġabout": 432,
      "ough": 433,
      "fax": 434,
      "Ġfairfax": 435,
      "fect": 436,
      "Ġho": 437,
      "ways": 438,
      "?\"": 439,
      "Ġchurchill": 440,
      "pt": 441,
      "Ġsoon": 442,
      "igh": 443,
      "Ġwis": 444,
      "ful": 445,
      "Ġalways": 446,
      "per": 447,
      "Ġeven": 448,
      "Ġdear": 449,
      "oh": 450,
      "ank": 451,
      "ious": 452,
      "ple": 453,
      "hed": 454,
      "Ġcons": 455,
      "Ġout": 456,
      "Ġcha": 457,
      "ire": 458,
      "ice": 459,
      "Ġspe": 460,
      "Ġmay": 461,
      "Ġlong": 462,
      "urn": 463,
      "Ġfir": 464,
      "Ġinde": 465,
      "ng": 466,
      "Ġshall": 467,
      "Ġtw": 468,
      "ound": 469,
      "Ġwithout": 470,
      "Ġday": 471,
      "ies": 472,
      "Ġsm": 473,
      "Ġwant": 474,
      "ged": 475,
      "Ġfather": 476,
      "Ġfirst": 477,
      "Ġsure": 478,
      "not": 479,
      "ine": 480,
      "are": 481,
      "ever": 482,
      "Ġafter": 483,
      "?--": 484,
      "au": 485,
      "ner": 486,
      "the": 487,
      "Ġfrank": 488,
      "ject": 489,
      "Ġmade": 490,
      "Ġunder": 491,
      "ady": 492,
      "ten": 493,
      "ible": 494,
      "anc": 495,
      "Ġyoung": 496,
      "other": 497,
      "we": 498,
      "ions": 499,
      "Ġtalk": 500,
      "Ġbody": 501,
      "um": 502,
      "Ġgr": 503,
      "Ġjust": 504,
      "Ġever": 505,
      "ward": 506,
      "Ġmar": 507,
      "ress": 508,
      "Ġindeed": 509,
      "ass": 510,
      "Ġimp": 511,
      "ield": 512,
      "fort": 513,
      "Ġri": 514,
      "Ġtwo": 515,
      "Ġover": 516,
      "Ġbat": 517,
      "ily": 518,
      "ings": 519,
      "com": 520,
      "Ġbeg": 521,
      "ond": 522,
      "Ġap": 523,
      "su": 524,
      "field": 525,
      "you": 526,
      "Ġbetter": 527,
      "lie": 528,
      "Ġway": 529,
      "oun": 530,
      "ried": 531,
      "Ġsupp": 532,
      "cl": 533,
      "Ġthough": 534,
      "iness": 535,
      "Ġcome": 536,
      "ertain": 537,
      "Ġpr": 538,
      "Ġhigh": 539,
      "ise": 540,
      "ning": 541,
      "Ġrep": 542,
      "ty": 543,
      "Ġinto": 544,
      "icul": 545,
      "!\"": 546,
      "ted": 547,
      "tfield": 548,
      "Ġro": 549,
      "Ġop": 550,
      "own": 551,
      "Ġhartfield": 552,
      "Ġdel": 553,
      "ck": 554,
      "Ġar": 555,
      "Ġwalk": 556,
      "Ġgive": 557,
      "Ġthen": 558,
      "ach": 559,
      "Ġbelie": 560,
      "Ġsub": 561,
      "Ġbates": 562,
      "Ġmake": 563,
      "Ġoff": 564,
      "omet": 565,
      "Ġreally": 566,
      "Ġspeak": 567,
      "Ġwom": 568,
      "Ġgi": 569,
      "Ġhere": 570,
      "Ġletter": 571,
      "ig": 572,
      "ied": 573,
      "sent": 574,
      "oub": 575,
      "Ġhaving": 576,
      "Ġmean": 577,
      "Ġhimself": 578,
      "Ġappe": 579,
      "get": 580,
      "Ġsat": 581,
      "Ġsomet": 582,
      "Ġdif": 583,
      "Ġword": 584,
      "Ġhope": 585,
      "Ġkind": 586,
      "Ġupon": 587,
      "ag": 588,
      "Ġdone": 589,
      "Ġbr": 590,
      "te": 591,
      "Ġent": 592,
      "Ġapp": 593,
      "Ġrather": 594,
      "well": 595,
      "Ġseemed": 596,
      "Ġaway": 597,
      "oment": 598,
      "feren": 599,
      "Ġmany": 600,
      "Ġcannot": 601,
      "ci": 602,
      "Ġmoment": 603,
      "pl": 604,
      "ined": 605,
      "Ġhear": 606,
      "Ġpass": 607,
      "oy": 608,
      "ull": 609,
      "ves": 610,
      "ĠĠĠĠ": 611,
      "Ġdes": 612,
      "ury": 613,
      "Ġwish": 614,
      "ps": 615,
      "Ġpe": 616,
      "Ġret": 617,
      "Ġmind": 618,
      "Ġhome": 619,
      "she": 620,
      "ud": 621,
      "Ġcont": 622,
      "Ġwhile": 623,
      "Ġvis": 624,
      "Ġwoman": 625,
      "ber": 626,
      "led": 627,
      "Ġlove": 628,
      "Ġconsid": 629,
      ";--": 630,
      "cc": 631,
      "yes": 632,
      "Ġhand": 633,
      "Ġdoub": 634,
      "Ġlast": 635,
      "Ġset": 636,
      "itu": 637,
      "ary": 638,
      "Ġmanner": 639,
      "Ġdoes": 640,
      "Ġenough": 641,
      "ace": 642,
      "Ġtr": 643,
      "Ġcertain": 644,
      "Ġposs": 645,
      "Ġvisit": 646,
      "bury": 647,
      "ix": 648,
      "Ġass": 649,
      "Ġhowever": 650,
      "int": 651,
      "Ġfel": 652,
      "Ġpleasure": 653,
      "ught": 654,
      "ction": 655,
      "Ġhappy": 656,
      "Ġunderst": 657,
      "Ġhighbury": 658,
      "ared": 659,
      "Ġmor": 660,
      "ated": 661,
      "Ġcomfort": 662,
      "Ġdist": 663,
      "am": 664,
      "Ġits": 665,
      "Ġheard": 666,
      "oll": 667,
      "Ġind": 668,
      "arm": 669,
      "arly": 670,
      "ention": 671,
      "ctly": 672,
      "Ġcame": 673,
      "Ġgoing": 674,
      "ave": 675,
      "for": 676,
      "Ġbl": 677,
      "Ġpoor": 678,
      "Ġobli": 679,
      "Ġhalf": 680,
      "ither": 681,
      "Ġpresent": 682,
      "Ġacqu": 683,
      "ild": 684,
      "Ġtake": 685,
      "Ġide": 686,
      "Ġext": 687,
      "Ġdoubt": 688,
      "be": 689,
      "no": 690,
      "Ġte": 691,
      "ately": 692,
      "Ġeng": 693,
      "ars": 694,
      "Ġreg": 695,
      "Ġsort": 696,
      "Ġour": 697,
      "Ġcar": 698,
      "use": 699,
      "Ġsc": 700,
      "Ġsen": 701,
      "Ġwr": 702,
      "cept": 703,
      "Ġstill": 704,
      "Ġfelt": 705,
      "ced": 706,
      "fer": 707,
      "ne": 708,
      "Ġmat": 709,
      "les": 710,
      "Ġanother": 711,
      "Ġconsider": 712,
      "Ġcall": 713,
      "Ġnat": 714,
      "ist": 715,
      "Ġfew": 716,
      "wards": 717,
      "Ġsubject": 718,
      "Ġreturn": 719,
      "Ġmorning": 720,
      "most": 721,
      "ere": 722,
      "Ġtell": 723,
      "Ġocc": 724,
      "Ġyet": 725,
      "Ġsaw": 726,
      "Ġperfect": 727,
      "Ġfriends": 728,
      "ser": 729,
      "osed": 730,
      "ably": 731,
      "Ġend": 732,
      "ations": 733,
      "Ġsomething": 734,
      "Ġser": 735,
      "Ġcl": 736,
      "Ġhouse": 737,
      "Ġgen": 738,
      "riage": 739,
      "ount": 740,
      "gether": 741,
      "ret": 742,
      "its": 743,
      "Ġhour": 744,
      "ack": 745,
      "ep": 746,
      "Ġsur": 747,
      "Ġsame": 748,
      "Ġmyself": 749,
      "Ġbelieve": 750,
      "ide": 751,
      "Ġfeelings": 752,
      "Ġright": 753,
      "ame": 754,
      "Ġallow": 755,
      "Ġchild": 756,
      "Ġdelight": 757,
      "Ġunderstand": 758,
      "Ġidea": 759,
      "haps": 760,
      "Ġchan": 761,
      "Ġgl": 762,
      "oth": 763,
      "Ġacc": 764,
      "Ġparticul": 765,
      "Ġchar": 766,
      "Ġsatis": 767,
      "Ġtill": 768,
      "Ġmart": 769,
      "Ġima": 770,
      "Ġdeal": 771,
      "Ġroom": 772,
      "Ġgener": 773,
      "Ġmartin": 774,
      "Ġ`": 775,
      "Ġimag": 776,
      "Ġev": 777,
      "Ġconf": 778,
      "alls": 779,
      "Ġevening": 780,
      "Ġacquain": 781,
      "erest": 782,
      "ior": 783,
      "ople": 784,
      "that": 785,
      "Ġfound": 786,
      "Ġpa": 787,
      "Ġfam": 788,
      "Ġought": 789,
      "Ġoften": 790,
      "Ġthr": 791,
      "Ġrec": 792,
      "Ġask": 793,
      "Ġinterest": 794,
      "Ġparty": 795,
      "Ġspir": 796,
      "Ġpeople": 797,
      "Ġold": 798,
      "Ġfind": 799,
      "Ġgent": 800,
      "Ġans": 801,
      "lied": 802,
      "Ġrand": 803,
      "Ġtak": 804,
      "Ġinst": 805,
      "--\"": 806,
      "Ġfort": 807,
      "Ġsec": 808,
      "less": 809,
      "Ġlooked": 810,
      "Ġadv": 811,
      "vour": 812,
      "ince": 813,
      "Ġill": 814,
      "irc": 815,
      "Ġstr": 816,
      "Ġexpect": 817,
      "Ġpret": 818,
      "Ġadm": 819,
      "Ġplace": 820,
      "ohn": 821,
      "Ġsmith": 822,
      "Ġrandalls": 823,
      "body": 824,
      "cess": 825,
      "ew": 826,
      "to": 827,
      "Ġim": 828,
      "Ġbest": 829,
      "ase": 830,
      "Ġthose": 831,
      "ety": 832,
      "ick": 833,
      "Ġpers": 834,
      "Ġwhere": 835,
      "Ġaffect": 836,
      "Ġcertainly": 837,
      "Ġ(": 838,
      "ason": 839,
      "Ġknew": 840,
      "Ġcoming": 841,
      "Ġhard": 842,
      "Ġperhaps": 843,
      "Ġadd": 844,
      "Ġmarry": 845,
      "ish": 846,
      "Ġye": 847,
      "Ġget": 848,
      "Ġperson": 849,
      "mon": 850,
      "Ġturn": 851,
      "Ġcirc": 852,
      "Ġbec": 853,
      "Ġref": 854,
      "Ġjohn": 855,
      "Ġlet": 856,
      "medi": 857,
      "ft": 858,
      "ual": 859,
      "Ġleast": 860,
      "Ġalmost": 861,
      "day": 862,
      "Ġcour": 863,
      "Ġbet": 864,
      "Ġsus": 865,
      "Ġworld": 866,
      "Ġpossible": 867,
      "mr": 868,
      "Ġboth": 869,
      "Ġequ": 870,
      "Ġinv": 871,
      "cei": 872,
      "Ġonce": 873,
      "Ġdifferen": 874,
      "Ġimmedi": 875,
      "ang": 876,
      "Ġperry": 877,
      "Ġelse": 878,
      "pri": 879,
      "Ġtogether": 880,
      "Ġsuppose": 881,
      "Ġgentle": 882,
      "Ġcried": 883,
      "Ġgone": 884,
      "Ġrest": 885,
      "Ġexp": 886,
      "Ġlife": 887,
      "Ġopin": 888,
      "Ġopen": 889,
      "ired": 890,
      "ue": 891,
      "Ġbro": 892,
      "Ġdown": 893,
      "Ġinc": 894,
      "Ġread": 895,
      "Ġresol": 896,
      "Ġrespect": 897,
      "reme": 898,
      "Ġtold": 899,
      "Ġdire": 900,
      "Ġyes": 901,
      "Ġmeet": 902,
      "Ġcamp": 903,
      "Ġobser": 904,
      "Ġreplied": 905,
      "bell": 906,
      "now": 907,
      "vi": 908,
      "Ġtru": 909,
      "ower": 910,
      "pend": 911,
      "Ġless": 912,
      "Ġagree": 913,
      "Ġgiven": 914,
      "Ġfamily": 915,
      "Ġcampbell": 916,
      "ting": 917,
      "Ġheart": 918,
      "Ġdra": 919,
      "Ġjud": 920,
      "Ġshort": 921,
      "Ġwhole": 922,
      "Ġhappiness": 923,
      "aught": 924,
      "Ġobliged": 925,
      "Ġwi": 926,
      "Ġwo": 927,
      "Ġbus": 928,
      "ition": 929,
      "Ġdisp": 930,
      "Ġcompl": 931,
      "Ġwanted": 932,
      "Ġbegin": 933,
      "Ġappear": 934,
      "Ġextreme": 935,
      "wer": 936,
      "Ġsince": 937,
      "Ġmin": 938,
      "Ġmother": 939,
      "Ġput": 940,
      "Ġlady": 941,
      "iment": 942,
      "Ġseem": 943,
      "Ġcompan": 944,
      "ween": 945,
      "my": 946,
      "wh": 947,
      "Ġwarm": 948,
      "Ġsuper": 949,
      "Ġseen": 950,
      "ract": 951,
      "Ġcare": 952,
      "how": 953,
      "Ġside": 954,
      "Ġsuf": 955,
      "Ġke": 956,
      "Ġnew": 957,
      "unt": 958,
      "Ġspok": 959,
      "Ġhop": 960,
      "ully": 961,
      "Ġwonder": 962,
      "row": 963,
      "what": 964,
      "Ġsor": 965,
      "Ġsitu": 966,
      "ought": 967,
      "Ġback": 968,
      "Ġche": 969,
      "Ġcontin": 970,
      "Ġsurpri": 971,
      "Ġanswer": 972,
      "Ġhardly": 973,
      "Ġbetween": 974,
      "Ġopinion": 975,
      "Ġsurpriz": 976,
      "ered": 977,
      "Ġable": 978,
      "Ġfoll": 979,
      "Ġgu": 980,
      "Ġwhom": 981,
      "Ġprom": 982,
      "dd": 983,
      "Ġmak": 984,
      "Ġfar": 985,
      "Ġdet": 986,
      "Ġdaught": 987,
      "ited": 988,
      "ute": 989,
      "ceed": 990,
      "ella": 991,
      "abella": 992,
      "Ġcarriage": 993,
      "Ġimmediately": 994,
      "Ġsuperior": 995,
      "Ġdaughter": 996,
      "so": 997,
      "some": 998,
      "Ġact": 999,
      "Ġthree": 1000,
      "Ġleft": 1001,
      "Ġfavour": 1002,
      "Ġcold": 1003,
      "Ġobject": 1004,
      "Ġwife": 1005,
      "iv": 1006,
      "mber": 1007,
      "iss": 1008,
      "Ġgod": 1009,
      "Ġreason": 1010,
      "Ġisabella": 1011,
      "Ġfortun": 1012,
      "xt": 1013,
      "Ġtowards": 1014,
      "Ġnobody": 1015,
      "mall": 1016,
      "Ġdec": 1017,
      "raid": 1018,
      "agement": 1019,
      "Ġtalked": 1020,
      "Ġnatur": 1021,
      "Ġcircum": 1022,
      "ile": 1023,
      "Ġfanc": 1024,
      "Ġdon": 1025,
      "sel": 1026,
      "Ġreme": 1027,
      "Ġpersu": 1028,
      "Ġprop": 1029,
      "Ġafraid": 1030,
      "ause": 1031,
      "Ġperfectly": 1032,
      "Ġaccount": 1033,
      "Ġthrough": 1034,
      "Ġpretty": 1035,
      "Ġcircumst": 1036,
      "aut": 1037,
      "aim": 1038,
      "Ġsir": 1039,
      "Ġdin": 1040,
      "Ġeither": 1041,
      "ility": 1042,
      "Ġbegan": 1043,
      "Ġgeneral": 1044,
      "Ġspirits": 1045,
      "Ġstrong": 1046,
      "Ġextremely": 1047,
      "Ġsituation": 1048,
      "tance": 1049,
      "Ġsmall": 1050,
      "Ġcle": 1051,
      "ord": 1052,
      "Ġready": 1053,
      "ided": 1054,
      "Ġdeg": 1055,
      "Ġnext": 1056,
      "mpt": 1057,
      "Ġpoint": 1058,
      "Ġcomple": 1059,
      "ances": 1060,
      "Ġappro": 1061,
      "Ġacquaintance": 1062,
      "ceived": 1063,
      "Ġgentlem": 1064,
      "cour": 1065,
      "cious": 1066,
      "ging": 1067,
      "oice": 1068,
      "ually": 1069,
      "Ġuse": 1070,
      "odu": 1071,
      "Ġtherefore": 1072,
      "Ġthings": 1073,
      "Ġchange": 1074,
      "Ġsatisf": 1075,
      "Ġequal": 1076,
      "Ġtrue": 1077,
      "of": 1078,
      "Ġbo": 1079,
      "ern": 1080,
      "Ġfl": 1081,
      "Ġnor": 1082,
      "Ġpower": 1083,
      "irl": 1084,
      "Ġexa": 1085,
      "Ġwhether": 1086,
      "Ġcole": 1087,
      "Ġcourse": 1088,
      "Ġsorry": 1089,
      "up": 1090,
      "Ġdare": 1091,
      "vers": 1092,
      "Ġthinking": 1093,
      "Ġothers": 1094,
      "Ġdiff": 1095,
      "Ġchildren": 1096,
      "Ġaffection": 1097,
      "Ġbrother": 1098,
      "dard": 1099,
      "Ġsent": 1100,
      "Ġbad": 1101,
      "Ġthese": 1102,
      "Ġgirl": 1103,
      "Ġlooking": 1104,
      "Ġattention": 1105,
      "Ġlonger": 1106,
      "Ġassure": 1107,
      "Ġgoddard": 1108,
      "aged": 1109,
      "ek": 1110,
      "ip": 1111,
      "hes": 1112,
      "Ġdre": 1113,
      "ory": 1114,
      "Ġstay": 1115,
      "Ġexc": 1116,
      "ult": 1117,
      "orth": 1118,
      "Ġquest": 1119,
      "Ġknown": 1120,
      "Ġfeeling": 1121,
      "Ġtaken": 1122,
      "ient": 1123,
      "pter": 1124,
      "Ġaunt": 1125,
      "Ġma": 1126,
      "erm": 1127,
      "Ġbeaut": 1128,
      "Ġlar": 1129,
      "Ġshew": 1130,
      "Ġrem": 1131,
      "Ġform": 1132,
      "Ġstate": 1133,
      "Ġchapter": 1134,
      "ign": 1135,
      "Ġsense": 1136,
      "Ġyears": 1137,
      "Ġfollow": 1138,
      "selves": 1139,
      "ib": 1140,
      "Ġsl": 1141,
      "ened": 1142,
      "Ġname": 1143,
      "ister": 1144,
      "Ġanx": 1145,
      "Ġdoor": 1146,
      "mend": 1147,
      "Ġleave": 1148,
      "Ġthank": 1149,
      "Ġyourself": 1150,
      "itude": 1151,
      "Ġdegree": 1152,
      "ove": 1153,
      "sh": 1154,
      "Ġair": 1155,
      "Ġbear": 1156,
      "Ġabs": 1157,
      "Ġattach": 1158,
      "Ġpassed": 1159,
      "Ġsett": 1160,
      "Ġsens": 1161,
      "yond": 1162,
      "Ġoh": 1163,
      "itation": 1164,
      "Ġinf": 1165,
      "ution": 1166,
      "Ġsoci": 1167,
      "Ġsto": 1168,
      "Ġamong": 1169,
      "Ġprob": 1170,
      "there": 1171,
      "Ġglad": 1172,
      "Ġimagine": 1173,
      "Ġbusiness": 1174,
      "Ġdifficul": 1175,
      "ued": 1176,
      "eness": 1177,
      "Ġbeyond": 1178,
      "Ġpri": 1179,
      "Ġhon": 1180,
      "Ġhor": 1181,
      "Ġinter": 1182,
      "Ġgave": 1183,
      "utes": 1184,
      "rove": 1185,
      "iled": 1186,
      "Ġpleasant": 1187,
      "Ġtalking": 1188,
      "Ġgrat": 1189,
      "Ġbrought": 1190,
      "Ġmanners": 1191,
      "Ġdifferent": 1192,
      "Ġdraw": 1193,
      "Ġminutes": 1194,
      "app": 1195,
      "cern": 1196,
      "fully": 1197,
      "lor": 1198,
      "oin": 1199,
      "Ġsil": 1200,
      "Ġcreat": 1201,
      "Ġele": 1202,
      "alth": 1203,
      "Ġnecess": 1204,
      "Ġprev": 1205,
      "Ġproper": 1206,
      "Ġwalked": 1207,
      "Ġregard": 1208,
      "Ġexpress": 1209,
      "Ġnatural": 1210,
      "Ġexactly": 1211,
      "whe": 1212,
      "Ġwa": 1213,
      "Ġeyes": 1214,
      "asion": 1215,
      "Ġhur": 1216,
      "ating": 1217,
      "Ġweek": 1218,
      "Ġneed": 1219,
      "Ġseeing": 1220,
      "Ġsaying": 1221,
      "Ġusual": 1222,
      "Ġbecause": 1223,
      "Ġdirectly": 1224,
      "Ġcheer": 1225,
      "Ġmaking": 1226,
      "Ġfancy": 1227,
      "Ġdinner": 1228,
      "miss": 1229,
      "ination": 1230,
      "Ġmention": 1231,
      "Ġfull": 1232,
      "Ġpain": 1233,
      "uth": 1234,
      "Ġdepend": 1235,
      "Ġmist": 1236,
      "Ġlik": 1237,
      "itting": 1238,
      "ached": 1239,
      "Ġused": 1240,
      "Ġdays": 1241,
      "Ġagreeable": 1242,
      "Ġcompliment": 1243,
      "Ġsatisfied": 1244,
      "em": 1245,
      "oss": 1246,
      "pic": 1247,
      "Ġopp": 1248,
      "Ġpi": 1249,
      "Ġpur": 1250,
      "aylor": 1251,
      "Ġconv": 1252,
      "Ġune": 1253,
      "Ġappeared": 1254,
      "Ġwords": 1255,
      "Ġbring": 1256,
      "ixon": 1257,
      "Ġtemp": 1258,
      "Ġserious": 1259,
      "Ġremember": 1260,
      "Ġattachment": 1261,
      "bert": 1262,
      "ial": 1263,
      "lic": 1264,
      "Ġtaylor": 1265,
      "Ġaw": 1266,
      "Ġson": 1267,
      "Ġworth": 1268,
      "ready": 1269,
      "iting": 1270,
      "ished": 1271,
      "Ġpar": 1272,
      "iew": 1273,
      "Ġplay": 1274,
      "Ġwished": 1275,
      "Ġmeans": 1276,
      "ĠĠĠĠĠĠĠĠ": 1277,
      "anger": 1278,
      "Ġdonwell": 1279,
      "Ġsociety": 1280,
      "pa": 1281,
      "Ġtook": 1282,
      "Ġfond": 1283,
      "Ġdixon": 1284,
      "ised": 1285,
      "Ġes": 1286,
      "Ġeas": 1287,
      "Ġhum": 1288,
      "Ġlau": 1289,
      "Ġrecom": 1290,
      "Ġconvers": 1291,
      "Ġexcept": 1292,
      "Ġvoice": 1293,
      "Ġdisapp": 1294,
      "Ġcol": 1295,
      "Ġpleased": 1296,
      "Ġrecommend": 1297,
      "joy": 1298,
      "ured": 1299,
      "ye": 1300,
      "Ġwent": 1301,
      "Ġmon": 1302,
      "rehe": 1303,
      "Ġfart": 1304,
      "Ġhel": 1305,
      "Ġhead": 1306,
      "ens": 1307,
      "isten": 1308,
      "Ġeach": 1309,
      "Ġreal": 1310,
      "Ġnear": 1311,
      "Ġstand": 1312,
      "Ġview": 1313,
      "Ġenjoy": 1314,
      "Ġagainst": 1315,
      "Ġlikely": 1316,
      "Ġcharact": 1317,
      "Ġbelieved": 1318,
      "Ġgiving": 1319,
      "Ġdeterm": 1320,
      "Ġcomplete": 1321,
      "Ġcharacter": 1322,
      ".'": 1323,
      "par": 1324,
      "will": 1325,
      "ins": 1326,
      "Ġsister": 1327,
      "ndon": 1328,
      "Ġdanc": 1329,
      "Ġgra": 1330,
      "Ġlad": 1331,
      "Ġmus": 1332,
      "Ġlondon": 1333,
      "like": 1334,
      "Ġalready": 1335,
      "Ġwalking": 1336,
      "Ġentire": 1337,
      "Ġserv": 1338,
      "Ġparticularly": 1339,
      "Ġcreature": 1340,
      "Ġladies": 1341,
      "ling": 1342,
      "Ġmere": 1343,
      "Ġdoing": 1344,
      "Ġquick": 1345,
      "Ġcond": 1346,
      "used": 1347,
      "Ġsmile": 1348,
      "Ġmarried": 1349,
      "Ġcalled": 1350,
      "Ġcharm": 1351,
      "Ġkeep": 1352,
      "Ġquestion": 1353,
      "Ġeleg": 1354,
      "Ġfarther": 1355,
      "Ġhelp": 1356,
      "cri": 1357,
      "Ġtry": 1358,
      "ons": 1359,
      "Ġnight": 1360,
      "Ġhus": 1361,
      "Ġla": 1362,
      "ently": 1363,
      "Ġmeant": 1364,
      "Ġdecl": 1365,
      "Ġquar": 1366,
      "Ġspeaking": 1367,
      "Ġdeser": 1368,
      "Ġevil": 1369,
      "Ġhoped": 1370,
      "Ġmonth": 1371,
      "_,": 1372,
      "ces": 1373,
      "iet": 1374,
      "Ġtri": 1375,
      "Ġswe": 1376,
      "Ġmet": 1377,
      "Ġfre": 1378,
      "Ġpat": 1379,
      "Ġlisten": 1380,
      "imes": 1381,
      "Ġconce": 1382,
      "Ġconcern": 1383,
      "Ġdisc": 1384,
      "Ġencour": 1385,
      "acy": 1386,
      "Ġattent": 1387,
      "Ġimposs": 1388,
      "Ġmatter": 1389,
      "Ġspoke": 1390,
      "Ġconversation": 1391,
      "ah": 1392,
      "Ġfine": 1393,
      "Ġdanger": 1394,
      "Ġbeha": 1395,
      "Ġear": 1396,
      "Ġearly": 1397,
      "Ġsho": 1398,
      "Ġround": 1399,
      "Ġunc": 1400,
      "Ġarri": 1401,
      "ager": 1402,
      "Ġtruth": 1403,
      "Ġparticular": 1404,
      "bour": 1405,
      "ead": 1406,
      "fic": 1407,
      "Ġcr": 1408,
      "Ġfive": 1409,
      "Ġbel": 1410,
      "Ġpay": 1411,
      "Ġeager": 1412,
      "Ġincl": 1413,
      "cell": 1414,
      "Ġweather": 1415,
      "room": 1416,
      "Ġcommon": 1417,
      "Ġsafe": 1418,
      "Ġexpl": 1419,
      "Ġthemselves": 1420,
      "iling": 1421,
      "Ġplan": 1422,
      "Ġafterwards": 1423,
      "Ġkindness": 1424,
      "ledge": 1425,
      "Ġhandsome": 1426,
      "ollect": 1427,
      "Ġengagement": 1428,
      "Ġoccasion": 1429,
      "Ġallowed": 1430,
      "Ġadvant": 1431,
      "Ġexpected": 1432,
      "Ġsuspect": 1433,
      "Ġbeginning": 1434,
      "Ġdecided": 1435,
      "Ġgentleman": 1436,
      "Ġconvin": 1437,
      "Ġmusic": 1438,
      "band": 1439,
      "ience": 1440,
      "Ġsit": 1441,
      "Ġsitting": 1442,
      "Ġwat": 1443,
      "ities": 1444,
      "Ġrema": 1445,
      "Ġneigh": 1446,
      "Ġra": 1447,
      "itted": 1448,
      "onel": 1449,
      "olute": 1450,
      "Ġletters": 1451,
      "Ġreturned": 1452,
      "Ġdelightful": 1453,
      "Ġmeeting": 1454,
      "Ġfortune": 1455,
      "Ġsettled": 1456,
      "Ġhonour": 1457,
      "Ġneighbour": 1458,
      ",--": 1459,
      "iable": 1460,
      "know": 1461,
      "lu": 1462,
      "uri": 1463,
      "Ġfo": 1464,
      "Ġhealth": 1465,
      "Ġpra": 1466,
      "ange": 1467,
      "sequ": 1468,
      "Ġrequ": 1469,
      "Ġforward": 1470,
      "ained": 1471,
      "Ġexcell": 1472,
      "Ġens": 1473,
      "Ġwhose": 1474,
      "ified": 1475,
      "Ġaccept": 1476,
      "usion": 1477,
      "Ġthoughts": 1478,
      "Ġsometimes": 1479,
      "ference": 1480,
      "Ġwrong": 1481,
      "Ġrecollect": 1482,
      "Ġasked": 1483,
      "Ġcontinued": 1484,
      "Ġpersuad": 1485,
      "Ġhusband": 1486,
      "Ġimpossible": 1487,
      "land": 1488,
      "mer": 1489,
      "ingly": 1490,
      "ense": 1491,
      "Ġef": 1492,
      "Ġinqu": 1493,
      "Ġwhy": 1494,
      "Ġcomm": 1495,
      "Ġacknow": 1496,
      "aste": 1497,
      "iece": 1498,
      "Ġregret": 1499,
      "Ġnature": 1500,
      "Ġclaim": 1501,
      "Ġsatisfa": 1502,
      "Ġadded": 1503,
      "Ġsuspic": 1504,
      "Ġsurprize": 1505,
      "Ġguess": 1506,
      "Ġanxious": 1507,
      "Ġcolonel": 1508,
      "Ġentirely": 1509,
      "Ġconvinced": 1510,
      "ched": 1511,
      "gment": 1512,
      "ler": 1513,
      "Ġsim": 1514,
      "Ġgot": 1515,
      "Ġreceived": 1516,
      "Ġforget": 1517,
      "Ġneither": 1518,
      "Ġquiet": 1519,
      "ively": 1520,
      "Ġaccom": 1521,
      "Ġattend": 1522,
      "this": 1523,
      "combe": 1524,
      "Ġsuffer": 1525,
      "Ġnews": 1526,
      "Ġdread": 1527,
      "Ġnecessary": 1528,
      "Ġtemper": 1529,
      "Ġdetermined": 1530,
      "Ġenscombe": 1531,
      "come": 1532,
      "Ġtaste": 1533,
      "Ġball": 1534,
      "enty": 1535,
      "Ġforg": 1536,
      "uring": 1537,
      "Ġamiable": 1538,
      "Ġlive": 1539,
      "Ġintim": 1540,
      "Ġintell": 1541,
      "Ġplease": 1542,
      "Ġsupposed": 1543,
      "Ġengaged": 1544,
      "Ġsecond": 1545,
      "Ġlarge": 1546,
      "Ġabsolute": 1547,
      "Ġcheerful": 1548,
      ",'": 1549,
      "mor": 1550,
      "Ġwind": 1551,
      "Ġcoun": 1552,
      "Ġciv": 1553,
      "Ġeye": 1554,
      "Ġins": 1555,
      ".--\"": 1556,
      "iful": 1557,
      "osition": 1558,
      "Ġmarriage": 1559,
      "Ġarr": 1560,
      "Ġcomfortable": 1561,
      "form": 1562,
      "Ġobliging": 1563,
      "Ġincre": 1564,
      "Ġcompany": 1565,
      "Ġcircumstance": 1566,
      "Ġslight": 1567,
      "Ġprobably": 1568,
      "Ġsweet": 1569,
      "uct": 1570,
      "Ġten": 1571,
      "Ġmer": 1572,
      "oud": 1573,
      "Ġbre": 1574,
      "Ġcase": 1575,
      "ark": 1576,
      "ross": 1577,
      "Ġsend": 1578,
      "Ġconsequ": 1579,
      "Ġconscious": 1580,
      "Ġwanting": 1581,
      "Ġgrand": 1582,
      "ressed": 1583,
      "Ġoccur": 1584,
      "Ġacquainted": 1585,
      "Ġpapa": 1586,
      "Ġhurry": 1587,
      "Ġdancing": 1588,
      "Ġexcellent": 1589,
      "cul": 1590,
      "do": 1591,
      "gr": 1592,
      "iles": 1593,
      "kins": 1594,
      "rodu": 1595,
      "sit": 1596,
      "xion": 1597,
      "inary": 1598,
      "ouble": 1599,
      "Ġfin": 1600,
      "mand": 1601,
      "Ġconst": 1602,
      "Ġfault": 1603,
      "outh": 1604,
      "Ġago": 1605,
      "Ġatte": 1606,
      "osity": 1607,
      "Ġplain": 1608,
      "Ġimport": 1609,
      "Ġmeaning": 1610,
      "Ġhearing": 1611,
      "Ġblus": 1612,
      "Ġmatch": 1613,
      "Ġsurprized": 1614,
      "Ġabsolutely": 1615,
      ",)": 1616,
      ":--": 1617,
      "mb": 1618,
      "oint": 1619,
      "Ġ.": 1620,
      "Ġmen": 1621,
      "har": 1622,
      "err": 1623,
      "Ġcuri": 1624,
      "Ġhen": 1625,
      "orough": 1626,
      "Ġgrove": 1627,
      "Ġlu": 1628,
      "Ġthorough": 1629,
      "Ġwithin": 1630,
      "terday": 1631,
      "Ġself": 1632,
      "Ġface": 1633,
      "Ġintrodu": 1634,
      "Ġabbe": 1635,
      "Ġpros": 1636,
      "Ġproceed": 1637,
      "Ġsays": 1638,
      "Ġsmiling": 1639,
      "Ġoffer": 1640,
      "Ġpossib": 1641,
      "Ġassist": 1642,
      "Ġsche": 1643,
      "Ġinteresting": 1644,
      "Ġadmir": 1645,
      "Ġresolution": 1646,
      "Ġyesterday": 1647,
      "Ġcircumstances": 1648,
      "where": 1649,
      "Ġlaugh": 1650,
      "Ġpraise": 1651,
      "Ġpersuaded": 1652,
      "Ġabbey": 1653,
      "val": 1654,
      "ze": 1655,
      "Ġsy": 1656,
      "Ġsing": 1657,
      "Ġmod": 1658,
      "Ġodd": 1659,
      "Ġbri": 1660,
      "Ġfix": 1661,
      "eng": 1662,
      "Ġest": 1663,
      "Ġconne": 1664,
      "Ġexcl": 1665,
      "antly": 1666,
      "Ġknows": 1667,
      "Ġdisag": 1668,
      "Ġwork": 1669,
      "unic": 1670,
      "Ġplac": 1671,
      "they": 1672,
      "Ġprodu": 1673,
      "ages": 1674,
      "Ġindif": 1675,
      "Ġdelighted": 1676,
      "Ġrefle": 1677,
      "Ġdifference": 1678,
      "Ġappearance": 1679,
      "Ġspoken": 1680,
      "Ġmaple": 1681,
      "Ġdifficulty": 1682,
      "Ġdrawing": 1683,
      "emma": 1684,
      "Ġcharming": 1685,
      "Ġmonths": 1686,
      "Ġcommunic": 1687,
      "Ġdisagree": 1688,
      "bation": 1689,
      "cy": 1690,
      "ex": 1691,
      "ub": 1692,
      "Ġtend": 1693,
      "Ġmad": 1694,
      "Ġir": 1695,
      "Ġrel": 1696,
      "Ġsum": 1697,
      "Ġempl": 1698,
      "aint": 1699,
      "Ġstru": 1700,
      "Ġval": 1701,
      "Ġgreater": 1702,
      "Ġgreatest": 1703,
      "Ġworse": 1704,
      "Ġlooks": 1705,
      "Ġgrow": 1706,
      "Ġrich": 1707,
      "Ġturned": 1708,
      "Ġcompanion": 1709,
      "dden": 1710,
      "Ġbeauty": 1711,
      "Ġfollowed": 1712,
      "Ġgratitude": 1713,
      "Ġattentions": 1714,
      "Ġintellig": 1715,
      "morrow": 1716,
      "Ġemploy": 1717,
      "cise": 1718,
      "gg": 1719,
      "iety": 1720,
      "und": 1721,
      "Ġx": 1722,
      "Ġsad": 1723,
      "Ġsight": 1724,
      "hamed": 1725,
      "Ġtoler": 1726,
      "Ġfore": 1727,
      "Ġhab": 1728,
      "ston": 1729,
      "Ġsty": 1730,
      "Ġtimes": 1731,
      "Ġdelic": 1732,
      "Ġextra": 1733,
      "Ġoccup": 1734,
      "Ġunderstanding": 1735,
      "Ġevent": 1736,
      "Ġinstru": 1737,
      "Ġjudgment": 1738,
      "Ġclever": 1739,
      "Ġprevent": 1740,
      "Ġeasy": 1741,
      "Ġconduct": 1742,
      "Ġadvantage": 1743,
      "Ġsatisfaction": 1744,
      "Ġbreak": 1745,
      "Ġcuriosity": 1746,
      "ili": 1747,
      "Ġav": 1748,
      "Ġmort": 1749,
      "res": 1750,
      "Ġbless": 1751,
      "Ġcount": 1752,
      "Ġfour": 1753,
      "Ġnone": 1754,
      "ork": 1755,
      "ath": 1756,
      "Ġlate": 1757,
      "Ġnotice": 1758,
      "Ġashamed": 1759,
      "Ġsudden": 1760,
      "Ġang": 1761,
      "ular": 1762,
      "Ġloved": 1763,
      "Ġalone": 1764,
      "ures": 1765,
      "Ġhappened": 1766,
      "Ġground": 1767,
      "Ġrobert": 1768,
      "Ġtrouble": 1769,
      "Ġdistin": 1770,
      "Ġdistress": 1771,
      "Ġtea": 1772,
      "Ġspirit": 1773,
      "Ġyear": 1774,
      "Ġresolved": 1775,
      "Ġinflu": 1776,
      "rehend": 1777,
      "Ġmerely": 1778,
      "Ġearn": 1779,
      "Ġbelong": 1780,
      "Ġeffect": 1781,
      "Ġstyle": 1782,
      "Ġinstrument": 1783,
      "_.": 1784,
      "ding": 1785,
      "hip": 1786,
      "oved": 1787,
      "ses": 1788,
      "Ġtried": 1789,
      "inci": 1790,
      "Ġboy": 1791,
      "ery": 1792,
      "Ġfall": 1793,
      "itable": 1794,
      "Ġpity": 1795,
      "Ġhint": 1796,
      "Ġinfer": 1797,
      "cho": 1798,
      "ries": 1799,
      "peci": 1800,
      "Ġdeep": 1801,
      "Ġjoy": 1802,
      "Ġknowledge": 1803,
      "Ġvain": 1804,
      "Ġproof": 1805,
      "Ġprinci": 1806,
      "Ġdelay": 1807,
      "Ġhands": 1808,
      "Ġtran": 1809,
      "Ġblind": 1810,
      "Ġfriendship": 1811,
      "Ġtaking": 1812,
      "Ġinstead": 1813,
      "mrs": 1814,
      "Ġcampbells": 1815,
      "Ġactually": 1816,
      "Ġexcuse": 1817,
      "Ġmentioned": 1818,
      "Ġpurp": 1819,
      "Ġcompletely": 1820,
      "Ġconceal": 1821,
      "ficient": 1822,
      "Ġcrown": 1823,
      "Ġconsequence": 1824,
      "Ġattempt": 1825,
      "\"--": 1826,
      "ii": 1827,
      "over": 1828,
      "under": 1829,
      "Ġsigh": 1830,
      "Ġmine": 1831,
      "happ": 1832,
      "Ġcor": 1833,
      "Ġden": 1834,
      "Ġdut": 1835,
      "Ġled": 1836,
      "idence": 1837,
      "Ġund": 1838,
      "Ġsake": 1839,
      "Ġjoin": 1840,
      "Ġste": 1841,
      "aken": 1842,
      "allant": 1843,
      "Ġalarm": 1844,
      "Ġlived": 1845,
      "Ġknowing": 1846,
      "Ġunp": 1847,
      "Ġprof": 1848,
      "Ġprov": 1849,
      "Ġwhenever": 1850,
      "Ġcoll": 1851,
      "ected": 1852,
      "Ġattached": 1853,
      "rupt": 1854,
      "such": 1855,
      "Ġdistance": 1856,
      "Ġscru": 1857,
      "Ġhours": 1858,
      "Ġconfess": 1859,
      "Ġmarrying": 1860,
      "Ġobserv": 1861,
      "viour": 1862,
      "Ġjudge": 1863,
      "Ġfortunate": 1864,
      "ordinary": 1865,
      "Ġsensible": 1866,
      "Ġsilent": 1867,
      "Ġaware": 1868,
      "Ġesc": 1869,
      "Ġdisappoint": 1870,
      "Ġenjoyment": 1871,
      "Ġbehaviour": 1872,
      "Ġextraordinary": 1873,
      "pecially": 1874,
      "Ġpurpose": 1875,
      "ap": 1876,
      "night": 1877,
      "with": 1878,
      "wise": 1879,
      "ying": 1880,
      "your": 1881,
      "Ġtable": 1882,
      "Ġcou": 1883,
      "Ġtone": 1884,
      "edu": 1885,
      "Ġbeh": 1886,
      "ising": 1887,
      "Ġpen": 1888,
      "ash": 1889,
      "Ġgallant": 1890,
      "Ġwel": 1891,
      "Ġdeare": 1892,
      "Ġcomes": 1893,
      "Ġloss": 1894,
      "Ġamuse": 1895,
      "Ġfact": 1896,
      "Ġalso": 1897,
      "Ġrun": 1898,
      "itten": 1899,
      "Ġchuse": 1900,
      "Ġspite": 1901,
      "Ġjustice": 1902,
      "Ġhighly": 1903,
      "Ġentered": 1904,
      "ames": 1905,
      "Ġindu": 1906,
      "Ġindul": 1907,
      "Ġscar": 1908,
      "Ġwrite": 1909,
      "Ġgenerally": 1910,
      "Ġdisposition": 1911,
      "Ġseems": 1912,
      "Ġdifficult": 1913,
      "Ġpict": 1914,
      "Ġservice": 1915,
      "Ġelegant": 1916,
      "Ġadmiration": 1917,
      "Ġstruck": 1918,
      "Ġcountry": 1919,
      "Ġinfluence": 1920,
      "hood": 1921,
      "og": 1922,
      "oor": 1923,
      "ray": 1924,
      "Ġerr": 1925,
      "Ġsix": 1926,
      "Ġmid": 1927,
      "reed": 1928,
      "Ġtown": 1929,
      "Ġdue": 1930,
      "ased": 1931,
      "Ġnote": 1932,
      "Ġrepe": 1933,
      "pped": 1934,
      "arted": 1935,
      "Ġalto": 1936,
      "Ġpresu": 1937,
      "osing": 1938,
      "Ġspee": 1939,
      "Ġspend": 1940,
      "wered": 1941,
      "fortun": 1942,
      "Ġdesir": 1943,
      "Ġdescri": 1944,
      "Ġunderstood": 1945,
      "Ġconsideration": 1946,
      "Ġende": 1947,
      "Ġsecret": 1948,
      "Ġbecame": 1949,
      "Ġobserve": 1950,
      "Ġfavourite": 1951,
      "Ġgentlemen": 1952,
      "Ġbox": 1953,
      "Ġhorses": 1954,
      "Ġlikeness": 1955,
      "Ġquarter": 1956,
      "Ġacknowled": 1957,
      "Ġluck": 1958,
      "Ġscheme": 1959,
      "Ġsummer": 1960,
      "Ġearnest": 1961,
      "Ġcouple": 1962,
      "Ġscarce": 1963,
      "Ġaltogether": 1964,
      "iam": 1965,
      "just": 1966,
      "ofort": 1967,
      "Ġage": 1968,
      "Ġsnow": 1969,
      "Ġwret": 1970,
      "Ġmot": 1971,
      "Ġbor": 1972,
      "Ġcal": 1973,
      "Ġfire": 1974,
      "Ġdri": 1975,
      "Ġhill": 1976,
      "anofort": 1977,
      "Ġinform": 1978,
      "atter": 1979,
      "vere": 1980,
      "ident": 1981,
      "Ġconcl": 1982,
      "Ġcommand": 1983,
      "Ġlead": 1984,
      "Ġrain": 1985,
      "Ġvar": 1986,
      "Ġvent": 1987,
      "Ġeltons": 1988,
      "Ġcaught": 1989,
      "ific": 1990,
      "Ġpleasing": 1991,
      "rent": 1992,
      "Ġcontr": 1993,
      "Ġpresently": 1994,
      "Ġwritten": 1995,
      "Ġtelling": 1996,
      "Ġanswered": 1997,
      "Ġkept": 1998,
      "Ġuseful": 1999,
      "Ġbeautiful": 2000,
      "Ġwait": 2001,
      "Ġmistaken": 2002,
      "Ġpianofort": 2003,
      "Ġstanding": 2004,
      "Ġtrying": 2005,
      "Ġuncle": 2006,
      "Ġclaims": 2007,
      "Ġforgot": 2008,
      "Ġcivil": 2009,
      "Ġblush": 2010,
      "Ġhenry": 2011,
      "Ġavo": 2012,
      "Ġinferior": 2013,
      "Ġpicture": 2014,
      "Ġendea": 2015,
      "Ġpianoforte": 2016,
      "bed": 2017,
      "cceed": 2018,
      "phe": 2019,
      "ring": 2020,
      "sand": 2021,
      "tic": 2022,
      "Ġut": 2023,
      "Ġedu": 2024,
      "Ġtre": 2025,
      "Ġtou": 2026,
      "ines": 2027,
      "Ġwed": 2028,
      "Ġmove": 2029,
      "oured": 2030,
      "ers": 2031,
      "Ġcut": 2032,
      "Ġcred": 2033,
      "ene": 2034,
      "Ġniece": 2035,
      "Ġdance": 2036,
      "Ġpast": 2037,
      "Ġhig": 2038,
      "atch": 2039,
      "Ġgri": 2040,
      "Ġlately": 2041,
      "ceive": 2042,
      "Ġsuck": 2043,
      "Ġsucceed": 2044,
      "Ġsolic": 2045,
      "Ġsepar": 2046,
      "icity": 2047,
      "fered": 2048,
      "Ġfell": 2049,
      "Ġlost": 2050,
      "ortun": 2051,
      "Ġru": 2052,
      "Ġration": 2053,
      "Ġthinks": 2054,
      "Ġthousand": 2055,
      "Ġvic": 2056,
      "ended": 2057,
      "Ġunhapp": 2058,
      "Ġspent": 2059,
      "abl": 2060,
      "Ġreser": 2061,
      "Ġentreat": 2062,
      "Ġcharade": 2063,
      "Ġaddress": 2064,
      "Ġinvitation": 2065,
      "angu": 2066,
      "Ġobserved": 2067,
      "who": 2068,
      "Ġhopes": 2069,
      "Ġpromise": 2070,
      "Ġapprobation": 2071,
      "ointed": 2072,
      "Ġweeks": 2073,
      "Ġopportun": 2074,
      "Ġuneas": 2075,
      "Ġdeserve": 2076,
      "Ġencouragement": 2077,
      "Ġinclination": 2078,
      "Ġintimacy": 2079,
      "Ġwindow": 2080,
      "Ġarrange": 2081,
      "Ġconsciousness": 2082,
      "Ġprospect": 2083,
      "Ġexclaim": 2084,
      "Ġdisagreeable": 2085,
      "Ġtender": 2086,
      "Ġduty": 2087,
      "Ġscruple": 2088,
      "Ġbehind": 2089,
      "Ġscarcely": 2090,
      "Ġinformation": 2091,
      "Ġeduc": 2092,
      "Ġgrie": 2093,
      "king": 2094,
      "never": 2095,
      "ock": 2096,
      "poor": 2097,
      "rance": 2098,
      "ump": 2099,
      "Ġaston": 2100,
      "Ġwit": 2101,
      "Ġce": 2102,
      "Ġdest": 2103,
      "atul": 2104,
      "ative": 2105,
      "Ġhers": 2106,
      "Ġlow": 2107,
      ".\"--": 2108,
      "Ġcongr": 2109,
      "Ġjo": 2110,
      "Ġneg": 2111,
      "Ġexert": 2112,
      "Ġwilliam": 2113,
      "ateful": 2114,
      "Ġagreed": 2115,
      "Ġprefer": 2116,
      "Ġparties": 2117,
      "Ġcomprehend": 2118,
      "Ġotherwise": 2119,
      "Ġhold": 2120,
      "Ġwishes": 2121,
      "Ġindepend": 2122,
      "then": 2123,
      "Ġbath": 2124,
      "Ġrepro": 2125,
      "ĠĠĠĠĠ": 2126,
      "Ġpecul": 2127,
      "Ġtrust": 2128,
      "Ġclose": 2129,
      "Ġchance": 2130,
      "Ġimagined": 2131,
      "Ġfortnight": 2132,
      "ishment": 2133,
      "Ġrespectable": 2134,
      "Ġdirect": 2135,
      "Ġdisposed": 2136,
      "Ġsufficient": 2137,
      "Ġreasonable": 2138,
      "Ġsmallest": 2139,
      "Ġremark": 2140,
      "Ġpriv": 2141,
      "Ġsilence": 2142,
      "Ġespecially": 2143,
      "Ġservant": 2144,
      "onsense": 2145,
      "Ġquarre": 2146,
      "Ġsuspicion": 2147,
      "Ġsimple": 2148,
      "Ġfixed": 2149,
      "Ġconnexion": 2150,
      "Ġdisappointment": 2151,
      "Ġvicar": 2152,
      "Ġcongratul": 2153,
      "Ġpeculi": 2154,
      "'t": 2155,
      "af": 2156,
      "cing": 2157,
      "ches": 2158,
      "fice": 2159,
      "gust": 2160,
      "ier": 2161,
      "ich": 2162,
      "iod": 2163,
      "lo": 2164,
      "ns": 2165,
      "sid": 2166,
      "wkins": 2167,
      "ym": 2168,
      "ering": 2169,
      "Ġcross": 2170,
      "Ġhawkins": 2171,
      "Ġner": 2172,
      "Ġnum": 2173,
      "Ġease": 2174,
      "anity": 2175,
      "Ġgard": 2176,
      "rote": 2177,
      "Ġconvi": 2178,
      "Ġnephe": 2179,
      "Ġfear": 2180,
      "Ġlose": 2181,
      "Ġperiod": 2182,
      "Ġord": 2183,
      "Ġprep": 2184,
      "Ġpress": 2185,
      "Ġprepar": 2186,
      "Ġunre": 2187,
      "ĠĠĠ": 2188,
      "uses": 2189,
      "Ġworst": 2190,
      "rud": 2191,
      "tenance": 2192,
      "assion": 2193,
      "Ġroad": 2194,
      "Ġwomen": 2195,
      "Ġentertain": 2196,
      "Ġpassing": 2197,
      "Ġconsidered": 2198,
      "ccess": 2199,
      "Ġconsidering": 2200,
      "Ġcalling": 2201,
      "Ġpaid": 2202,
      "Ġthrown": 2203,
      "Ġbusy": 2204,
      "which": 2205,
      "Ġsentiment": 2206,
      "Ġformer": 2207,
      "Ġanxiety": 2208,
      "Ġdisappointed": 2209,
      "rehens": 2210,
      "Ġshock": 2211,
      "Ġsafely": 2212,
      "Ġimportant": 2213,
      "Ġthoroughly": 2214,
      "Ġsingle": 2215,
      "Ġangry": 2216,
      "Ġdearest": 2217,
      "Ġrepeated": 2218,
      "Ġspeech": 2219,
      "Ġwretched": 2220,
      "Ġforgotten": 2221,
      "Ġcredit": 2222,
      "Ġrational": 2223,
      "Ġunhappy": 2224,
      "Ġnephew": 2225,
      ")--": 2226,
      "kward": 2227,
      "part": 2228,
      "tw": 2229,
      "was": 2230,
      "Ġtired": 2231,
      "inter": 2232,
      "inde": 2233,
      "inite": 2234,
      "Ġwrote": 2235,
      "Ġmix": 2236,
      "reet": 2237,
      "Ġcatch": 2238,
      "Ġtot": 2239,
      "Ġfarm": 2240,
      "Ġhesit": 2241,
      "ency": 2242,
      "Ġda": 2243,
      "Ġeat": 2244,
      "aster": 2245,
      "arily": 2246,
      "Ġlight": 2247,
      "Ġlines": 2248,
      "right": 2249,
      "Ġann": 2250,
      "alent": 2251,
      "Ġsevere": 2252,
      "Ġjames": 2253,
      "Ġstri": 2254,
      "Ġstren": 2255,
      "Ġexer": 2256,
      "Ġliving": 2257,
      "Ġprot": 2258,
      "Ġcox": 2259,
      "Ġhappily": 2260,
      "Ġconsent": 2261,
      "Ġpray": 2262,
      "tered": 2263,
      "Ġcontri": 2264,
      "ford": 2265,
      "Ġregular": 2266,
      "Ġcharge": 2267,
      "Ġturning": 2268,
      "Ġequally": 2269,
      "why": 2270,
      "Ġmakes": 2271,
      "Ġclear": 2272,
      "Ġpride": 2273,
      "Ġawkward": 2274,
      "ĠĠĠĠĠĠĠĠĠĠĠĠĠĠĠĠ": 2275,
      "Ġarrived": 2276,
      "Ġwatch": 2277,
      "Ġoccurred": 2278,
      "harriet": 2279,
      "Ġreflection": 2280,
      "Ġprofess": 2281,
      "Ġdesirable": 2282,
      "Ġavoid": 2283,
      "Ġendeavour": 2284,
      "Ġopportunity": 2285,
      "Ġarrangement": 2286,
      "sides": 2287,
      "dle": 2288,
      "did": 2289,
      "hum": 2290,
      "tory": 2291,
      "Ġtalent": 2292,
      "here": 2293,
      "Ġmiles": 2294,
      "Ġfast": 2295,
      "Ġdr": 2296,
      "Ġduring": 2297,
      "Ġbecom": 2298,
      "Ġbesides": 2299,
      "vey": 2300,
      "Ġrelie": 2301,
      "Ġrecei": 2302,
      "Ġsun": 2303,
      "Ġweym": 2304,
      "Ġhistory": 2305,
      "Ġexcess": 2306,
      "Ġexceed": 2307,
      "Ġamused": 2308,
      "Ġwhatever": 2309,
      "Ġdislike": 2310,
      "Ġcoles": 2311,
      "Ġcompar": 2312,
      "Ġcompassion": 2313,
      "Ġfriendly": 2314,
      "olog": 2315,
      "Ġwishing": 2316,
      "Ġsmiled": 2317,
      "Ġimpat": 2318,
      "Ġimprove": 2319,
      "Ġarm": 2320,
      "Ġgives": 2321,
      "ferent": 2322,
      "Ġourselves": 2323,
      "Ġcarry": 2324,
      "ception": 2325,
      "Ġconsiderable": 2326,
      "Ġconfidence": 2327,
      "Ġfinding": 2328,
      "mony": 2329,
      "Ġcircle": 2330,
      "Ġincon": 2331,
      "Ġwarmly": 2332,
      "Ġpromised": 2333,
      "Ġshewed": 2334,
      "Ġinfinite": 2335,
      "Ġstopped": 2336,
      "Ġworthy": 2337,
      "Ġviews": 2338,
      "Ġfresh": 2339,
      "Ġexplan": 2340,
      "Ġremain": 2341,
      "Ġfoot": 2342,
      "Ġdreadful": 2343,
      "Ġcountenance": 2344,
      "Ġpossibly": 2345,
      "Ġgrowing": 2346,
      "Ġdifficulties": 2347,
      "Ġwedding": 2348,
      "Ġjoined": 2349,
      "Ġvicarage": 2350,
      "indeed": 2351,
      "Ġstreng": 2352,
      "Ġexercise": 2353,
      "Ġweymouth": 2354,
      "aw": 2355,
      "aid": 2356,
      "dge": 2357,
      "fr": 2358,
      "ghed": 2359,
      "his": 2360,
      "man": 2361,
      "nor": 2362,
      "vous": 2363,
      "zed": 2364,
      "Ġve": 2365,
      "Ġtra": 2366,
      "Ġsk": 2367,
      "Ġsound": 2368,
      "Ġsick": 2369,
      "have": 2370,
      "Ġbene": 2371,
      "ont": 2372,
      "only": 2373,
      "Ġfut": 2374,
      "Ġfully": 2375,
      "Ġnice": 2376,
      "Ġnonsense": 2377,
      "ision": 2378,
      "ishing": 2379,
      "Ġhund": 2380,
      "vel": 2381,
      "Ġline": 2382,
      "Ġreached": 2383,
      "Ġassu": 2384,
      "Ġdev": 2385,
      "Ġconn": 2386,
      "Ġconvey": 2387,
      "Ġharm": 2388,
      "Ġanywhere": 2389,
      "oking": 2390,
      "Ġagitation": 2391,
      "Ġintended": 2392,
      "Ġproved": 2393,
      "Ġcause": 2394,
      "venience": 2395,
      "Ġfright": 2396,
      "Ġshare": 2397,
      "Ġhappen": 2398,
      "ability": 2399,
      "Ġimpro": 2400,
      "Ġapolog": 2401,
      "Ġways": 2402,
      "Ġreply": 2403,
      "!\"--": 2404,
      "tedly": 2405,
      "aging": 2406,
      "Ġideas": 2407,
      "Ġmater": 2408,
      "Ġpaper": 2409,
      "Ġgetting": 2410,
      "Ġrefuse": 2411,
      "Ġopened": 2412,
      "Ġminute": 2413,
      "upon": 2414,
      "Ġdream": 2415,
      "overed": 2416,
      "Ġwaiting": 2417,
      "Ġliked": 2418,
      "Ġunex": 2419,
      "Ġseriously": 2420,
      "Ġlaughed": 2421,
      "Ġfrequ": 2422,
      "Ġremained": 2423,
      "Ġneighbours": 2424,
      "Ġfool": 2425,
      "Ġinquir": 2426,
      "Ġaccompl": 2427,
      "Ġsuffering": 2428,
      "Ġindifferent": 2429,
      "Ġdelicacy": 2430,
      "Ġoccupied": 2431,
      "Ġundoub": 2432,
      "Ġwelcome": 2433,
      "Ġamusement": 2434,
      "Ġeducation": 2435,
      "Ġnumber": 2436,
      "Ġconviction": 2437,
      "twenty": 2438,
      "Ġannoun": 2439,
      "Ġfuture": 2440,
      "Ġhundred": 2441,
      "ape": 2442,
      "che": 2443,
      "certain": 2444,
      "ues": 2445,
      "vy": 2446,
      "Ġtreat": 2447,
      "Ġsink": 2448,
      "read": 2449,
      "erable": 2450,
      "Ġcure": 2451,
      "Ġhea": 2452,
      "Ġhair": 2453,
      "Ġdine": 2454,
      "itated": 2455,
      "ison": 2456,
      "Ġinj": 2457,
      "arr": 2458,
      "Ġitself": 2459,
      "Ġford": 2460,
      "Ġsuccess": 2461,
      "Ġking": 2462,
      "Ġmeas": 2463,
      "Ġstood": 2464,
      "Ġvanity": 2465,
      "Ġchos": 2466,
      "Ġafford": 2467,
      "fair": 2468,
      "ief": 2469,
      "Ġshame": 2470,
      "Ġsomebody": 2471,
      "Ġresent": 2472,
      "Ġchurchills": 2473,
      "arer": 2474,
      "Ġgrateful": 2475,
      "Ġapples": 2476,
      "uded": 2477,
      "ney": 2478,
      "Ġreturning": 2479,
      "Ġrooms": 2480,
      "Ġconfusion": 2481,
      "Ġfamili": 2482,
      "Ġinterested": 2483,
      "Ġadmire": 2484,
      "Ġadmired": 2485,
      "Ġcourt": 2486,
      "Ġinvited": 2487,
      "Ġopening": 2488,
      "Ġreading": 2489,
      "Ġdrawn": 2490,
      "Ġobjection": 2491,
      "Ġbook": 2492,
      "Ġabsence": 2493,
      "Ġgratified": 2494,
      "Ġmistake": 2495,
      "Ġcompliments": 2496,
      "Ġhumour": 2497,
      "Ġelegance": 2498,
      "Ġdeclare": 2499,
      "Ġtrif": 2500,
      "Ġlistened": 2501,
      "Ġconcerned": 2502,
      "Ġneighbourhood": 2503,
      "Ġlaughing": 2504,
      "Ġplaced": 2505,
      "Ġvalue": 2506,
      "Ġtolerably": 2507,
      "Ġprincip": 2508,
      "Ġtrans": 2509,
      "Ġescape": 2510,
      "Ġtouch": 2511,
      "Ġorder": 2512,
      "Ġprepared": 2513,
      "Ġtotally": 2514,
      "Ġassured": 2515,
      "Ġchosen": 2516,
      ";\"": 2517,
      "amed": 2518,
      "arent": 2519,
      "eper": 2520,
      "ize": 2521,
      "lit": 2522,
      "lour": 2523,
      "mod": 2524,
      "nat": 2525,
      "than": 2526,
      "Ġama": 2527,
      "Ġsign": 2528,
      "Ġmut": 2529,
      "Ġmaster": 2530,
      "reland": 2531,
      "Ġbed": 2532,
      "Ġbur": 2533,
      "Ġireland": 2534,
      "Ġcard": 2535,
      "Ġhast": 2536,
      "Ġdiv": 2537,
      "Ġpract": 2538,
      "Ġpub": 2539,
      "Ġeld": 2540,
      "ors": 2541,
      "oring": 2542,
      "ates": 2543,
      "--(": 2544,
      "ldom": 2545,
      "Ġgre": 2546,
      "ridge": 2547,
      "Ġsuit": 2548,
      "Ġsugg": 2549,
      "idently": 2550,
      "Ġanim": 2551,
      "Ġur": 2552,
      "Ġsoft": 2553,
      "mama": 2554,
      "illy": 2555,
      "Ġsea": 2556,
      "Ġseldom": 2557,
      "Ġsaf": 2558,
      "Ġnearly": 2559,
      "Ġstory": 2560,
      "Ġfears": 2561,
      "dear": 2562,
      "ardon": 2563,
      ",\"--": 2564,
      "ments": 2565,
      "Ġpost": 2566,
      "Ġposit": 2567,
      "Ġcaution": 2568,
      "Ġcool": 2569,
      "leasant": 2570,
      "Ġspring": 2571,
      "Ġtwenty": 2572,
      "Ġsmiles": 2573,
      "Ġart": 2574,
      "Ġapparent": 2575,
      "Ġpassage": 2576,
      "Ġvisits": 2577,
      "Ġwriting": 2578,
      "Ġinstantly": 2579,
      "Ġadvice": 2580,
      "Ġstrange": 2581,
      "Ġexpectation": 2582,
      "Ġaddition": 2583,
      "Ġimmediate": 2584,
      "Ġdispleas": 2585,
      "Ġfavourable": 2586,
      "Ġnaturally": 2587,
      "Ġpersuade": 2588,
      "Ġproposed": 2589,
      "Ġapproach": 2590,
      "course": 2591,
      "Ġflatter": 2592,
      "Ġpowers": 2593,
      "Ġstaying": 2594,
      "Ġfollowing": 2595,
      "ibility": 2596,
      "Ġhorse": 2597,
      "when": 2598,
      "Ġeasily": 2599,
      "Ġsuspected": 2600,
      "Ġmusical": 2601,
      "Ġacknowledge": 2602,
      "Ġmerit": 2603,
      "Ġassistance": 2604,
      "engaged": 2605,
      "Ġproduced": 2606,
      "Ġindifference": 2607,
      "Ġhabit": 2608,
      "chool": 2609,
      "Ġcollect": 2610,
      "Ġcalm": 2611,
      "Ġutmost": 2612,
      "Ġsuckling": 2613,
      "Ġservants": 2614,
      "Ġreceiving": 2615,
      "Ġinfinitely": 2616,
      "Ġexplanation": 2617,
      "Ġundoubtedly": 2618,
      "thank": 2619,
      "Ġburst": 2620,
      "Ġpublic": 2621,
      "Ġsuggest": 2622,
      "fast": 2623,
      "gnor": 2624,
      "him": 2625,
      "iest": 2626,
      "jud": 2627,
      "mas": 2628,
      "mond": 2629,
      "oving": 2630,
      "rist": 2631,
      "hest": 2632,
      "hearted": 2633,
      "Ġschool": 2634,
      "Ġwinter": 2635,
      "Ġmess": 2636,
      "had": 2637,
      "Ġignor": 2638,
      "Ġfit": 2639,
      "Ġfig": 2640,
      "ingu": 2641,
      "Ġnash": 2642,
      "ites": 2643,
      "isure": 2644,
      "isite": 2645,
      "Ġpiece": 2646,
      "lect": 2647,
      "Ġeli": 2648,
      "Ġhot": 2649,
      "anged": 2650,
      "Ġyouth": 2651,
      "Ġlangu": 2652,
      "aye": 2653,
      "roat": 2654,
      "pered": 2655,
      "Ġmel": 2656,
      "Ġseat": 2657,
      "Ġfeat": 2658,
      "Ġleisure": 2659,
      "Ġwilling": 2660,
      "dered": 2661,
      "Ġliber": 2662,
      "Ġenc": 2663,
      "Ġunfortun": 2664,
      "Ġabsent": 2665,
      "Ġcap": 2666,
      "Ġparting": 2667,
      "using": 2668,
      "osal": 2669,
      "ruel": 2670,
      "Ġaround": 2671,
      "Ġappears": 2672,
      "teen": 2673,
      "Ġassur": 2674,
      "Ġblunder": 2675,
      "Ġtempt": 2676,
      "Ġendure": 2677,
      "Ġparticulars": 2678,
      "Ġmartins": 2679,
      "Ġimagination": 2680,
      "Ġevidently": 2681,
      "Ġrecon": 2682,
      "Ġadmitted": 2683,
      "Ġbetray": 2684,
      "Ġinvite": 2685,
      "Ġbroad": 2686,
      "Ġwonderful": 2687,
      "Ġproposal": 2688,
      "Ġdining": 2689,
      "Ġgirls": 2690,
      "Ġlarkins": 2691,
      "Ġsensations": 2692,
      "Ġstop": 2693,
      "Ġinterrupt": 2694,
      "Ġfancying": 2695,
      "Ġparlour": 2696,
      "Ġgrave": 2697,
      "Ġarrival": 2698,
      "Ġdecidedly": 2699,
      "Ġrequired": 2700,
      "Ġsuspicions": 2701,
      "Ġgrandmama": 2702,
      "Ġproceeded": 2703,
      "Ġpossibility": 2704,
      "Ġmoder": 2705,
      "Ġbride": 2706,
      "Ġestabl": 2707,
      "Ġmadam": 2708,
      "Ġrichmond": 2709,
      "Ġintelligence": 2710,
      "Ġboys": 2711,
      "Ġunpleasant": 2712,
      "Ġobservation": 2713,
      "Ġsolicitude": 2714,
      "Ġquarrel": 2715,
      "Ġnervous": 2716,
      "Ġstrength": 2717,
      "Ġvex": 2718,
      ".,": 2719,
      "back": 2720,
      "jane": 2721,
      "ken": 2722,
      "law": 2723,
      "op": 2724,
      "pan": 2725,
      "pid": 2726,
      "ining": 2727,
      "Ġsqu": 2728,
      "Ġsize": 2729,
      "Ġsilly": 2730,
      "Ġbas": 2731,
      "Ġbar": 2732,
      "Ġbra": 2733,
      "isk": 2734,
      "Ġpu": 2735,
      "Ġpork": 2736,
      "Ġeight": 2737,
      "ancho": 2738,
      "Ġine": 2739,
      "arance": 2740,
      "arity": 2741,
      "Ġlay": 2742,
      "Ġloud": 2743,
      "Ġthus": 2744,
      "rig": 2745,
      "riages": 2746,
      "Ġrej": 2747,
      "etch": 2748,
      "ality": 2749,
      "Ġwhis": 2750,
      "Ġdep": 2751,
      "Ġseated": 2752,
      "Ġemb": 2753,
      "Ġsacri": 2754,
      "aining": 2755,
      "Ġjour": 2756,
      "Ġstra": 2757,
      "oted": 2758,
      "Ġmisery": 2759,
      "ources": 2760,
      "Ġfeared": 2761,
      "anted": 2762,
      "riety": 2763,
      "Ġrate": 2764,
      "Ġvol": 2765,
      "Ġdisgust": 2766,
      "Ġchrist": 2767,
      "Ġpreference": 2768,
      "Ġintent": 2769,
      "Ġabove": 2770,
      "ouses": 2771,
      "Ġpartner": 2772,
      "Ġspare": 2773,
      "Ġsooner": 2774,
      "Ġconsol": 2775,
      "Ġsmo": 2776,
      "Ġgrad": 2777,
      "Ġbegun": 2778,
      "Ġsupply": 2779,
      "Ġreport": 2780,
      "Ġapprehens": 2781,
      "Ġmoments": 2782,
      "Ġdesired": 2783,
      "Ġpeace": 2784,
      "Ġdistur": 2785,
      "Ġindis": 2786,
      "Ġindign": 2787,
      "Ġhouseke": 2788,
      "Ġrecovered": 2789,
      "Ġillness": 2790,
      "Ġexpecting": 2791,
      "Ġpretend": 2792,
      "Ġbecome": 2793,
      "Ġtruly": 2794,
      "Ġwarmth": 2795,
      "Ġsuffered": 2796,
      "Ġfolly": 2797,
      "Ġcomplexion": 2798,
      "Ġquestions": 2799,
      "Ġdoors": 2800,
      "Ġsettle": 2801,
      "Ġprobability": 2802,
      "Ġintercourse": 2803,
      "mission": 2804,
      "Ġmistress": 2805,
      "Ġexcepting": 2806,
      "Ġsisters": 2807,
      "Ġgrace": 2808,
      "Ġdeserved": 2809,
      "Ġpatty": 2810,
      "Ġadvantages": 2811,
      "Ġrapid": 2812,
      "Ġrequire": 2813,
      "Ġlively": 2814,
      "Ġarranged": 2815,
      "Ġincrease": 2816,
      "Ġincreased": 2817,
      "Ġfinished": 2818,
      "Ġimportance": 2819,
      "Ġreflect": 2820,
      "Ġintelligible": 2821,
      "Ġhabits": 2822,
      "Ġbreakfast": 2823,
      "Ġmortific": 2824,
      "Ġblessing": 2825,
      "Ġgallantry": 2826,
      "Ġinduce": 2827,
      "Ġinduced": 2828,
      "Ġacknowledged": 2829,
      "Ġearnestly": 2830,
      "Ġdrive": 2831,
      "Ġventure": 2832,
      "Ġseparate": 2833,
      "Ġneglect": 2834,
      "Ġprivate": 2835,
      "Ġgarden": 2836,
      "Ġunreason": 2837,
      "Ġprotest": 2838,
      "Ġbecoming": 2839,
      "Ġexcessively": 2840,
      "Ġimpatient": 2841,
      "Ġfrightened": 2842,
      "Ġmaterial": 2843,
      "Ġinquiry": 2844,
      "certainly": 2845,
      "Ġmelancho": 2846,
      "Ġsquare": 2847,
      "Ġjourney": 2848,
      "Ġmelancholy": 2849,
      "air": 2850,
      "ges": 2851,
      "gent": 2852,
      "gress": 2853,
      "ially": 2854,
      "kn": 2855,
      "mitted": 2856,
      "ned": 2857,
      "oc": 2858,
      "sw": 2859,
      "Ġterm": 2860,
      "Ġsle": 2861,
      "Ġmile": 2862,
      "Ġow": 2863,
      "Ġorig": 2864,
      "has": 2865,
      "Ġbit": 2866,
      "Ġbir": 2867,
      "Ġcand": 2868,
      "Ġcere": 2869,
      "Ġcord": 2870,
      "Ġfat": 2871,
      "ences": 2872,
      "lly": 2873,
      "llable": 2874,
      "isted": 2875,
      "Ġph": 2876,
      "Ġpause": 2877,
      "let": 2878,
      "Ġhither": 2879,
      "Ġlat": 2880,
      "Ġlane": 2881,
      "Ġthroat": 2882,
      "cel": 2883,
      "Ġreach": 2884,
      "Ġformed": 2885,
      "Ġforced": 2886,
      "imp": 2887,
      "Ġantic": 2888,
      "Ġweak": 2889,
      "irty": 2890,
      "Ġsof": 2891,
      "Ġdeath": 2892,
      "Ġsel": 2893,
      "Ġstep": 2894,
      "Ġstead": 2895,
      "ote": 2896,
      "Ġmiserable": 2897,
      "fend": 2898,
      "Ġlea": 2899,
      "ortion": 2900,
      "Ġperform": 2901,
      "Ġdisengaged": 2902,
      "Ġwholly": 2903,
      "Ġunw": 2904,
      "Ġunne": 2905,
      "Ġunwill": 2906,
      "Ġprove": 2907,
      "Ġaffair": 2908,
      "Ġcared": 2909,
      "venient": 2910,
      "ify": 2911,
      "ifying": 2912,
      "unsw": 2913,
      "osure": 2914,
      "perhaps": 2915,
      "iously": 2916,
      "Ġchair": 2917,
      "Ġwants": 2918,
      "nothing": 2919,
      "Ġrid": 2920,
      "Ġsupper": 2921,
      "Ġkindly": 2922,
      "Ġbrunsw": 2923,
      "plicity": 2924,
      "Ġlovely": 2925,
      "Ġpossess": 2926,
      "Ġcomfortably": 2927,
      "Ġdistingu": 2928,
      "Ġcarriages": 2929,
      "Ġsubjects": 2930,
      "Ġtells": 2931,
      "Ġclosed": 2932,
      "Ġglance": 2933,
      "Ġaccord": 2934,
      "Ġconfined": 2935,
      "Ġsecured": 2936,
      "Ġadvise": 2937,
      "Ġaffections": 2938,
      "Ġpersons": 2939,
      "Ġinvol": 2940,
      "Ġjudged": 2941,
      "Ġcomplaint": 2942,
      "Ġsincere": 2943,
      "Ġcompanions": 2944,
      "Ġcheck": 2945,
      "Ġcontinue": 2946,
      "Ġprompt": 2947,
      "Ġpersuasion": 2948,
      "mption": 2949,
      "Ġpoints": 2950,
      "Ġmaid": 2951,
      "Ġslow": 2952,
      "Ġthanks": 2953,
      "Ġdifferently": 2954,
      "Ġpreva": 2955,
      "Ġdependence": 2956,
      "Ġbringing": 2957,
      "Ġparcel": 2958,
      "Ġhuman": 2959,
      "Ġhumble": 2960,
      "Ġkeeping": 2961,
      "Ġlaid": 2962,
      "Ġpatience": 2963,
      "Ġpaying": 2964,
      "Ġeagerly": 2965,
      "Ġraise": 2966,
      "Ġfaults": 2967,
      "Ġplaces": 2968,
      "Ġirr": 2969,
      "Ġforese": 2970,
      "Ġprinciple": 2971,
      "Ġtranqu": 2972,
      "Ġconcealment": 2973,
      "Ġsteady": 2974,
      "Ġborne": 2975,
      "Ġhighest": 2976,
      "Ġsucceeded": 2977,
      "Ġreserve": 2978,
      "Ġuneasy": 2979,
      "Ġexclaimed": 2980,
      "Ġindependence": 2981,
      "Ġreproach": 2982,
      "Ġpeculiarly": 2983,
      "Ġexceedingly": 2984,
      "Ġcomparison": 2985,
      "Ġconnected": 2986,
      "Ġfoolish": 2987,
      "Ġaccomplished": 2988,
      "Ġfamilies": 2989,
      "Ġhousekeeper": 2990,
      "Ġmortification": 2991,
      "Ġorigin": 2992,
      "Ġanticip": 2993,
      "Ġunnecess": 2994,
      "Ġunwilling": 2995,
      "Ġbrunswick": 2996,
      "'--": 2997,
      "can": 2998,
      "een": 2999,
      "every": 3000,
      "good": 3001,
      "gra": 3002,
      "gence": 3003,
      "ian": 3004,
      "ives": 3005,
      "iries": 3006,
      "lt": 3007,
      "liness": 3008,
      "mory": 3009,
      "mpered": 3010,
      "pond": 3011,
      "uable": 3012,
      "wber": 3013,
      "xions": 3014,
      "Ġing": 3015,
      "Ġtall": 3016,
      "ina": 3017,
      "Ġwing": 3018,
      "Ġmed": 3019,
      "Ġmone": 3020,
      "resent": 3021,
      "Ġbak": 3022,
      "Ġbust": 3023,
      "ndered": 3024,
      "Ġchat": 3025,
      "Ġcrow": 3026,
      "edly": 3027,
      "Ġhaz": 3028,
      "Ġdared": 3029,
      "ises": 3030,
      "Ġpit": 3031,
      "Ġpardon": 3032,
      "asing": 3033,
      "omest": 3034,
      "Ġga": 3035,
      "stand": 3036,
      "Ġshewn": 3037,
      "semb": 3038,
      "Ġ\"_": 3039,
      "Ġreceive": 3040,
      "ows": 3041,
      "Ġsole": 3042,
      "Ġmemory": 3043,
      "tern": 3044,
      "iced": 3045,
      "ulg": 3046,
      "Ġfail": 3047,
      "Ġperceived": 3048,
      "Ġshru": 3049,
      "Ġordered": 3050,
      "Ġlibert": 3051,
      "Ġrank": 3052,
      "Ġqual": 3053,
      "Ġvulg": 3054,
      "Ġchief": 3055,
      "Ġagitated": 3056,
      "Ġpreser": 3057,
      "Ġuns": 3058,
      "Ġunless": 3059,
      "Ġunited": 3060,
      "Ġproc": 3061,
      "Ġpolit": 3062,
      "Ġparted": 3063,
      "Ġcompared": 3064,
      "elve": 3065,
      "acles": 3066,
      "Ġhappier": 3067,
      "Ġgover": 3068,
      "Ġfeels": 3069,
      "about": 3070,
      "rence": 3071,
      "Ġresources": 3072,
      "though": 3073,
      "Ġtwelve": 3074,
      "Ġmark": 3075,
      "Ġbegged": 3076,
      "Ġproud": 3077,
      "play": 3078,
      "Ġcertainty": 3079,
      "Ġfelicity": 3080,
      "Ġdistant": 3081,
      "Ġblame": 3082,
      "Ġengland": 3083,
      "new": 3084,
      "Ġmatri": 3085,
      "lesome": 3086,
      "Ġperfection": 3087,
      "Ġconfir": 3088,
      "Ġasking": 3089,
      "Ġadmit": 3090,
      "Ġrefused": 3091,
      "Ġrestr": 3092,
      "Ġincome": 3093,
      "Ġresolve": 3094,
      "Ġseeming": 3095,
      "Ġsorrow": 3096,
      "Ġsuperiority": 3097,
      "Ġrememb": 3098,
      "Ġsatisfy": 3099,
      "Ġremoved": 3100,
      "Ġforming": 3101,
      "Ġhorr": 3102,
      "Ġnecessity": 3103,
      "Ġproperly": 3104,
      "Ġexpressed": 3105,
      "Ġpains": 3106,
      "Ġpursu": 3107,
      "Ġunequ": 3108,
      "Ġtempted": 3109,
      ".'\"": 3110,
      ".'--": 3111,
      "Ġlaw": 3112,
      "Ġlament": 3113,
      "Ġevils": 3114,
      "Ġattentive": 3115,
      "Ġmatters": 3116,
      "Ġeagerness": 3117,
      "Ġexploring": 3118,
      "Ġhonourable": 3119,
      "Ġaccepted": 3120,
      "Ġsimplicity": 3121,
      "Ġaccommod": 3122,
      "Ġaccompan": 3123,
      "Ġintimate": 3124,
      "Ġcivility": 3125,
      "Ġsyllable": 3126,
      "ength": 3127,
      "Ġconnexions": 3128,
      "Ġproduce": 3129,
      "Ġemployment": 3130,
      "Ġdelicate": 3131,
      "Ġgrounds": 3132,
      "Ġdistinct": 3133,
      "Ġdistinction": 3134,
      "Ġdeeply": 3135,
      "Ġcollected": 3136,
      "Ġmiddle": 3137,
      "Ġpresume": 3138,
      "Ġlucky": 3139,
      "Ġhigher": 3140,
      "Ġrule": 3141,
      "Ġuneasiness": 3142,
      "Ġscruples": 3143,
      "umph": 3144,
      "Ġpreferred": 3145,
      "Ġremarkably": 3146,
      "looking": 3147,
      "Ġdaily": 3148,
      "Ġsunk": 3149,
      "Ġimprovement": 3150,
      "Ġinconvenience": 3151,
      "Ġconveyed": 3152,
      "Ġprincipal": 3153,
      "Ġgrew": 3154,
      "Ġsafety": 3155,
      "Ġpositively": 3156,
      "Ġmessage": 3157,
      "Ġfigure": 3158,
      "Ġliberal": 3159,
      "Ġchristmas": 3160,
      "Ġconsolation": 3161,
      "Ġsmooth": 3162,
      "Ġgradually": 3163,
      "Ġindisp": 3164,
      "Ġleaving": 3165,
      "Ġwingfield": 3166,
      "Ġmoney": 3167,
      "Ġbustle": 3168,
      "Ġcrowd": 3169,
      "aister": 3170,
      "bo": 3171,
      "by": 3172,
      "bet": 3173,
      "char": 3174,
      "emed": 3175,
      "fit": 3176,
      "gu": 3177,
      "ger": 3178,
      "ict": 3179,
      "iance": 3180,
      "ized": 3181,
      "lish": 3182,
      "mu": 3183,
      "mother": 3184,
      "nay": 3185,
      "oom": 3186,
      "overy": 3187,
      "sitation": 3188,
      "uing": 3189,
      "uss": 3190,
      "umed": 3191,
      "wr": 3192,
      "Ġah": 3193,
      "Ġau": 3194,
      "Ġauth": 3195,
      "Ġspect": 3196,
      "Ġsouth": 3197,
      "Ġmaint": 3198,
      "Ġmoving": 3199,
      "Ġost": 3200,
      "hand": 3201,
      "Ġbu": 3202,
      "Ġcot": 3203,
      "Ġtong": 3204,
      "Ġheld": 3205,
      "Ġhesitation": 3206,
      "Ġnamed": 3207,
      "Ġdress": 3208,
      "Ġdull": 3209,
      "Ġdark": 3210,
      "iter": 3211,
      "itations": 3212,
      "Ġpun": 3213,
      "asions": 3214,
      "aring": 3215,
      "Ġgruel": 3216,
      "owed": 3217,
      "Ġforty": 3218,
      "eth": 3219,
      "road": 3220,
      "quite": 3221,
      "quisite": 3222,
      "Ġdef": 3223,
      "Ġdeceived": 3224,
      "Ġsever": 3225,
      "Ġconte": 3226,
      "Ġje": 3227,
      "Ġstir": 3228,
      "Ġstreet": 3229,
      "aking": 3230,
      "Ġexist": 3231,
      "Ġexquisite": 3232,
      "ices": 3233,
      "ulting": 3234,
      "Ġfema": 3235,
      "Ġloves": 3236,
      "Ġlear": 3237,
      "Ġbye": 3238,
      "Ġfailed": 3239,
      "Ġperple": 3240,
      "Ġshut": 3241,
      "Ġran": 3242,
      "Ġquitted": 3243,
      "oke": 3244,
      "Ġchose": 3245,
      "Ġchoice": 3246,
      "Ġprecise": 3247,
      "Ġuncom": 3248,
      "Ġunlike": 3249,
      "Ġabrupt": 3250,
      "Ġprogress": 3251,
      "ilities": 3252,
      "ously": 3253,
      "Ġpartial": 3254,
      "une": 3255,
      "Ġshake": 3256,
      "Ġfairly": 3257,
      "Ġattack": 3258,
      "olent": 3259,
      "Ġresumed": 3260,
      "Ġwise": 3261,
      "Ġspeed": 3262,
      "ression": 3263,
      "Ġovercome": 3264,
      "suf": 3265,
      "Ġspeaks": 3266,
      "tere": 3267,
      "tempered": 3268,
      "plaister": 3269,
      "Ġpassion": 3270,
      "uding": 3271,
      "Ġdoubted": 3272,
      "Ġsetting": 3273,
      "Ġvisitor": 3274,
      "Ġpleasures": 3275,
      "Ġdoubtful": 3276,
      "Ġtears": 3277,
      "Ġwrites": 3278,
      "Ġsurry": 3279,
      "Ġthrow": 3280,
      "Ġrecover": 3281,
      "Ġinstant": 3282,
      "Ġinstance": 3283,
      "Ġsecure": 3284,
      "lessness": 3285,
      "Ġpretence": 3286,
      "Ġturns": 3287,
      "Ġrestore": 3288,
      "Ġopinions": 3289,
      "Ġincons": 3290,
      "Ġputting": 3291,
      "Ġcontinual": 3292,
      "Ġguest": 3293,
      "Ġfancied": 3294,
      "Ġsmallridge": 3295,
      "Ġaffectionate": 3296,
      "Ġshewing": 3297,
      "shire": 3298,
      "Ġstopt": 3299,
      "Ġhonest": 3300,
      "Ġprevious": 3301,
      "Ġexpression": 3302,
      "Ġhurt": 3303,
      "Ġconvince": 3304,
      "Ġparish": 3305,
      "Ġplaying": 3306,
      "Ġrecommended": 3307,
      "Ġgracious": 3308,
      "Ġconcerns": 3309,
      "Ġdiscover": 3310,
      "Ġencouraging": 3311,
      "Ġbehaved": 3312,
      "Ġearli": 3313,
      "Ġbeloved": 3314,
      "Ġplans": 3315,
      "Ġengagements": 3316,
      "Ġinquire": 3317,
      "Ġinquiries": 3318,
      "Ġsatisfact": 3319,
      "Ġquietly": 3320,
      "Ġattended": 3321,
      "Ġincreasing": 3322,
      "Ġgrandmother": 3323,
      "Ġhurrying": 3324,
      "Ġconstit": 3325,
      "Ġhence": 3326,
      "Ġselfish": 3327,
      "Ġcommunication": 3328,
      "Ġvaluable": 3329,
      "Ġemployed": 3330,
      "Ġxvi": 3331,
      "Ġtolerable": 3332,
      "Ġprevented": 3333,
      "Ġtroublesome": 3334,
      "Ġfalling": 3335,
      "ashion": 3336,
      "Ġsixteen": 3337,
      "Ġmotive": 3338,
      "Ġcivilities": 3339,
      "Ġfellow": 3340,
      "Ġreserved": 3341,
      "Ġaddressing": 3342,
      "Ġwindows": 3343,
      "Ġwitness": 3344,
      "Ġcease": 3345,
      "Ġindependent": 3346,
      "Ġtrusted": 3347,
      "Ġsufficiently": 3348,
      "rudent": 3349,
      "humoured": 3350,
      "Ġrelief": 3351,
      "Ġcarrying": 3352,
      "Ġheavy": 3353,
      "Ġresentment": 3354,
      "Ġtrifling": 3355,
      "Ġignorant": 3356,
      "Ġlanguage": 3357,
      "Ġinterrupted": 3358,
      "Ġwhisper": 3359,
      "Ġsacrifice": 3360,
      "Ġstrawber": 3361,
      "Ġintentions": 3362,
      "Ġunreasonable": 3363,
      "airs": 3364,
      "Ġterms": 3365,
      "Ġfatig": 3366,
      "Ġshrub": 3367,
      "Ġliberty": 3368,
      "much": 3369,
      "Ġauthor": 3370,
      "Ġspectacles": 3371,
      "Ġperplex": 3372,
      "cha": 3373,
      "cur": 3374,
      "ciled": 3375,
      "iency": 3376,
      "lings": 3377,
      "leness": 3378,
      "must": 3379,
      "old": 3380,
      "pray": 3381,
      "rate": 3382,
      "sed": 3383,
      "somet": 3384,
      "ture": 3385,
      "ude": 3386,
      "zz": 3387,
      "zen": 3388,
      "zab": 3389,
      "Ġsour": 3390,
      "Ġsangu": 3391,
      "Ġbreat": 3392,
      "Ġcur": 3393,
      "Ġfetch": 3394,
      "Ġheat": 3395,
      "ening": 3396,
      "Ġhall": 3397,
      "Ġnur": 3398,
      "Ġoffered": 3399,
      "Ġoffend": 3400,
      "Ġdign": 3401,
      "Ġdressed": 3402,
      "lling": 3403,
      "Ġple": 3404,
      "Ġhouses": 3405,
      "atory": 3406,
      "----": 3407,
      "oms": 3408,
      "omin": 3409,
      "vering": 3410,
      "verse": 3411,
      "Ġyork": 3412,
      "Ġlim": 3413,
      "Ġlab": 3414,
      "Ġrenew": 3415,
      "Ġforbe": 3416,
      "ete": 3417,
      "Ġsuited": 3418,
      "irt": 3419,
      "Ġsore": 3420,
      "alous": 3421,
      "Ġdece": 3422,
      "Ġconject": 3423,
      "ains": 3424,
      "Ġnearer": 3425,
      "Ġstup": 3426,
      "Ġstaid": 3427,
      "Ġmisunder": 3428,
      "Ġexam": 3429,
      "ical": 3430,
      "Ġmissed": 3431,
      "Ġpert": 3432,
      "Ġperse": 3433,
      "Ġperceive": 3434,
      "Ġaloud": 3435,
      "ards": 3436,
      "Ġrisk": 3437,
      "Ġwestons": 3438,
      "Ġdisin": 3439,
      "Ġdisplay": 3440,
      "Ġprecious": 3441,
      "raction": 3442,
      "Ġintention": 3443,
      "Ġabroad": 3444,
      "Ġpop": 3445,
      "Ġcaut": 3446,
      "ilt": 3447,
      "Ġcooll": 3448,
      "Ġcomposed": 3449,
      "Ġcomposure": 3450,
      "ung": 3451,
      "Ġspread": 3452,
      "acher": 3453,
      "Ġobt": 3454,
      "Ġattraction": 3455,
      "olence": 3456,
      "ption": 3457,
      "Ġconsci": 3458,
      "iresome": 3459,
      "urning": 3460,
      "tens": 3461,
      "umn": 3462,
      "Ġsupport": 3463,
      "clock": 3464,
      "Ġrepresent": 3465,
      "Ġrose": 3466,
      "Ġsubst": 3467,
      "Ġoffence": 3468,
      "Ġoffice": 3469,
      "Ġgips": 3470,
      "Ġbrist": 3471,
      "Ġenter": 3472,
      "Ġentering": 3473,
      "Ġapple": 3474,
      "Ġcomforts": 3475,
      "Ġenglish": 3476,
      "Ġended": 3477,
      "Ġdelightfully": 3478,
      "Ġglow": 3479,
      "Ġevident": 3480,
      "Ġparent": 3481,
      "Ġolder": 3482,
      "Ġtakes": 3483,
      "vile": 3484,
      "Ġjudging": 3485,
      "while": 3486,
      "Ġwarmest": 3487,
      "Ġcares": 3488,
      "Ġguard": 3489,
      "Ġacting": 3490,
      "Ġdecision": 3491,
      "Ġpropriety": 3492,
      "Ġstronger": 3493,
      "office": 3494,
      "Ġboast": 3495,
      "Ġflut": 3496,
      "Ġexcuses": 3497,
      "Ġlarger": 3498,
      "ibly": 3499,
      "ship": 3500,
      "Ġprivile": 3501,
      "Ġinterference": 3502,
      "Ġpleasantly": 3503,
      "Ġexpressing": 3504,
      "Ġexpressions": 3505,
      "Ġhurried": 3506,
      "Ġdepended": 3507,
      "Ġplayed": 3508,
      "Ġdanced": 3509,
      "Ġquickness": 3510,
      "Ġcondition": 3511,
      "Ġdiscovery": 3512,
      "Ġdiscuss": 3513,
      "Ġencouraged": 3514,
      "Ġdangerous": 3515,
      "Ġshop": 3516,
      "Ġshook": 3517,
      "Ġwater": 3518,
      "Ġwatched": 3519,
      "Ġacceptable": 3520,
      "Ġrecollection": 3521,
      "Ġattending": 3522,
      "Ġdreadfully": 3523,
      "Ġconstantly": 3524,
      "Ġlux": 3525,
      "Ġintroduce": 3526,
      "Ġintroduction": 3527,
      "Ġintroduced": 3528,
      "Ġprosper": 3529,
      "Ġcommunicated": 3530,
      "Ġirres": 3531,
      "Ġmortified": 3532,
      "respond": 3533,
      "Ġcorrespond": 3534,
      "Ġescap": 3535,
      "appe": 3536,
      "Ġpenet": 3537,
      "Ġindulgence": 3538,
      "Ġerror": 3539,
      "Ġerrand": 3540,
      "Ġdescribe": 3541,
      "Ġconclusion": 3542,
      "Ġleading": 3543,
      "Ġcontrary": 3544,
      "ableness": 3545,
      "Ġprospects": 3546,
      "Ġgrieved": 3547,
      "Ġastonished": 3548,
      "Ġdestin": 3549,
      "Ġpeculiar": 3550,
      "after": 3551,
      "Ġpressed": 3552,
      "rudence": 3553,
      "Ġmixture": 3554,
      "Ġfarmer": 3555,
      "Ġwatching": 3556,
      "Ġtalents": 3557,
      "Ġdrink": 3558,
      "frank": 3559,
      "Ġapologies": 3560,
      "Ġunexception": 3561,
      "Ġfrequent": 3562,
      "Ġfrequently": 3563,
      "arrass": 3564,
      "Ġkingston": 3565,
      "Ġafforded": 3566,
      "Ġeldest": 3567,
      "Ġdispleased": 3568,
      "Ġassurance": 3569,
      "Ġtemptation": 3570,
      "Ġreconciled": 3571,
      "Ġembarrass": 3572,
      "Ġvolunt": 3573,
      "Ġbirth": 3574,
      "Ġhitherto": 3575,
      "Ġsoften": 3576,
      "Ġselina": 3577,
      "Ġperformance": 3578,
      "Ġunnecessary": 3579,
      "Ġbaked": 3580,
      "Ġvulgar": 3581,
      "Ġgoverness": 3582,
      "Ġmatrimony": 3583,
      "Ġremembrance": 3584,
      "Ġhorror": 3585,
      "Ġtongue": 3586,
      "Ġseveral": 3587,
      "Ġjealous": 3588,
      "Ġearlier": 3589,
      "zabeth": 3590,
      "Ġsanguine": 3591,
      "Ġyorkshire": 3592,
      "Ġforbearance": 3593,
      "Ġstupid": 3594,
      "Ġcoolly": 3595,
      "Ġconscience": 3596,
      "Ġbristol": 3597,
      "),": 3598,
      "bru": 3599,
      "cil": 3600,
      "gge": 3601,
      "light": 3602,
      "mn": 3603,
      "ming": 3604,
      "mes": 3605,
      "mar": 3606,
      "may": 3607,
      "mill": 3608,
      "more": 3609,
      "oval": 3610,
      "pet": 3611,
      "rad": 3612,
      "sha": 3613,
      "would": 3614,
      "ys": 3615,
      "Ġtaught": 3616,
      "Ġterr": 3617,
      "Ġtues": 3618,
      "head": 3619,
      "Ġaut": 3620,
      "Ġapt": 3621,
      "Ġalike": 3622,
      "Ġmild": 3623,
      "Ġmoved": 3624,
      "ouche": 3625,
      "Ġbore": 3626,
      "Ġbare": 3627,
      "Ġfashion": 3628,
      "Ġheight": 3629,
      "enced": 3630,
      "Ġdro": 3631,
      "Ġdry": 3632,
      "Ġdomest": 3633,
      "Ġbend": 3634,
      "lli": 3635,
      "lled": 3636,
      "Ġpal": 3637,
      "Ġpus": 3638,
      "Ġeating": 3639,
      "Ġinsuf": 3640,
      "attered": 3641,
      "aration": 3642,
      "armed": 3643,
      "Ġyield": 3644,
      "Ġgay": 3645,
      "Ġgown": 3646,
      "vet": 3647,
      "vered": 3648,
      "Ġlord": 3649,
      "Ġlatter": 3650,
      "Ġthin": 3651,
      "Ġthir": 3652,
      "Ġthreat": 3653,
      "Ġrendered": 3654,
      "ented": 3655,
      "Ġwealth": 3656,
      "Ġwhite": 3657,
      "illed": 3658,
      "urday": 3659,
      "Ġalliance": 3660,
      "Ġseven": 3661,
      "Ġseason": 3662,
      "Ġconvenient": 3663,
      "Ġjune": 3664,
      "Ġneat": 3665,
      "Ġfront": 3666,
      "pping": 3667,
      "Ġstart": 3668,
      "Ġstud": 3669,
      "Ġmisc": 3670,
      "Ġmisfortun": 3671,
      "ulous": 3672,
      "Ġfebru": 3673,
      "Ġlover": 3674,
      "Ġleg": 3675,
      "Ġamusing": 3676,
      "Ġfaith": 3677,
      "Ġalert": 3678,
      "Ġalarmed": 3679,
      "mpath": 3680,
      "ending": 3681,
      "Ġunfe": 3682,
      "Ġunwell": 3683,
      "Ġabund": 3684,
      "Ġaff": 3685,
      "Ġknightleys": 3686,
      "Ġpoin": 3687,
      "Ġgoodness": 3688,
      "Ġupright": 3689,
      "Ġacross": 3690,
      "Ġcoach": 3691,
      "Ġgreatly": 3692,
      "Ġshade": 3693,
      "Ġspo": 3694,
      "Ġspot": 3695,
      "Ġspared": 3696,
      "Ġhappiest": 3697,
      "osite": 3698,
      "Ġresult": 3699,
      "these": 3700,
      "ancy": 3701,
      "uming": 3702,
      "Ġgrown": 3703,
      "Ġimpression": 3704,
      "Ġridd": 3705,
      "Ġrivet": 3706,
      "Ġoverp": 3707,
      "Ġsupposing": 3708,
      "Ġrepent": 3709,
      "Ġrepet": 3710,
      "Ġarise": 3711,
      "Ġargu": 3712,
      "Ġsaturday": 3713,
      "Ġbrain": 3714,
      "Ġapplic": 3715,
      "Ġapprehend": 3716,
      "Ġdesign": 3717,
      "Ġvisiting": 3718,
      "Ġmorrow": 3719,
      "Ġextent": 3720,
      "bered": 3721,
      "nobody": 3722,
      "Ġengage": 3723,
      "Ġengaging": 3724,
      "Ġours": 3725,
      "ferable": 3726,
      "Ġoccasions": 3727,
      "Ġendured": 3728,
      "Ġclass": 3729,
      "eping": 3730,
      "Ġsurm": 3731,
      "Ġpair": 3732,
      "Ġwherever": 3733,
      "Ġaffected": 3734,
      "Ġpersonal": 3735,
      "Ġcourage": 3736,
      "Ġsusp": 3737,
      "Ġexped": 3738,
      "Ġexpense": 3739,
      "Ġreadily": 3740,
      "Ġobserving": 3741,
      "Ġdraught": 3742,
      "Ġdisparity": 3743,
      "Ġhoping": 3744,
      "Ġdetained": 3745,
      "Ġdaughters": 3746,
      "Ġactive": 3747,
      "Ġcoldness": 3748,
      "Ġobjects": 3749,
      "Ġstrongly": 3750,
      "Ġdegrad": 3751,
      "mptoms": 3752,
      "Ġapprove": 3753,
      "orthy": 3754,
      "Ġremind": 3755,
      "Ġremoval": 3756,
      "Ġthanked": 3757,
      "Ġcheerfully": 3758,
      "Ġdepends": 3759,
      "Ġopposite": 3760,
      "Ġparade": 3761,
      "Ġcolour": 3762,
      "Ġrecommendation": 3763,
      "ensible": 3764,
      "Ġenjoyed": 3765,
      "Ġquickly": 3766,
      "Ġdeclined": 3767,
      "Ġdeclared": 3768,
      "Ġdeclaration": 3769,
      "Ġtrick": 3770,
      "Ġlistening": 3771,
      "Ġuncertain": 3772,
      "landau": 3773,
      "Ġguessed": 3774,
      "Ġforgetting": 3775,
      "Ġsweetness": 3776,
      "Ġmerits": 3777,
      "Ġsending": 3778,
      "Ġblushed": 3779,
      "Ġoffering": 3780,
      "Ġschemes": 3781,
      "Ġsympath": 3782,
      "Ġsymptoms": 3783,
      "Ġbrilli": 3784,
      "Ġeste": 3785,
      "Ġestim": 3786,
      "Ġoccupy": 3787,
      "Ġblessed": 3788,
      "Ġanger": 3789,
      "Ġdistinctly": 3790,
      "Ġdistressing": 3791,
      "Ġfallen": 3792,
      "Ġblindness": 3793,
      "Ġcorre": 3794,
      "Ġcorner": 3795,
      "Ġdeny": 3796,
      "Ġsteps": 3797,
      "Ġobservations": 3798,
      "Ġindulge": 3799,
      "Ġmidst": 3800,
      "Ġpresumption": 3801,
      "Ġdescription": 3802,
      "Ġtremb": 3803,
      "Ġcongratulations": 3804,
      "Ġgardens": 3805,
      "Ġpreparation": 3806,
      "Ġunreser": 3807,
      "Ġsentiments": 3808,
      "Ġshocked": 3809,
      "parties": 3810,
      "Ġhesitating": 3811,
      "Ġdamp": 3812,
      "humour": 3813,
      "Ġtravel": 3814,
      "Ġnumbers": 3815,
      "Ġannounce": 3816,
      "Ġtreatment": 3817,
      "Ġmeasure": 3818,
      "natured": 3819,
      "Ġhastily": 3820,
      "Ġapproaching": 3821,
      "Ġelizabeth": 3822,
      "Ġfeatures": 3823,
      "Ġunfortunate": 3824,
      "Ġmoderate": 3825,
      "Ġestablishment": 3826,
      "Ġbarouche": 3827,
      "Ġbragge": 3828,
      "Ġpuzz": 3829,
      "Ġapprehension": 3830,
      "Ġindignation": 3831,
      "Ġceremony": 3832,
      "Ġcordial": 3833,
      "Ġtranquill": 3834,
      "Ġsolemn": 3835,
      "Ġchiefly": 3836,
      "Ġunsus": 3837,
      "Ġpoliteness": 3838,
      "Ġunequal": 3839,
      "Ġexistence": 3840,
      "Ġfemale": 3841,
      "Ġlearn": 3842,
      "Ġprecisely": 3843,
      "Ġguests": 3844,
      "Ġconstitution": 3845,
      "Ġstrawberries": 3846,
      "Ġshrubber": 3847,
      "something": 3848,
      "Ġsource": 3849,
      "ominable": 3850,
      "Ġcautious": 3851,
      "Ġsubstance": 3852,
      "Ġflutter": 3853,
      "Ġescaped": 3854,
      "Ġpenetr": 3855,
      "Ġdestiny": 3856,
      "Ġunexceptionable": 3857,
      "Ġtuesday": 3858,
      "Ġautumn": 3859,
      "Ġdomestic": 3860,
      "Ġfebruary": 3861,
      "!'": 3862,
      "?'": 3863,
      "act": 3864,
      "actly": 3865,
      "bb": 3866,
      "bly": 3867,
      "cer": 3868,
      "could": 3869,
      "cont": 3870,
      "dra": 3871,
      "four": 3872,
      "hour": 3873,
      "iven": 3874,
      "join": 3875,
      "ket": 3876,
      "lance": 3877,
      "mbered": 3878,
      "oci": 3879,
      "oves": 3880,
      "rain": 3881,
      "rather": 3882,
      "sing": 3883,
      "sor": 3884,
      "side": 3885,
      "said": 3886,
      "tell": 3887,
      "tage": 3888,
      "turning": 3889,
      "ug": 3890,
      "uit": 3891,
      "wom": 3892,
      "Ġtiresome": 3893,
      "health": 3894,
      "Ġaver": 3895,
      "Ġast": 3896,
      "Ġaction": 3897,
      "inent": 3898,
      "Ġsin": 3899,
      "Ġsong": 3900,
      "Ġswell": 3901,
      "Ġsought": 3902,
      "Ġwall": 3903,
      "Ġwine": 3904,
      "Ġmill": 3905,
      "resh": 3906,
      "Ġot": 3907,
      "ham": 3908,
      "Ġbab": 3909,
      "Ġcens": 3910,
      "Ġtopic": 3911,
      "onoun": 3912,
      "Ġfal": 3913,
      "Ġfate": 3914,
      "Ġfree": 3915,
      "Ġfurn": 3916,
      "Ġdwell": 3917,
      "Ġdances": 3918,
      "Ġbew": 3919,
      "Ġbell": 3920,
      "ism": 3921,
      "orge": 3922,
      "Ġhung": 3923,
      "aning": 3924,
      "Ġincom": 3925,
      "--`": 3926,
      "Ġgil": 3927,
      "Ġlace": 3928,
      "Ġlength": 3929,
      "Ġnotions": 3930,
      "lying": 3931,
      "stem": 3932,
      "Ġreck": 3933,
      "owered": 3934,
      "Ġforce": 3935,
      "Ġones": 3936,
      "ider": 3937,
      "Ġwear": 3938,
      "Ġsol": 3939,
      "aled": 3940,
      "making": 3941,
      "roy": 3942,
      "Ġmeal": 3943,
      "Ġdeli": 3944,
      "Ġsept": 3945,
      "Ġsecl": 3946,
      "Ġconvenience": 3947,
      "Ġsave": 3948,
      "Ġsaved": 3949,
      "Ġjoke": 3950,
      "akes": 3951,
      "Ġmisch": 3952,
      "ulted": 3953,
      "Ġfever": 3954,
      "Ġample": 3955,
      "Ġamiss": 3956,
      "Ġperpet": 3957,
      "Ġalter": 3958,
      "depend": 3959,
      "Ġliable": 3960,
      "Ġlives": 3961,
      "Ġlips": 3962,
      "Ġrising": 3963,
      "Ġseek": 3964,
      "Ġvi": 3965,
      "Ġvou": 3966,
      "Ġvast": 3967,
      "Ġvii": 3968,
      "Ġdiss": 3969,
      "Ġdiscern": 3970,
      "mpl": 3971,
      "mple": 3972,
      "mpted": 3973,
      "Ġpres": 3974,
      "Ġenvy": 3975,
      "Ġunper": 3976,
      "Ġunjust": 3977,
      "Ġabominable": 3978,
      "Ġcapt": 3979,
      "usal": 3980,
      "Ġcompare": 3981,
      "Ġshar": 3982,
      "Ġshaken": 3983,
      "Ġadjoin": 3984,
      "Ġgoes": 3985,
      "erty": 3986,
      "pected": 3987,
      "Ġresist": 3988,
      "those": 3989,
      "fection": 3990,
      "?\"--": 3991,
      "fulness": 3992,
      "Ġconsult": 3993,
      "Ġoutward": 3994,
      "Ġspecul": 3995,
      "Ġlonged": 3996,
      "Ġfirm": 3997,
      "Ġtwice": 3998,
      "ounded": 3999,
      "Ġafterno": 4000,
      "jected": 4001,
      "Ġundert": 4002,
      "ancing": 4003,
      "were": 4004,
      "Ġtalker": 4005,
      "umb": 4006,
      "Ġride": 4007,
      "Ġoverhe": 4008,
      "Ġapart": 4009,
      "Ġpronoun": 4010,
      "Ġartic": 4011,
      "Ġsubd": 4012,
      "Ġsubmitted": 4013,
      "Ġmeanwhile": 4014,
      "place": 4015,
      "Ġdespa": 4016,
      "Ġretire": 4017,
      "Ġcontented": 4018,
      "Ġassoci": 4019,
      "formed": 4020,
      "Ġacquit": 4021,
      "Ġacquies": 4022,
      "Ġdoubts": 4023,
      "Ġmatches": 4024,
      "Ġchanged": 4025,
      "Ġaccent": 4026,
      "Ġaccident": 4027,
      "Ġcharity": 4028,
      "Ġpaused": 4029,
      "Ġrecur": 4030,
      "Ġgentility": 4031,
      "Ġstranger": 4032,
      "Ġrefresh": 4033,
      "Ġinval": 4034,
      "Ġinvitations": 4035,
      "Ġopenly": 4036,
      "Ġresolute": 4037,
      "Ġrespects": 4038,
      "Ġdirection": 4039,
      "Ġmeetings": 4040,
      "Ġheartily": 4041,
      "Ġwarmer": 4042,
      "however": 4043,
      "Ġwondering": 4044,
      "Ġsituations": 4045,
      "Ġcheek": 4046,
      "Ġcontinually": 4047,
      "Ġguided": 4048,
      "Ġdecis": 4049,
      "Ġremembered": 4050,
      "Ġproportion": 4051,
      "Ġproperty": 4052,
      "Ġapproved": 4053,
      "Ġflow": 4054,
      "Ġdrew": 4055,
      "Ġexcited": 4056,
      "should": 4057,
      "Ġsensation": 4058,
      "Ġsensibility": 4059,
      "Ġsocial": 4060,
      "Ġprobable": 4061,
      "Ġhorri": 4062,
      "Ġinterval": 4063,
      "Ġdrawback": 4064,
      "Ġcreating": 4065,
      "Ġnecessarily": 4066,
      "Ġwaited": 4067,
      "Ġliking": 4068,
      "Ġopposing": 4069,
      "Ġpurcha": 4070,
      "Ġrecommendations": 4071,
      "Ġcreatures": 4072,
      "Ġdeserves": 4073,
      "Ġtriumph": 4074,
      "Ġconceit": 4075,
      "Ġconceive": 4076,
      "Ġinclined": 4077,
      "Ġrapt": 4078,
      "Ġraised": 4079,
      "luck": 4080,
      "Ġrequest": 4081,
      "Ġaccepting": 4082,
      "Ġrecollections": 4083,
      "Ġeffort": 4084,
      "Ġregrets": 4085,
      "Ġanxiously": 4086,
      "Ġforgive": 4087,
      "Ġintellect": 4088,
      "Ġcheerfulness": 4089,
      "Ġwindsor": 4090,
      "Ġslighted": 4091,
      "Ġfinest": 4092,
      "Ġconstant": 4093,
      "Ġattempted": 4094,
      "Ġplainly": 4095,
      "Ġsystem": 4096,
      "Ġbright": 4097,
      "exactly": 4098,
      "Ġxii": 4099,
      "Ġblessings": 4100,
      "Ġbelonged": 4101,
      "Ġhints": 4102,
      "Ġattempts": 4103,
      "Ġdenying": 4104,
      "Ġalarming": 4105,
      "Ġprovoking": 4106,
      "Ġpenance": 4107,
      "Ġwelcom": 4108,
      "Ġacknowledgment": 4109,
      "Ġmotion": 4110,
      "Ġmotives": 4111,
      "Ġborn": 4112,
      "Ġcalcul": 4113,
      "Ġconclude": 4114,
      "Ġvarious": 4115,
      "Ġventured": 4116,
      "Ġcontrad": 4117,
      "Ġcontrast": 4118,
      "Ġsucklings": 4119,
      "Ġsolicit": 4120,
      "Ġrude": 4121,
      "Ġentreaties": 4122,
      "Ġtenderness": 4123,
      "Ġastonishment": 4124,
      "Ġceased": 4125,
      "Ġdestroy": 4126,
      "Ġnegli": 4127,
      "Ġexertion": 4128,
      "Ġexertions": 4129,
      "Ġdirected": 4130,
      "Ġcrossed": 4131,
      "Ġnerves": 4132,
      "Ġpressing": 4133,
      "Ġentertainment": 4134,
      "Ġcontrived": 4135,
      "Ġawkwardness": 4136,
      "Ġprofessed": 4137,
      "Ġprofessions": 4138,
      "Ġtrave": 4139,
      "Ġskill": 4140,
      "Ġbenev": 4141,
      "Ġimproper": 4142,
      "Ġsinking": 4143,
      "Ġheaven": 4144,
      "Ġbooks": 4145,
      "Ġamaz": 4146,
      "Ġelder": 4147,
      "Ġanimation": 4148,
      "Ġurge": 4149,
      "Ġdispleasure": 4150,
      "Ġcollection": 4151,
      "Ġcalmness": 4152,
      "Ġsuggested": 4153,
      "Ġelig": 4154,
      "Ġencoun": 4155,
      "Ġunfortunately": 4156,
      "Ġcapable": 4157,
      "Ġblunders": 4158,
      "Ġbetrayed": 4159,
      "Ġvexation": 4160,
      "Ġinev": 4161,
      "Ġrejo": 4162,
      "Ġrejoice": 4163,
      "Ġdepressed": 4164,
      "Ġdisturb": 4165,
      "Ġdisturbed": 4166,
      "Ġrapidly": 4167,
      "Ġreflections": 4168,
      "known": 4169,
      "Ġbitter": 4170,
      "Ġlater": 4171,
      "Ġunworthy": 4172,
      "Ġdistinguishing": 4173,
      "Ġinvolved": 4174,
      "Ġsincerely": 4175,
      "Ġprevailed": 4176,
      "Ġforeseen": 4177,
      "Ġprinciples": 4178,
      "Ġanticipated": 4179,
      "Ġingen": 4180,
      "Ġhazard": 4181,
      "Ġqualities": 4182,
      "Ġaccommodation": 4183,
      "Ġaugust": 4184,
      "Ġcottage": 4185,
      "terest": 4186,
      "Ġsatisfactory": 4187,
      "Ġauthority": 4188,
      "Ġplea": 4189,
      "Ġlabour": 4190,
      "Ġmisunderstand": 4191,
      "Ġgipsies": 4192,
      "Ġirresist": 4193,
      "shall": 4194,
      "Ġterror": 4195,
      "Ġinsufferable": 4196,
      "Ġmisfortune": 4197,
      "Ġsuspense": 4198,
      "Ġbrilliant": 4199,
      "Ġcorrect": 4200,
      "Ġunreserve": 4201,
      "Ġbaby": 4202,
      "Ġcensure": 4203,
      "Ġfalse": 4204,
      "Ġgilbert": 4205,
      "Ġreckon": 4206,
      "Ġadjoining": 4207,
      "Ġafternoon": 4208,
      "Ġresolutely": 4209,
      "Ġpurchase": 4210,
      ";'": 4211,
      "__": 4212,
      "_.\"": 4213,
      "ail": 4214,
      "bl": 4215,
      "cake": 4216,
      "cence": 4217,
      "ec": 4218,
      "ember": 4219,
      "gation": 4220,
      "gance": 4221,
      "hor": 4222,
      "ivers": 4223,
      "kes": 4224,
      "ls": 4225,
      "lanted": 4226,
      "men": 4227,
      "mit": 4228,
      "mat": 4229,
      "mble": 4230,
      "pre": 4231,
      "pha": 4232,
      "rated": 4233,
      "rase": 4234,
      "ts": 4235,
      "tim": 4236,
      "uary": 4237,
      "wl": 4238,
      "work": 4239,
      "Ġ2": 4240,
      "Ġamend": 4241,
      "Ġsw": 4242,
      "Ġsou": 4243,
      "Ġsal": 4244,
      "Ġwet": 4245,
      "Ġwid": 4246,
      "Ġwra": 4247,
      "Ġmag": 4248,
      "Ġmouth": 4249,
      "Ġoper": 4250,
      "Ġbid": 4251,
      "Ġidle": 4252,
      "Ġfro": 4253,
      "Ġhate": 4254,
      "Ġna": 4255,
      "Ġnin": 4256,
      "Ġdw": 4257,
      "Ġdie": 4258,
      "Ġdirty": 4259,
      "Ġpred": 4260,
      "Ġpace": 4261,
      "Ġportion": 4262,
      "Ġprudence": 4263,
      "Ġeart": 4264,
      "Ġegg": 4265,
      "ases": 4266,
      "Ġhod": 4267,
      "any": 4268,
      "anuary": 4269,
      "Ġinher": 4270,
      "Ġincess": 4271,
      "Ġinex": 4272,
      "Ġnove": 4273,
      "Ġnoble": 4274,
      "Ġnoise": 4275,
      "especially": 4276,
      "att": 4277,
      "arse": 4278,
      "arter": 4279,
      "Ġhero": 4280,
      "Ġyards": 4281,
      "Ġge": 4282,
      "Ġgain": 4283,
      "Ġgained": 4284,
      "Ġgates": 4285,
      "Ġlist": 4286,
      "Ġlower": 4287,
      "Ġnotion": 4288,
      "stery": 4289,
      "stairs": 4290,
      "Ġthick": 4291,
      "ric": 4292,
      "Ġren": 4293,
      "Ġresemb": 4294,
      "Ġforth": 4295,
      "ims": 4296,
      "idable": 4297,
      "Ġange": 4298,
      "Ġsofa": 4299,
      "always": 4300,
      "maid": 4301,
      "ades": 4302,
      "robert": 4303,
      "Ġdem": 4304,
      "Ġdepl": 4305,
      "Ġdefer": 4306,
      "Ġdefic": 4307,
      "Ġdemand": 4308,
      "Ġdeficient": 4309,
      "Ġdeaf": 4310,
      "Ġsex": 4311,
      "Ġseized": 4312,
      "Ġemot": 4313,
      "Ġconqu": 4314,
      "Ġcommission": 4315,
      "Ġsafer": 4316,
      "Ġjump": 4317,
      "Ġjanuary": 4318,
      "Ġfruit": 4319,
      ".--`": 4320,
      "Ġstor": 4321,
      "Ġstore": 4322,
      "Ġstation": 4323,
      "Ġexper": 4324,
      "Ġexult": 4325,
      "alled": 4326,
      "ulate": 4327,
      "fere": 4328,
      "Ġlosing": 4329,
      "Ġamount": 4330,
      "orted": 4331,
      "Ġaltered": 4332,
      "Ġmanage": 4333,
      "arder": 4334,
      "Ġrous": 4335,
      "Ġrise": 4336,
      "Ġquitting": 4337,
      "itty": 4338,
      "okes": 4339,
      "Ġmoreover": 4340,
      "atefully": 4341,
      "Ġvo": 4342,
      "Ġvig": 4343,
      "Ġvirt": 4344,
      "Ġdiscl": 4345,
      "Ġdisgra": 4346,
      "Ġprejud": 4347,
      "Ġwholesome": 4348,
      "Ġunt": 4349,
      "Ġunse": 4350,
      "Ġunus": 4351,
      "Ġunsu": 4352,
      "Ġunwho": 4353,
      "Ġungra": 4354,
      "Ġunluck": 4355,
      "Ġunivers": 4356,
      "Ġcapri": 4357,
      "Ġgoodwill": 4358,
      "ils": 4359,
      "Ġcop": 4360,
      "Ġcompose": 4361,
      "elcome": 4362,
      "Ġshape": 4363,
      "Ġshawl": 4364,
      "Ġspru": 4365,
      "Ġado": 4366,
      "ustom": 4367,
      "Ġsomehow": 4368,
      "acity": 4369,
      "aches": 4370,
      "Ġthoughtful": 4371,
      "rue": 4372,
      "Ġplenty": 4373,
      "three": 4374,
      "thought": 4375,
      "Ġevenings": 4376,
      "ounds": 4377,
      "inement": 4378,
      "anced": 4379,
      "ancies": 4380,
      "Ġgranted": 4381,
      "Ġgratefully": 4382,
      "Ġjustified": 4383,
      "Ġimprudent": 4384,
      "fortable": 4385,
      "Ġribb": 4386,
      "command": 4387,
      "Ġsupplied": 4388,
      "iculous": 4389,
      "Ġroast": 4390,
      "Ġbateses": 4391,
      "Ġkinder": 4392,
      "Ġentit": 4393,
      "Ġentrance": 4394,
      "Ġmomentary": 4395,
      "Ġdesp": 4396,
      "Ġdesert": 4397,
      "Ġretired": 4398,
      "Ġhandwr": 4399,
      "Ġlasting": 4400,
      "Ġvisited": 4401,
      "Ġvisitors": 4402,
      "Ġassisted": 4403,
      "Ġdistressed": 4404,
      "aming": 4405,
      "forward": 4406,
      "Ġblood": 4407,
      "Ġblack": 4408,
      "Ġbloom": 4409,
      "Ġobligation": 4410,
      "Ġteach": 4411,
      "Ġengross": 4412,
      "Ġcarried": 4413,
      "Ġscene": 4414,
      "Ġcalls": 4415,
      "Ġnative": 4416,
      "retion": 4417,
      "Ġsurp": 4418,
      "Ġsurr": 4419,
      "Ġrights": 4420,
      "Ġchances": 4421,
      "Ġrefrain": 4422,
      "Ġrefusal": 4423,
      "Ġexpose": 4424,
      "Ġdownright": 4425,
      "Ġagreeably": 4426,
      "Ġshortly": 4427,
      "Ġappearing": 4428,
      "Ġcontinuing": 4429,
      "Ġanswering": 4430,
      "Ġpromising": 4431,
      "ivity": 4432,
      "Ġdecide": 4433,
      "Ġpropose": 4434,
      "Ġstrongest": 4435,
      "Ġapproached": 4436,
      "Ġboiled": 4437,
      "Ġpowerful": 4438,
      "Ġexample": 4439,
      "Ġexciting": 4440,
      "Ġremove": 4441,
      "Ġthankful": 4442,
      "Ġstoop": 4443,
      "Ġhonoured": 4444,
      "Ġelev": 4445,
      "Ġmentioning": 4446,
      "Ġpainful": 4447,
      "Ġlikes": 4448,
      "picious": 4449,
      "Ġoppose": 4450,
      "Ġexception": 4451,
      "Ġrecommending": 4452,
      "Ġdetermination": 4453,
      "Ġsweep": 4454,
      "Ġfreed": 4455,
      "Ġpattern": 4456,
      "Ġarrive": 4457,
      "Ġarriving": 4458,
      "Ġincluded": 4459,
      "Ġexplore": 4460,
      "Ġoccasionally": 4461,
      "Ġsuspecting": 4462,
      "Ġgentlemanlike": 4463,
      "Ġremains": 4464,
      "urious": 4465,
      "Ġpraised": 4466,
      "Ġexcellence": 4467,
      "Ġpersuading": 4468,
      "Ġregretted": 4469,
      "Ġguessing": 4470,
      "Ġsufferings": 4471,
      "Ġforgiven": 4472,
      "Ġcounter": 4473,
      "Ġcounsel": 4474,
      "Ġslightest": 4475,
      "grateful": 4476,
      "Ġfinery": 4477,
      "Ġintroducing": 4478,
      "Ġoffers": 4479,
      "Ġsinging": 4480,
      "Ġmodest": 4481,
      "Ġmodern": 4482,
      "Ġworking": 4483,
      "Ġcommunications": 4484,
      "except": 4485,
      "Ġrelate": 4486,
      "Ġrelative": 4487,
      "Ġsummon": 4488,
      "Ġstrugg": 4489,
      "Ġmortifying": 4490,
      "Ġsuddenly": 4491,
      "Ġeffects": 4492,
      "Ġsighing": 4493,
      "Ġprovided": 4494,
      "Ġpencil": 4495,
      "Ġdearer": 4496,
      "Ġpresumed": 4497,
      "Ġspending": 4498,
      "Ġdescribed": 4499,
      "Ġacknowledging": 4500,
      "Ġvariety": 4501,
      "Ġinferiority": 4502,
      "Ġutter": 4503,
      "Ġcutting": 4504,
      "Ġsucceeding": 4505,
      "Ġthousands": 4506,
      "Ġgrief": 4507,
      "Ġastonishing": 4508,
      "Ġholds": 4509,
      "thened": 4510,
      "Ġcongratulate": 4511,
      "Ġfearful": 4512,
      "Ġpreparing": 4513,
      "Ġentertaining": 4514,
      "Ġformerly": 4515,
      "rehension": 4516,
      "Ġshocking": 4517,
      "Ġwretchedness": 4518,
      "Ġmixed": 4519,
      "Ġhesitated": 4520,
      "Ġcoxes": 4521,
      "ĠĠĠĠĠĠĠĠĠĠĠĠĠĠĠĠĠĠĠĠĠĠĠĠĠĠĠĠĠĠĠĠ": 4522,
      "Ġavoiding": 4523,
      "Ġbecomes": 4524,
      "Ġrelieved": 4525,
      "Ġimpatience": 4526,
      "from": 4527,
      "Ġbenefit": 4528,
      "Ġnicely": 4529,
      "Ġdevoted": 4530,
      "Ġapology": 4531,
      "Ġannounced": 4532,
      "Ġtreated": 4533,
      "Ġkingd": 4534,
      "Ġadmirer": 4535,
      "Ġprincipally": 4536,
      "Ġmutual": 4537,
      "Ġcards": 4538,
      "Ġhasty": 4539,
      "Ġanimated": 4540,
      "Ġartless": 4541,
      "Ġhorseback": 4542,
      "Ġfeature": 4543,
      "Ġassurances": 4544,
      "Ġreconci": 4545,
      "Ġgravely": 4546,
      "Ġestablished": 4547,
      "Ġbasket": 4548,
      "Ġrequires": 4549,
      "Ġsleeping": 4550,
      "Ġowed": 4551,
      "Ġcandour": 4552,
      "Ġphrase": 4553,
      "Ġsteadily": 4554,
      "Ġunwelcome": 4555,
      "Ġaffairs": 4556,
      "Ġridiculous": 4557,
      "Ġpossession": 4558,
      "Ġaccording": 4559,
      "Ġslowly": 4560,
      "Ġforesee": 4561,
      "Ġoriginal": 4562,
      "sembled": 4563,
      "Ġprocuring": 4564,
      "Ġconfirmed": 4565,
      "Ġrestraint": 4566,
      "Ġsorrowful": 4567,
      "chard": 4568,
      "Ġostler": 4569,
      "Ġpunct": 4570,
      "Ġcontempl": 4571,
      "Ġuncomfortable": 4572,
      "Ġabruptly": 4573,
      "Ġspeedily": 4574,
      "Ġrestored": 4575,
      "Ġdignity": 4576,
      "Ġdisinterest": 4577,
      "Ġpopular": 4578,
      "Ġobtained": 4579,
      "Ġprivilege": 4580,
      "Ġdiscussion": 4581,
      "Ġprosperous": 4582,
      "Ġdrinking": 4583,
      "Ġembarrassment": 4584,
      "Ġvoluntarily": 4585,
      "Ġsoftened": 4586,
      "Ġjealousy": 4587,
      "Ġbarely": 4588,
      "Ġpalp": 4589,
      "Ġthird": 4590,
      "Ġstudy": 4591,
      "Ġabundance": 4592,
      "Ġpointed": 4593,
      "Ġcoachman": 4594,
      "Ġriddle": 4595,
      "Ġrepetition": 4596,
      "Ġargument": 4597,
      "Ġuncertainty": 4598,
      "Ġsympathy": 4599,
      "Ġtrembling": 4600,
      "Ġtranquillity": 4601,
      "Ġunsuspicious": 4602,
      "Ġshrubbery": 4603,
      "Ġpenetration": 4604,
      "woman": 4605,
      "Ġotway": 4606,
      "Ġseptember": 4607,
      "Ġseclusion": 4608,
      "Ġmischief": 4609,
      "Ġvouch": 4610,
      "Ġspeculation": 4611,
      "Ġarticle": 4612,
      "Ġdespair": 4613,
      "Ġretirement": 4614,
      "Ġacquiescence": 4615,
      "Ġinvalid": 4616,
      "Ġdecisive": 4617,
      "Ġhorrible": 4618,
      "Ġraptures": 4619,
      "Ġnegligent": 4620,
      "Ġtravelling": 4621,
      "Ġencounter": 4622,
      "Ġirresistible": 4623,
      "Ġearth": 4624,
      "Ġhodges": 4625,
      "Ġincessant": 4626,
      "Ġnovember": 4627,
      "Ġresemblance": 4628,
      "Ġangel": 4629,
      "Ġunusual": 4630,
      "Ġunwholesome": 4631,
      "Ġungracious": 4632,
      "Ġspruce": 4633,
      "Ġhandwriting": 4634,
      "Ġdisinterested": 4635,
      "'d": 4636,
      ").": 4637,
      ".)": 4638,
      "00": 4639,
      ";\"--": 4640,
      "_,\"": 4641,
      "ale": 4642,
      "bing": 4643,
      "bid": 4644,
      "bro": 4645,
      "bred": 4646,
      "bted": 4647,
      "caut": 4648,
      "don": 4649,
      "dain": 4650,
      "evi": 4651,
      "fri": 4652,
      "gl": 4653,
      "go": 4654,
      "gam": 4655,
      "hod": 4656,
      "houses": 4657,
      "iver": 4658,
      "ife": 4659,
      "iving": 4660,
      "john": 4661,
      "length": 4662,
      "nes": 4663,
      "nod": 4664,
      "nonsense": 4665,
      "oat": 4666,
      "ober": 4667,
      "pit": 4668,
      "ply": 4669,
      "press": 4670,
      "posed": 4671,
      "pret": 4672,
      "pulous": 4673,
      "rat": 4674,
      "sight": 4675,
      "sum": 4676,
      "sized": 4677,
      "tr": 4678,
      "till": 4679,
      "table": 4680,
      "take": 4681,
      "tete": 4682,
      "true": 4683,
      "uly": 4684,
      "uous": 4685,
      "voured": 4686,
      "Ġze": 4687,
      "Ġtid": 4688,
      "Ġtree": 4689,
      "Ġtete": 4690,
      "Ġaro": 4691,
      "inations": 4692,
      "Ġsan": 4693,
      "Ġsly": 4694,
      "Ġsli": 4695,
      "Ġwal": 4696,
      "Ġwound": 4697,
      "Ġwond": 4698,
      "Ġwick": 4699,
      "Ġwright": 4700,
      "Ġmain": 4701,
      "Ġmil": 4702,
      "rep": 4703,
      "Ġoct": 4704,
      "Ġbow": 4705,
      "Ġbank": 4706,
      "Ġballs": 4707,
      "Ġbought": 4708,
      "Ġii": 4709,
      "Ġiii": 4710,
      "erg": 4711,
      "erous": 4712,
      "Ġcre": 4713,
      "Ġcow": 4714,
      "Ġcous": 4715,
      "Ġcruel": 4716,
      "Ġfid": 4717,
      "Ġfill": 4718,
      "inger": 4719,
      "Ġhang": 4720,
      "Ġnar": 4721,
      "Ġnarr": 4722,
      "Ġdied": 4723,
      "Ġdouble": 4724,
      "Ġdiver": 4725,
      "iti": 4726,
      "ital": 4727,
      "itions": 4728,
      "isis": 4729,
      "isser": 4730,
      "ishes": 4731,
      "Ġpet": 4732,
      "Ġpounds": 4733,
      "lend": 4734,
      "Ġess": 4735,
      "ashed": 4736,
      "Ġhos": 4737,
      "Ġinn": 4738,
      "Ġinjust": 4739,
      "verance": 4740,
      "Ġgather": 4741,
      "Ġland": 4742,
      "Ġshel": 4743,
      "Ġthither": 4744,
      "uted": 4745,
      "ching": 4746,
      "Ġremon": 4747,
      "Ġrevi": 4748,
      "Ġreign": 4749,
      "Ġrelu": 4750,
      "Ġreception": 4751,
      "Ġreverse": 4752,
      "Ġreappe": 4753,
      "Ġrejected": 4754,
      "Ġassent": 4755,
      "Ġaside": 4756,
      "Ġassembled": 4757,
      "imens": 4758,
      "Ġsuitable": 4759,
      "iding": 4760,
      "idious": 4761,
      "Ġweight": 4762,
      "Ġwelf": 4763,
      "Ġupp": 4764,
      "Ġsoot": 4765,
      "Ġsober": 4766,
      "Ġsolit": 4767,
      "ode": 4768,
      "almost": 4769,
      "Ġwhist": 4770,
      "Ġwhims": 4771,
      "Ġkilled": 4772,
      "urd": 4773,
      "ural": 4774,
      "urity": 4775,
      "urbation": 4776,
      "adows": 4777,
      "Ġallevi": 4778,
      "rob": 4779,
      "root": 4780,
      "Ġmeadows": 4781,
      "tering": 4782,
      "quality": 4783,
      "quarter": 4784,
      "Ġdeb": 4785,
      "Ġdepart": 4786,
      "Ġdeemed": 4787,
      "Ġseas": 4788,
      "Ġconund": 4789,
      "Ġconcur": 4790,
      "Ġdozen": 4791,
      "Ġcommend": 4792,
      "Ġsau": 4793,
      "ainted": 4794,
      "Ġjoint": 4795,
      "Ġmystery": 4796,
      "Ġstable": 4797,
      "Ġstret": 4798,
      "Ġstairs": 4799,
      "Ġstokes": 4800,
      "othed": 4801,
      "Ġextens": 4802,
      "icing": 4803,
      "icious": 4804,
      "ularly": 4805,
      "meaning": 4806,
      "Ġlevel": 4807,
      "antity": 4808,
      "Ġperfor": 4809,
      "Ġperception": 4810,
      "Ġpermitted": 4811,
      "lies": 4812,
      "live": 4813,
      "Ġshif": 4814,
      "Ġalas": 4815,
      "Ġalong": 4816,
      "Ġalpha": 4817,
      "Ġquit": 4818,
      "Ġquantity": 4819,
      "Ġvac": 4820,
      "Ġdisper": 4821,
      "Ġdissu": 4822,
      "Ġdisappe": 4823,
      "Ġdisdain": 4824,
      "Ġchuses": 4825,
      "Ġpretens": 4826,
      "Ġenv": 4827,
      "Ġintently": 4828,
      "Ġintending": 4829,
      "Ġunion": 4830,
      "Ġunaf": 4831,
      "Ġunfair": 4832,
      "Ġunfit": 4833,
      "Ġunknown": 4834,
      "Ġungrateful": 4835,
      "Ġyours": 4836,
      "Ġproving": 4837,
      "Ġcauses": 4838,
      "ivete": 4839,
      "!--(": 4840,
      "Ġcompet": 4841,
      "Ġcomprehension": 4842,
      "Ġwoodhouses": 4843,
      "elt": 4844,
      "eling": 4845,
      "unk": 4846,
      "unction": 4847,
      "Ġowned": 4848,
      "Ġspace": 4849,
      "Ġsomewhat": 4850,
      "Ġsomewhere": 4851,
      "ache": 4852,
      "Ġattract": 4853,
      "bute": 4854,
      "Ġthoughtless": 4855,
      "oso": 4856,
      "abilities": 4857,
      "rum": 4858,
      "Ġusually": 4859,
      "Ġbeforehand": 4860,
      "Ġresign": 4861,
      "Ġresidence": 4862,
      "Ġlikewise": 4863,
      "think": 4864,
      "fected": 4865,
      "Ġwiser": 4866,
      "Ġconsulting": 4867,
      "Ġconsulted": 4868,
      "Ġchaise": 4869,
      "Ġlonging": 4870,
      "Ġindebted": 4871,
      "them": 4872,
      "Ġyoungest": 4873,
      "Ġtalks": 4874,
      "Ġmarries": 4875,
      "Ġimpert": 4876,
      "Ġimplied": 4877,
      "Ġbathing": 4878,
      "onduct": 4879,
      "Ġsupplanted": 4880,
      "Ġarrow": 4881,
      "Ġwalks": 4882,
      "Ġsubsequ": 4883,
      "Ġbrings": 4884,
      "Ġbrisk": 4885,
      "Ġhears": 4886,
      "ĠĠĠĠĠĠĠ": 4887,
      "Ġdesper": 4888,
      "Ġminds": 4889,
      "Ġcontained": 4890,
      "Ġcontaining": 4891,
      ";--\"": 4892,
      "Ġhanded": 4893,
      "Ġtrain": 4894,
      "Ġtrade": 4895,
      "Ġassert": 4896,
      "Ġassuming": 4897,
      "Ġindub": 4898,
      "Ġblank": 4899,
      "Ġblue": 4900,
      "Ġblock": 4901,
      "beer": 4902,
      "Ġtear": 4903,
      "Ġteacher": 4904,
      "Ġscra": 4905,
      "Ġwriter": 4906,
      "Ġconsiders": 4907,
      "Ġconsiderably": 4908,
      "Ġfewer": 4909,
      "Ġseries": 4910,
      "Ġclub": 4911,
      "Ġrightly": 4912,
      "Ġallowing": 4913,
      "Ġallowable": 4914,
      "Ġglimp": 4915,
      "Ġgloves": 4916,
      "Ġglancing": 4917,
      "Ġcharitable": 4918,
      "Ġcharades": 4919,
      "Ġgenerous": 4920,
      "Ġgenerosity": 4921,
      "Ġimaginary": 4922,
      "Ġconfused": 4923,
      "Ġconfident": 4924,
      "Ġpale": 4925,
      "Ġfortitude": 4926,
      "Ġsecurity": 4927,
      "Ġadvent": 4928,
      "Ġadvance": 4929,
      "Ġadvised": 4930,
      "Ġexpectations": 4931,
      "Ġaddressed": 4932,
      "Ġgets": 4933,
      "monious": 4934,
      "Ġinviting": 4935,
      "Ġexposed": 4936,
      "Ġdownstairs": 4937,
      "Ġresolving": 4938,
      "vial": 4939,
      "Ġlessen": 4940,
      "Ġagreeing": 4941,
      "Ġwives": 4942,
      "Ġcomplain": 4943,
      "Ġcomplac": 4944,
      "Ġappearances": 4945,
      "Ġcareful": 4946,
      "Ġcareless": 4947,
      "Ġkey": 4948,
      "Ġpromoted": 4949,
      "Ġpromote": 4950,
      "Ġpromises": 4951,
      "Ġacted": 4952,
      "Ġactivity": 4953,
      "Ġcolds": 4954,
      "Ġobjections": 4955,
      "Ġfanciful": 4956,
      "Ġdonke": 4957,
      "Ġaccounts": 4958,
      "Ġthroughout": 4959,
      "aimed": 4960,
      "Ġcleared": 4961,
      "Ġclevere": 4962,
      "Ġapproving": 4963,
      "Ġequality": 4964,
      "Ġboot": 4965,
      "Ġflattered": 4966,
      "Ġexact": 4967,
      "Ġbrothers": 4968,
      "Ġsentence": 4969,
      "Ġexchan": 4970,
      "Ġremiss": 4971,
      "Ġformal": 4972,
      "Ġslave": 4973,
      "Ġairing": 4974,
      "Ġsettling": 4975,
      "Ġsenses": 4976,
      "Ġstock": 4977,
      "Ġstopping": 4978,
      "Ġprize": 4979,
      "Ġgratifying": 4980,
      "Ġdrawings": 4981,
      "Ġregarded": 4982,
      "Ġneedless": 4983,
      "Ġopposed": 4984,
      "Ġplays": 4985,
      "Ġfondly": 4986,
      "Ġhumili": 4987,
      "Ġheadache": 4988,
      "Ġenjoying": 4989,
      "Ġdetermine": 4990,
      "Ġcharmingly": 4991,
      "Ġquestioned": 4992,
      "onscious": 4993,
      "Ġlawn": 4994,
      "Ġdeclining": 4995,
      "Ġdeserving": 4996,
      "Ġtrial": 4997,
      "Ġmethod": 4998,
      "Ġpath": 4999,
      "Ġpatient": 5000,
      "Ġconceited": 5001,
      "Ġdiscreet": 5002,
      "Ġdiscovered": 5003,
      "Ġdiscretion": 5004,
      "Ġimpossibility": 5005,
      "Ġshoes": 5006,
      "Ġuncon": 5007,
      "Ġunconscious": 5008,
      "Ġtruths": 5009,
      "Ġcrit": 5010,
      "Ġcrisis": 5011,
      "Ġbelow": 5012,
      "Ġpays": 5013,
      "Ġexplain": 5014,
      "Ġhandsomely": 5015,
      "Ġoccasioned": 5016,
      "Ġrequisite": 5017,
      "Ġhusbands": 5018,
      "Ġcommitted": 5019,
      "Ġsimil": 5020,
      "Ġattendance": 5021,
      "Ġballroom": 5022,
      "Ġliveliness": 5023,
      "Ġinsp": 5024,
      "Ġinsolent": 5025,
      "Ġinsensible": 5026,
      "Ġconsequently": 5027,
      "Ġfinish": 5028,
      "Ġproceeding": 5029,
      "zement": 5030,
      "Ġmodel": 5031,
      "Ġproducing": 5032,
      "Ġtendency": 5033,
      "Ġmadness": 5034,
      "Ġirish": 5035,
      "Ġrelated": 5036,
      "Ġrelations": 5037,
      "Ġvalued": 5038,
      "Ġintelligent": 5039,
      "Ġforest": 5040,
      "Ġoccupation": 5041,
      "Ġbelonging": 5042,
      "Ġinferred": 5043,
      "Ġproofs": 5044,
      "Ġdelays": 5045,
      "Ġblinded": 5046,
      "Ġconcealing": 5047,
      "Ġdenied": 5048,
      "Ġunpret": 5049,
      "Ġunpardon": 5050,
      "Ġprovide": 5051,
      "Ġscrupulous": 5052,
      "Ġconfessing": 5053,
      "Ġconfession": 5054,
      "Ġrunning": 5055,
      "Ġindulged": 5056,
      "Ġerrors": 5057,
      "Ġmidsum": 5058,
      "Ġspeeches": 5059,
      "Ġfireside": 5060,
      "Ġdriving": 5061,
      "Ġconcluded": 5062,
      "Ġconcluding": 5063,
      "Ġvaried": 5064,
      "Ġavoided": 5065,
      "Ġendeavoured": 5066,
      "beds": 5067,
      "Ġtreas": 5068,
      "Ġtouched": 5069,
      "Ġseparation": 5070,
      "Ġentreated": 5071,
      "Ġexclaiming": 5072,
      "Ġdestined": 5073,
      "Ġreproof": 5074,
      "Ġdirections": 5075,
      "Ġprivations": 5076,
      "Ġquarrelled": 5077,
      "look": 5078,
      "Ġpreparatory": 5079,
      "Ġrepeatedly": 5080,
      "Ġnephews": 5081,
      "Ġcatching": 5082,
      "Ġhesitate": 5083,
      "Ġstriking": 5084,
      "Ġcontrive": 5085,
      "Ġclearness": 5086,
      "Ġprofession": 5087,
      "Ġcompassionate": 5088,
      "Ġinconvenient": 5089,
      "Ġstrengthened": 5090,
      "Ġsickly": 5091,
      "Ġdevot": 5092,
      "Ġhappening": 5093,
      "Ġimproved": 5094,
      "Ġmaterially": 5095,
      "Ġunexpected": 5096,
      "Ġinquiring": 5097,
      "Ġannouncing": 5098,
      "Ġinjured": 5099,
      "Ġmeasles": 5100,
      "Ġfamiliar": 5101,
      "Ġtrifle": 5102,
      "nature": 5103,
      "Ġamazed": 5104,
      "Ġamazement": 5105,
      "Ġsignific": 5106,
      "Ġdivided": 5107,
      "Ġpositive": 5108,
      "Ġcooler": 5109,
      "Ġapparently": 5110,
      "Ġadditional": 5111,
      "Ġflattery": 5112,
      "Ġflattering": 5113,
      "Ġcollecting": 5114,
      "Ġignorance": 5115,
      "Ġmoderately": 5116,
      "Ġvexed": 5117,
      "Ġbasin": 5118,
      "Ġpupp": 5119,
      "Ġeighteen": 5120,
      "Ġinequality": 5121,
      "Ġapprehensive": 5122,
      "Ġgraceful": 5123,
      "Ġinducement": 5124,
      "knightley": 5125,
      "Ġcordially": 5126,
      "Ġlatest": 5127,
      "Ġreaching": 5128,
      "Ġsteadiness": 5129,
      "Ġaccordingly": 5130,
      "Ġcomplaints": 5131,
      "Ġprompted": 5132,
      "Ġprevail": 5133,
      "Ġirritation": 5134,
      "Ġtranquil": 5135,
      "Ġanticipation": 5136,
      "Ġunwillingness": 5137,
      "cannot": 5138,
      "Ġingrat": 5139,
      "Ġgaiety": 5140,
      "Ġpreserved": 5141,
      "Ġprocure": 5142,
      "Ġconfirm": 5143,
      "Ġpursuit": 5144,
      "Ġaccompanied": 5145,
      "Ġmaintain": 5146,
      "Ġmaintained": 5147,
      "Ġpunishment": 5148,
      "Ġcontempt": 5149,
      "Ġuncommon": 5150,
      "Ġunlikely": 5151,
      "Ġrecovering": 5152,
      "Ġinconsider": 5153,
      "Ġgraciously": 5154,
      "Ġdiscoveries": 5155,
      "Ġselfishness": 5156,
      "Ġwitnessed": 5157,
      "Ġwhispering": 5158,
      "Ġfatigued": 5159,
      "Ġperplexity": 5160,
      "Ġoffended": 5161,
      "Ġdecember": 5162,
      "Ġconjectures": 5163,
      "Ġperturbation": 5164,
      "Ġperseverance": 5165,
      "Ġparents": 5166,
      "Ġboasted": 5167,
      "Ġluxury": 5168,
      "Ġpushed": 5169,
      "Ġthreatened": 5170,
      "Ġmisconduct": 5171,
      "Ġalertness": 5172,
      "Ġspoiled": 5173,
      "Ġoverpowered": 5174,
      "Ġsurmise": 5175,
      "Ġdegradation": 5176,
      "Ġesteem": 5177,
      "cerity": 5178,
      "Ġastley": 5179,
      "Ġsincerity": 5180,
      "Ġperpetual": 5181,
      "Ġdissip": 5182,
      "Ġpresence": 5183,
      "Ġshark": 5184,
      "Ġsubdued": 5185,
      "Ġcheeks": 5186,
      "Ġwelcomed": 5187,
      "Ġsolicitous": 5188,
      "Ġbenevolence": 5189,
      "Ġamazing": 5190,
      "Ġeligible": 5191,
      "Ġinevitable": 5192,
      "Ġmisunderstandings": 5193,
      "time": 5194,
      "Ġamends": 5195,
      "Ġswisser": 5196,
      "Ġoperation": 5197,
      "Ġnaivete": 5198,
      "Ġdwelt": 5199,
      "Ġgeorge": 5200,
      "Ġdeficiency": 5201,
      "Ġexperience": 5202,
      "Ġexultation": 5203,
      "Ġvoices": 5204,
      "Ġvigor": 5205,
      "Ġunlucky": 5206,
      "Ġuniversally": 5207,
      "Ġadopt": 5208,
      "Ġribbon": 5209,
      "Ġsurrounded": 5210,
      "Ġkingdom": 5211,
      "Ġpopularity": 5212,
      "Ġvouchs": 5213,
      "gammon": 5214,
      "nodding": 5215,
      "Ġzeal": 5216,
      "Ġarose": 5217,
      "Ġsanction": 5218,
      "Ġwondered": 5219,
      "Ġwicked": 5220,
      "Ġoctober": 5221,
      "Ġfidget": 5222,
      "Ġnarrow": 5223,
      "Ġinjustice": 5224,
      "Ġremonst": 5225,
      "Ġreluct": 5226,
      "Ġwelfare": 5227,
      "Ġupper": 5228,
      "Ġconundrum": 5229,
      "Ġconcurrence": 5230,
      "Ġextensive": 5231,
      "Ġalphabet": 5232,
      "Ġunaffected": 5233,
      "Ġsubsequent": 5234,
      "Ġindubitable": 5235,
      "Ġglimpse": 5236,
      "Ġhumiliation": 5237,
      "Ġmidsummer": 5238,
      "Ġswisserland": 5239,
      "!'--": 5240,
      ",--\"": 5241,
      "_;": 5242,
      "_.--": 5243,
      "ais": 5244,
      "afe": 5245,
      "ament": 5246,
      "airc": 5247,
      "boy": 5248,
      "both": 5249,
      "bye": 5250,
      "bread": 5251,
      "con": 5252,
      "cher": 5253,
      "cal": 5254,
      "chan": 5255,
      "col": 5256,
      "cies": 5257,
      "cuse": 5258,
      "count": 5259,
      "cause": 5260,
      "cons": 5261,
      "den": 5262,
      "dent": 5263,
      "dious": 5264,
      "dling": 5265,
      "ef": 5266,
      "ele": 5267,
      "eur": 5268,
      "even": 5269,
      "ff": 5270,
      "fir": 5271,
      "fted": 5272,
      "fied": 5273,
      "gen": 5274,
      "gate": 5275,
      "great": 5276,
      "give": 5277,
      "gged": 5278,
      "hic": 5279,
      "humph": 5280,
      "iation": 5281,
      "ips": 5282,
      "iction": 5283,
      "ivering": 5284,
      "low": 5285,
      "long": 5286,
      "might": 5287,
      "mind": 5288,
      "mitting": 5289,
      "net": 5290,
      "ob": 5291,
      "ph": 5292,
      "path": 5293,
      "priety": 5294,
      "rs": 5295,
      "ron": 5296,
      "rity": 5297,
      "rust": 5298,
      "rances": 5299,
      "sm": 5300,
      "say": 5301,
      "spe": 5302,
      "since": 5303,
      "small": 5304,
      "saw": 5305,
      "scur": 5306,
      "tom": 5307,
      "tily": 5308,
      "uation": 5309,
      "ume": 5310,
      "uine": 5311,
      "vent": 5312,
      "vance": 5313,
      "vity": 5314,
      "vag": 5315,
      "wood": 5316,
      "yer": 5317,
      "Ġ&": 5318,
      "Ġ1": 5319,
      "Ġver": 5320,
      "Ġter": 5321,
      "Ġtest": 5322,
      "Ġach": 5323,
      "Ġaid": 5324,
      "Ġade": 5325,
      "Ġalive": 5326,
      "inct": 5327,
      "informed": 5328,
      "Ġsne": 5329,
      "Ġsang": 5330,
      "Ġsins": 5331,
      "Ġwar": 5332,
      "Ġwand": 5333,
      "Ġwild": 5334,
      "Ġmour": 5335,
      "rec": 5336,
      "rew": 5337,
      "rell": 5338,
      "rees": 5339,
      "rely": 5340,
      "requ": 5341,
      "reci": 5342,
      "recy": 5343,
      "Ġox": 5344,
      "Ġodious": 5345,
      "Ġbon": 5346,
      "Ġbot": 5347,
      "Ġburn": 5348,
      "Ġbond": 5349,
      "Ġbick": 5350,
      "Ġbili": 5351,
      "Ġbowed": 5352,
      "Ġiv": 5353,
      "Ġix": 5354,
      "erton": 5355,
      "erably": 5356,
      "nding": 5357,
      "Ġcent": 5358,
      "Ġcast": 5359,
      "Ġcake": 5360,
      "Ġcough": 5361,
      "Ġcured": 5362,
      "Ġcustom": 5363,
      "Ġtop": 5364,
      "Ġfly": 5365,
      "Ġfet": 5366,
      "Ġfood": 5367,
      "Ġfif": 5368,
      "Ġfield": 5369,
      "Ġfaint": 5370,
      "Ġfinger": 5371,
      "Ġheir": 5372,
      "Ġheated": 5373,
      "Ġnay": 5374,
      "Ġnine": 5375,
      "Ġnorth": 5376,
      "Ġnames": 5377,
      "Ġnaming": 5378,
      "Ġder": 5379,
      "Ġdent": 5380,
      "Ġdul": 5381,
      "Ġdrove": 5382,
      "Ġdial": 5383,
      "Ġdarted": 5384,
      "Ġbeat": 5385,
      "lls": 5386,
      "itly": 5387,
      "itate": 5388,
      "itche": 5389,
      "isy": 5390,
      "iser": 5391,
      "isions": 5392,
      "Ġpul": 5393,
      "Ġport": 5394,
      "Ġpack": 5395,
      "Ġpang": 5396,
      "Ġprudent": 5397,
      "ashes": 5398,
      "oration": 5399,
      "orable": 5400,
      "orily": 5401,
      "Ġhit": 5402,
      "Ġhom": 5403,
      "Ġhind": 5404,
      "Ġhol": 5405,
      "Ġhug": 5406,
      "ans": 5407,
      "anter": 5408,
      "another": 5409,
      "Ġinch": 5410,
      "Ġinim": 5411,
      "Ġinno": 5412,
      "Ġinfection": 5413,
      "Ġnovel": 5414,
      "atis": 5415,
      "atively": 5416,
      "attere": 5417,
      "arch": 5418,
      "omer": 5419,
      "vert": 5420,
      "verty": 5421,
      "Ġyell": 5422,
      "Ġgame": 5423,
      "Ġlod": 5424,
      "Ġliter": 5425,
      "Ġnoticing": 5426,
      "ste": 5427,
      "still": 5428,
      "start": 5429,
      "stead": 5430,
      "street": 5431,
      "Ġthirty": 5432,
      "utable": 5433,
      "sec": 5434,
      "ril": 5435,
      "Ġreward": 5436,
      "Ġrefer": 5437,
      "ential": 5438,
      "Ġaspar": 5439,
      "Ġascertain": 5440,
      "Ġforlor": 5441,
      "Ġforbid": 5442,
      "Ġsuits": 5443,
      "iday": 5444,
      "idity": 5445,
      "Ġwithdra": 5446,
      "iring": 5447,
      "irth": 5448,
      "ctions": 5449,
      "Ġumb": 5450,
      "Ġsold": 5451,
      "Ġissu": 5452,
      "odig": 5453,
      "als": 5454,
      "Ġkings": 5455,
      "Ġmult": 5456,
      "add": 5457,
      "adable": 5458,
      "ightforward": 5459,
      "Ġknock": 5460,
      "Ġalloy": 5461,
      "Ġallusion": 5462,
      "robation": 5463,
      "rogance": 5464,
      "Ġmemor": 5465,
      "quate": 5466,
      "Ġdead": 5467,
      "Ġdeceive": 5468,
      "Ġsees": 5469,
      "Ġsevent": 5470,
      "Ġconc": 5471,
      "Ġconfer": 5472,
      "Ġconceived": 5473,
      "Ġdoating": 5474,
      "Ġcomb": 5475,
      "bless": 5476,
      "lful": 5477,
      "Ġstom": 5478,
      "Ġstout": 5479,
      "Ġstarted": 5480,
      "Ġstairc": 5481,
      "Ġmiserably": 5482,
      "Ġexulting": 5483,
      "Ġexec": 5484,
      "icable": 5485,
      "ically": 5486,
      "ician": 5487,
      "ulation": 5488,
      "felt": 5489,
      "Ġfee": 5490,
      "Ġloin": 5491,
      "Ġlovers": 5492,
      "Ġlocal": 5493,
      "ants": 5494,
      "antation": 5495,
      "antry": 5496,
      "Ġmissing": 5497,
      "Ġfame": 5498,
      "Ġfaces": 5499,
      "Ġpercei": 5500,
      "Ġperman": 5501,
      "liation": 5502,
      "liven": 5503,
      "lihood": 5504,
      "Ġalac": 5505,
      "Ġorn": 5506,
      "Ġlie": 5507,
      "Ġrom": 5508,
      "Ġrout": 5509,
      "Ġrus": 5510,
      "Ġrough": 5511,
      "Ġrum": 5512,
      "Ġrub": 5513,
      "Ġrode": 5514,
      "ittle": 5515,
      "oked": 5516,
      "Ġva": 5517,
      "Ġvill": 5518,
      "Ġdisord": 5519,
      "Ġeverywhere": 5520,
      "Ġpreced": 5521,
      "Ġenerg": 5522,
      "Ġenliven": 5523,
      "Ġunf": 5524,
      "Ġunm": 5525,
      "Ġunite": 5526,
      "Ġunnot": 5527,
      "Ġunnat": 5528,
      "Ġabilities": 5529,
      "Ġprose": 5530,
      "Ġproject": 5531,
      "Ġpondered": 5532,
      "Ġpoverty": 5533,
      "Ġshoulders": 5534,
      "Ġlittleness": 5535,
      "ifully": 5536,
      "Ġbeings": 5537,
      "Ġupstart": 5538,
      "Ġpartridge": 5539,
      "Ġcovered": 5540,
      "Ġcoarse": 5541,
      "usable": 5542,
      "Ġfriday": 5543,
      "Ġcomplying": 5544,
      "Ġworn": 5545,
      "unted": 5546,
      "Ġfriendliness": 5547,
      "ndering": 5548,
      "ieces": 5549,
      "Ġshad": 5550,
      "Ġshaking": 5551,
      "Ġsport": 5552,
      "Ġsposo": 5553,
      "ecting": 5554,
      "Ġpleases": 5555,
      "Ġpleasanter": 5556,
      "acing": 5557,
      "account": 5558,
      "Ġfairy": 5559,
      "Ġobst": 5560,
      "Ġobscur": 5561,
      "Ġattri": 5562,
      "Ġattitude": 5563,
      "olved": 5564,
      "abs": 5565,
      "Ġwisest": 5566,
      "perfect": 5567,
      "pless": 5568,
      "plete": 5569,
      "Ġconsist": 5570,
      "ires": 5571,
      "Ġspec": 5572,
      "Ġlongest": 5573,
      "Ġsurely": 5574,
      "arest": 5575,
      "jection": 5576,
      "Ġtalkative": 5577,
      "Ġgrant": 5578,
      "Ġmarking": 5579,
      "Ġimped": 5580,
      "Ġimpart": 5581,
      "Ġimpud": 5582,
      "Ġimpressed": 5583,
      "Ġimprudence": 5584,
      "Ġriver": 5585,
      "Ġrichard": 5586,
      "Ġoverlook": 5587,
      "comb": 5588,
      "coming": 5589,
      "Ġapril": 5590,
      "success": 5591,
      "suadable": 5592,
      "ounted": 5593,
      "claimed": 5594,
      "Ġprodig": 5595,
      "Ġdelusion": 5596,
      "cked": 5597,
      "Ġarch": 5598,
      "Ġarrogance": 5599,
      "Ġbelieving": 5600,
      "Ġsubs": 5601,
      "Ġsubmiss": 5602,
      "Ġsubmission": 5603,
      "Ġsubmit": 5604,
      "Ġhereafter": 5605,
      "Ġkindest": 5606,
      "agus": 5607,
      "ague": 5608,
      "Ġapplied": 5609,
      "Ġpasses": 5610,
      "ĠĠĠĠĠĠ": 5611,
      "Ġretract": 5612,
      "Ġloveliness": 5613,
      "Ġdoubly": 5614,
      "Ġlasted": 5615,
      "arying": 5616,
      "Ġmoral": 5617,
      "Ġcomforted": 5618,
      "Ġdistrust": 5619,
      "amation": 5620,
      "Ġindust": 5621,
      "Ġindiv": 5622,
      "Ġblow": 5623,
      "Ġoblige": 5624,
      "Ġpresented": 5625,
      "Ġacquire": 5626,
      "Ġacquired": 5627,
      "ildered": 5628,
      "Ġregularly": 5629,
      "Ġcaro": 5630,
      "Ġcaring": 5631,
      "Ġscold": 5632,
      "Ġscattered": 5633,
      "ceptions": 5634,
      "Ġconsiderate": 5635,
      "sery": 5636,
      "Ġending": 5637,
      "Ġserle": 5638,
      "Ġserve": 5639,
      "Ġclos": 5640,
      "Ġcloud": 5641,
      "Ġgenuine": 5642,
      "Ġallowances": 5643,
      "Ġunderstands": 5644,
      "Ġchanging": 5645,
      "Ġglass": 5646,
      "Ġgloom": 5647,
      "Ġdealing": 5648,
      "Ġfoundation": 5649,
      "Ġfamous": 5650,
      "Ġoftener": 5651,
      "Ġrecent": 5652,
      "Ġrecall": 5653,
      "Ġasks": 5654,
      "Ġspirited": 5655,
      "Ġgentleness": 5656,
      "Ġinstances": 5657,
      "Ġsecuring": 5658,
      "Ġsecres": 5659,
      "Ġsecrecy": 5660,
      "Ġadvoc": 5661,
      "Ġadvanced": 5662,
      "Ġstring": 5663,
      "Ġprettily": 5664,
      "Ġadmiss": 5665,
      "Ġaffectedly": 5666,
      "Ġhardship": 5667,
      "month": 5668,
      "Ġrefined": 5669,
      "Ġrefinement": 5670,
      "Ġletting": 5671,
      "Ġinvent": 5672,
      "Ġperrys": 5673,
      "Ġrestlessness": 5674,
      "Ġopenness": 5675,
      "Ġbroken": 5676,
      "Ġtruer": 5677,
      "Ġlesson": 5678,
      "Ġjudicious": 5679,
      "Ġcomplais": 5680,
      "Ġbegins": 5681,
      "Ġseemingly": 5682,
      "whom": 5683,
      "racted": 5684,
      "Ġcarefully": 5685,
      "Ġwonders": 5686,
      "whatever": 5687,
      "Ġbackgammon": 5688,
      "Ġguilt": 5689,
      "Ġprominent": 5690,
      "Ġdetected": 5691,
      "Ġdetail": 5692,
      "Ġactual": 5693,
      "Ġfavourably": 5694,
      "ivoc": 5695,
      "Ġreasonings": 5696,
      "Ġfortunately": 5697,
      "Ġdecor": 5698,
      "Ġpropriet": 5699,
      "Ġproposition": 5700,
      "Ġsmaller": 5701,
      "Ġclearly": 5702,
      "Ġclearer": 5703,
      "Ġcompleted": 5704,
      "court": 5705,
      "couragement": 5706,
      "Ġflour": 5707,
      "Ġflattere": 5708,
      "Ġsentences": 5709,
      "Ġexcite": 5710,
      "Ġexcused": 5711,
      "ulture": 5712,
      "Ġfeelingly": 5713,
      "Ġbeauties": 5714,
      "Ġbeautifully": 5715,
      "Ġshews": 5716,
      "Ġremoving": 5717,
      "Ġformidable": 5718,
      "Ġthanking": 5719,
      "Ġairs": 5720,
      "Ġairy": 5721,
      "Ġbearing": 5722,
      "Ġabsurd": 5723,
      "Ġamongst": 5724,
      "Ġgladly": 5725,
      "Ġinterfere": 5726,
      "Ġpleasantest": 5727,
      "Ġgratify": 5728,
      "Ġdraws": 5729,
      "cerned": 5730,
      "Ġsilenced": 5731,
      "whether": 5732,
      "whenever": 5733,
      "Ġfuller": 5734,
      "Ġdependent": 5735,
      "ossible": 5736,
      "Ġpurse": 5737,
      "Ġplayfulness": 5738,
      "ĠĠĠĠĠĠĠĠĠ": 5739,
      "papa": 5740,
      "Ġdixons": 5741,
      "Ġeasier": 5742,
      "Ġhumanity": 5743,
      "Ġconversable": 5744,
      "Ġmonarch": 5745,
      "ension": 5746,
      "ensable": 5747,
      "Ġdancer": 5748,
      "Ġmusing": 5749,
      "Ġquickest": 5750,
      "Ġcondes": 5751,
      "Ġelegancies": 5752,
      "Ġhelped": 5753,
      "cribed": 5754,
      "Ġnights": 5755,
      "Ġhush": 5756,
      "ieties": 5757,
      "Ġtrivial": 5758,
      "Ġpatron": 5759,
      "Ġencourage": 5760,
      "Ġattentively": 5761,
      "Ġbehave": 5762,
      "Ġbehaving": 5763,
      "fices": 5764,
      "Ġcromer": 5765,
      "Ġincluding": 5766,
      "Ġcommonplace": 5767,
      "Ġexplained": 5768,
      "Ġplanning": 5769,
      "Ġoccasional": 5770,
      "Ġconvincing": 5771,
      "Ġwatering": 5772,
      "Ġfold": 5773,
      "Ġhealthy": 5774,
      "Ġrecollected": 5775,
      "Ġeff": 5776,
      "Ġinsens": 5777,
      "Ġslightly": 5778,
      "Ġmercy": 5779,
      "Ġbread": 5780,
      "Ġsends": 5781,
      "Ġgrandeur": 5782,
      "Ġoccurrence": 5783,
      "door": 5784,
      "does": 5785,
      "grown": 5786,
      "Ġconstancy": 5787,
      "Ġcurious": 5788,
      "Ġassisting": 5789,
      "Ġadmiring": 5790,
      "Ġadmirable": 5791,
      "Ġoddest": 5792,
      "Ġbrief": 5793,
      "Ġestate": 5794,
      "Ġexcluded": 5795,
      "Ġexclamation": 5796,
      "Ġplacing": 5797,
      "Ġcommunicate": 5798,
      "Ġcommunicative": 5799,
      "Ġdisagreement": 5800,
      "excuse": 5801,
      "Ġxi": 5802,
      "Ġxv": 5803,
      "Ġxiv": 5804,
      "Ġsadly": 5805,
      "Ġtolerate": 5806,
      "Ġforetell": 5807,
      "Ġforesaw": 5808,
      "Ġextravag": 5809,
      "Ġevents": 5810,
      "Ġbreaking": 5811,
      "Ġeffectually": 5812,
      "Ġjoyous": 5813,
      "Ġjoyful": 5814,
      "Ġdelayed": 5815,
      "Ġhandsomest": 5816,
      "Ġdenial": 5817,
      "Ġdenote": 5818,
      "Ġduties": 5819,
      "Ġundes": 5820,
      "Ġstept": 5821,
      "Ġprovision": 5822,
      "Ġprovoked": 5823,
      "Ġenjoyments": 5824,
      "Ġbehold": 5825,
      "Ġindulging": 5826,
      "ogue": 5827,
      "Ġluckiest": 5828,
      "Ġearnestness": 5829,
      "Ġsnowing": 5830,
      "Ġborrow": 5831,
      "Ġventuring": 5832,
      "ticoat": 5833,
      "Ġtrees": 5834,
      "Ġseparated": 5835,
      "Ġrules": 5836,
      "Ġaddresses": 5837,
      "whoever": 5838,
      "Ġeducated": 5839,
      "Ġgrieve": 5840,
      "Ġjob": 5841,
      "Ġcomprehending": 5842,
      "Ġtrusting": 5843,
      "Ġremarkable": 5844,
      "Ġquarrelling": 5845,
      "Ġnumerous": 5846,
      "Ġpreparations": 5847,
      "Ġentertained": 5848,
      "party": 5849,
      "interrupt": 5850,
      "Ġtotal": 5851,
      "Ġeaten": 5852,
      "Ġstrict": 5853,
      "Ġstrikes": 5854,
      "Ġcoxcomb": 5855,
      "Ġcontribut": 5856,
      "ĠĠĠĠĠĠĠĠĠĠĠĠĠĠĠĠĠĠĠĠĠĠ": 5857,
      "Ġendeavouring": 5858,
      "Ġrelieve": 5859,
      "Ġexcessive": 5860,
      "Ġfreshness": 5861,
      "Ġexplanations": 5862,
      "Ġremaining": 5863,
      "Ġfooting": 5864,
      "Ġfootpath": 5865,
      "fron": 5866,
      "Ġskin": 5867,
      "Ġsketch": 5868,
      "Ġsounds": 5869,
      "Ġbeneath": 5870,
      "Ġdevice": 5871,
      "Ġharmless": 5872,
      "Ġpapers": 5873,
      "Ġaccomplishment": 5874,
      "Ġinjury": 5875,
      "Ġinjunction": 5876,
      "Ġsuccessful": 5877,
      "Ġshameful": 5878,
      "Ġshamefully": 5879,
      "Ġcourtes": 5880,
      "Ġhumourist": 5881,
      "Ġdeclares": 5882,
      "Ġtransition": 5883,
      "Ġsignify": 5884,
      "Ġmutton": 5885,
      "Ġmutually": 5886,
      "Ġdivision": 5887,
      "Ġdivisions": 5888,
      "Ġpractice": 5889,
      "Ġpractise": 5890,
      "Ġpractised": 5891,
      "Ġpracticable": 5892,
      "Ġanimating": 5893,
      "Ġsoftness": 5894,
      "Ġsafest": 5895,
      "Ġcalmly": 5896,
      "judging": 5897,
      "Ġencumb": 5898,
      "Ġcapital": 5899,
      "Ġproposals": 5900,
      "Ġlouder": 5901,
      "Ġloudly": 5902,
      "Ġwhispered": 5903,
      "Ġstraightforward": 5904,
      "Ġvolume": 5905,
      "Ġsupplying": 5906,
      "Ġillnesses": 5907,
      "Ġrapidity": 5908,
      "Ġreflected": 5909,
      "Ġneglecting": 5910,
      "Ġneglected": 5911,
      "Ġunreasonably": 5912,
      "Ġowing": 5913,
      "Ġowes": 5914,
      "Ġceremonious": 5915,
      "Ġphys": 5916,
      "impossible": 5917,
      "Ġsofter": 5918,
      "Ġselves": 5919,
      "Ġpossessed": 5920,
      "Ġdistinguished": 5921,
      "Ġinvolunt": 5922,
      "Ġchecked": 5923,
      "Ġparcels": 5924,
      "Ġirritated": 5925,
      "Ġunnecessarily": 5926,
      "Ġhazle": 5927,
      "Ġgaze": 5928,
      "standing": 5929,
      "Ġpreserve": 5930,
      "abouts": 5931,
      "Ġtwelvemonth": 5932,
      "Ġmarked": 5933,
      "Ġblameless": 5934,
      "Ġrestrain": 5935,
      "Ġlawyer": 5936,
      "Ġaccompany": 5937,
      "Ġsmoothness": 5938,
      "Ġindisposed": 5939,
      "Ġindispensable": 5940,
      "boarder": 5941,
      "between": 5942,
      "Ġostensible": 5943,
      "Ġbuild": 5944,
      "Ġcotton": 5945,
      "Ġhonestly": 5946,
      "Ġxvii": 5947,
      "Ġxviii": 5948,
      "Ġperplexities": 5949,
      "Ġbreath": 5950,
      "Ġbreathe": 5951,
      "Ġnursed": 5952,
      "Ġnursery": 5953,
      "Ġlimited": 5954,
      "Ġrenewed": 5955,
      "Ġrenewal": 5956,
      "Ġconjecture": 5957,
      "Ġexamining": 5958,
      "Ġdisincl": 5959,
      "Ġrepresenting": 5960,
      "Ġrepresentation": 5961,
      "Ġguarded": 5962,
      "Ġluxurious": 5963,
      "Ġprosperity": 5964,
      "Ġcorrespondent": 5965,
      "Ġvoluntary": 5966,
      "married": 5967,
      "Ġdropt": 5968,
      "Ġmiscon": 5969,
      "Ġunfeeling": 5970,
      "Ġoverpower": 5971,
      "Ġapplication": 5972,
      "Ġapplications": 5973,
      "Ġapprehended": 5974,
      "Ġexpediency": 5975,
      "Ġdegrading": 5976,
      "Ġreminded": 5977,
      "Ġesteemed": 5978,
      "Ġestimation": 5979,
      "Ġhesitatingly": 5980,
      "Ġpuzzled": 5981,
      "actually": 5982,
      "contre": 5983,
      "draper": 5984,
      "Ġaverting": 5985,
      "Ġwallis": 5986,
      "Ġtopics": 5987,
      "Ġbewit": 5988,
      "Ġbewildered": 5989,
      "Ġbella": 5990,
      "Ġhungry": 5991,
      "Ġincommod": 5992,
      "Ġsolitude": 5993,
      "Ġdeliber": 5994,
      "Ġviii": 5995,
      "Ġdiscerned": 5996,
      "Ġunpersuadable": 5997,
      "Ġcaptain": 5998,
      "Ġoverhearing": 5999,
      "Ġpronounced": 6000,
      "Ġassociate": 6001,
      "Ġaccidental": 6002,
      "Ġintellectual": 6003,
      "Ġxiii": 6004,
      "Ġcalculated": 6005,
      "Ġcontradict": 6006,
      "Ġcontradiction": 6007,
      "Ġrejoiced": 6008,
      "Ġaugusta": 6009,
      "Ġfalsehood": 6010,
      "Ġreckoned": 6011,
      "Ġsoul": 6012,
      "Ġsalary": 6013,
      "Ġwidow": 6014,
      "Ġwrapt": 6015,
      "Ġmagn": 6016,
      "Ġfrozen": 6017,
      "Ġpredict": 6018,
      "Ġinexpress": 6019,
      "Ġrencontre": 6020,
      "Ġdemure": 6021,
      "Ġdeplorable": 6022,
      "Ġemotion": 6023,
      "Ġstorm": 6024,
      "Ġrousing": 6025,
      "Ġvirtue": 6026,
      "Ġdisclosure": 6027,
      "Ġdisgraced": 6028,
      "Ġunseen": 6029,
      "Ġunsuitable": 6030,
      "Ġcaprice": 6031,
      "Ġcopied": 6032,
      "Ġentitled": 6033,
      "Ġsurpr": 6034,
      "Ġstooping": 6035,
      "Ġelevation": 6036,
      "Ġfreedom": 6037,
      "Ġcounteract": 6038,
      "Ġreconciliation": 6039,
      "Ġpunctually": 6040,
      "Ġpalpably": 6041,
      "friend": 6042,
      "pitality": 6043,
      "pretty": 6044,
      "sighted": 6045,
      "trade": 6046,
      "Ġtidings": 6047,
      "Ġslice": 6048,
      "Ġhanging": 6049,
      "Ġpetticoat": 6050,
      "Ġessential": 6051,
      "Ġhospitality": 6052,
      "Ġrevived": 6053,
      "Ġreigns": 6054,
      "Ġreappeared": 6055,
      "Ġsoothing": 6056,
      "Ġsolitary": 6057,
      "Ġdeparture": 6058,
      "Ġsaucy": 6059,
      "Ġperformer": 6060,
      "Ġdissuade": 6061,
      "Ġdisappearance": 6062,
      "Ġcompetent": 6063,
      "Ġarrowroot": 6064,
      "Ġdesperate": 6065,
      "Ġblockhead": 6066,
      "Ġteachers": 6067,
      "Ġcomplacency": 6068,
      "Ġdonkey": 6069,
      "Ġcleverer": 6070,
      "Ġsimilar": 6071,
      "Ġunpretending": 6072,
      "Ġunpardonable": 6073,
      "Ġtreasure": 6074,
      "Ġpuppy": 6075,
      "Ġingratitude": 6076,
      "Ġconfirmation": 6077,
      "Ġcontemptible": 6078,
      "Ġvigorously": 6079,
      "Ġwickedness": 6080,
      "Ġreluctance": 6081,
      "first": 6082,
      "minded": 6083,
      "speaking": 6084,
      "Ġterri": 6085,
      "Ġachie": 6086,
      "Ġbonnet": 6087,
      "Ġbottom": 6088,
      "Ġbickerton": 6089,
      "Ġbilious": 6090,
      "Ġcentre": 6091,
      "Ġfifty": 6092,
      "Ġdentist": 6093,
      "Ġdulness": 6094,
      "Ġhomes": 6095,
      "Ġholiday": 6096,
      "Ġhughes": 6097,
      "Ġinimitable": 6098,
      "Ġinnoc": 6099,
      "Ġyellow": 6100,
      "Ġasparagus": 6101,
      "Ġforlorn": 6102,
      "Ġwithdrawn": 6103,
      "Ġumbrell": 6104,
      "Ġseventeen": 6105,
      "Ġstaircase": 6106,
      "Ġperceiving": 6107,
      "Ġalacrity": 6108,
      "Ġdisorder": 6109,
      "Ġenergy": 6110,
      "Ġunnoticed": 6111,
      "Ġunnatural": 6112,
      "accountable": 6113,
      "Ġobscurity": 6114,
      "Ġindivid": 6115,
      "Ġsecresy": 6116,
      "Ġadvocate": 6117,
      "Ġencumbrance": 6118,
      "._": 6119,
      ":\"": 6120,
      ":--\"": 6121,
      ":\"--": 6122,
      ":'--": 6123,
      "_--": 6124,
      "_;--": 6125,
      "apt": 6126,
      "aide": 6127,
      "ailed": 6128,
      "ailing": 6129,
      "br": 6130,
      "bre": 6131,
      "bat": 6132,
      "bod": 6133,
      "bad": 6134,
      "bable": 6135,
      "bition": 6136,
      "brow": 6137,
      "bility": 6138,
      "bating": 6139,
      "breed": 6140,
      "bby": 6141,
      "cu": 6142,
      "cre": 6143,
      "cand": 6144,
      "cation": 6145,
      "cot": 6146,
      "cra": 6147,
      "care": 6148,
      "cried": 6149,
      "came": 6150,
      "cue": 6151,
      "cision": 6152,
      "chas": 6153,
      "cension": 6154,
      "dy": 6155,
      "dis": 6156,
      "des": 6157,
      "dif": 6158,
      "dixon": 6159,
      "dump": 6160,
      "dread": 6161,
      "dges": 6162,
      "eg": 6163,
      "eight": 6164,
      "elf": 6165,
      "eel": 6166,
      "emy": 6167,
      "ext": 6168,
      "emption": 6169,
      "ffe": 6170,
      "five": 6171,
      "full": 6172,
      "farm": 6173,
      "fited": 6174,
      "fashion": 6175,
      "gs": 6176,
      "gur": 6177,
      "gain": 6178,
      "gular": 6179,
      "gency": 6180,
      "home": 6181,
      "high": 6182,
      "hib": 6183,
      "iz": 6184,
      "ipp": 6185,
      "ius": 6186,
      "ium": 6187,
      "iating": 6188,
      "ipped": 6189,
      "iences": 6190,
      "jar": 6191,
      "jug": 6192,
      "ks": 6193,
      "ked": 6194,
      "lin": 6195,
      "lar": 6196,
      "lim": 6197,
      "lite": 6198,
      "lau": 6199,
      "lady": 6200,
      "lashes": 6201,
      "little": 6202,
      "laide": 6203,
      "ms": 6204,
      "min": 6205,
      "mous": 6206,
      "mmed": 6207,
      "mense": 6208,
      "master": 6209,
      "mming": 6210,
      "nn": 6211,
      "nut": 6212,
      "nic": 6213,
      "none": 6214,
      "nful": 6215,
      "nings": 6216,
      "oon": 6217,
      "ops": 6218,
      "pas": 6219,
      "pat": 6220,
      "pent": 6221,
      "pur": 6222,
      "pment": 6223,
      "pired": 6224,
      "piece": 6225,
      "passion": 6226,
      "present": 6227,
      "powered": 6228,
      "prob": 6229,
      "rm": 6230,
      "rained": 6231,
      "sp": 6232,
      "sion": 6233,
      "sir": 6234,
      "sal": 6235,
      "spect": 6236,
      "swe": 6237,
      "satis": 6238,
      "tc": 6239,
      "tz": 6240,
      "tis": 6241,
      "tly": 6242,
      "tri": 6243,
      "tart": 6244,
      "try": 6245,
      "thing": 6246,
      "tive": 6247,
      "tty": 6248,
      "taken": 6249,
      "taking": 6250,
      "tiresome": 6251,
      "ule": 6252,
      "uce": 6253,
      "uance": 6254,
      "uity": 6255,
      "uations": 6256,
      "umption": 6257,
      "vis": 6258,
      "vive": 6259,
      "vil": 6260,
      "vice": 6261,
      "vances": 6262,
      "view": 6263,
      "wa": 6264,
      "wor": 6265,
      "wish": 6266,
      "wife": 6267,
      "xter": 6268,
      "za": 6269,
      "Ġ[": 6270,
      "Ġ.\"": 6271,
      "Ġvers": 6272,
      "Ġ----": 6273,
      "Ġtour": 6274,
      "Ġtup": 6275,
      "Ġtipp": 6276,
      "hered": 6277,
      "heard": 6278,
      "hecked": 6279,
      "Ġaim": 6280,
      "Ġaven": 6281,
      "Ġaud": 6282,
      "Ġaired": 6283,
      "Ġaye": 6284,
      "Ġajar": 6285,
      "inu": 6286,
      "inen": 6287,
      "inet": 6288,
      "inqu": 6289,
      "inate": 6290,
      "inity": 6291,
      "inced": 6292,
      "inition": 6293,
      "Ġston": 6294,
      "Ġsme": 6295,
      "Ġsig": 6296,
      "Ġsources": 6297,
      "Ġsashed": 6298,
      "Ġwin": 6299,
      "Ġwan": 6300,
      "Ġwore": 6301,
      "Ġwitt": 6302,
      "Ġwarr": 6303,
      "Ġwains": 6304,
      "Ġwitty": 6305,
      "Ġment": 6306,
      "Ġmant": 6307,
      "Ġmare": 6308,
      "Ġmond": 6309,
      "Ġmount": 6310,
      "Ġmoves": 6311,
      "Ġmoon": 6312,
      "repe": 6313,
      "render": 6314,
      "ream": 6315,
      "regular": 6316,
      "Ġowe": 6317,
      "Ġomission": 6318,
      "haut": 6319,
      "half": 6320,
      "haved": 6321,
      "haust": 6322,
      "oup": 6323,
      "oult": 6324,
      "Ġba": 6325,
      "Ġbis": 6326,
      "Ġban": 6327,
      "Ġbent": 6328,
      "Ġband": 6329,
      "Ġbred": 6330,
      "Ġbount": 6331,
      "Ġblend": 6332,
      "eral": 6333,
      "erfection": 6334,
      "nday": 6335,
      "Ġcher": 6336,
      "Ġcart": 6337,
      "Ġcases": 6338,
      "Ġculture": 6339,
      "ony": 6340,
      "Ġfle": 6341,
      "Ġfles": 6342,
      "Ġfish": 6343,
      "Ġfaster": 6344,
      "Ġfilled": 6345,
      "Ġfainted": 6346,
      "Ġflies": 6347,
      "ingen": 6348,
      "Ġheal": 6349,
      "Ġhedge": 6350,
      "Ġhedges": 6351,
      "Ġhetty": 6352,
      "enough": 6353,
      "edience": 6354,
      "Ġhat": 6355,
      "Ġhating": 6356,
      "Ġhann": 6357,
      "Ġnieces": 6358,
      "Ġdar": 6359,
      "Ġdess": 6360,
      "Ġdate": 6361,
      "Ġdust": 6362,
      "Ġdies": 6363,
      "Ġdined": 6364,
      "Ġdub": 6365,
      "Ġdedu": 6366,
      "Ġdict": 6367,
      "Ġdashed": 6368,
      "Ġdimens": 6369,
      "Ġbeau": 6370,
      "Ġbeam": 6371,
      "Ġbears": 6372,
      "Ġbearer": 6373,
      "llor": 6374,
      "itim": 6375,
      "iture": 6376,
      "itably": 6377,
      "itute": 6378,
      "itating": 6379,
      "isen": 6380,
      "isable": 6381,
      "isper": 6382,
      "isabella": 6383,
      "Ġpan": 6384,
      "Ġpom": 6385,
      "Ġpure": 6386,
      "Ġpage": 6387,
      "Ġpud": 6388,
      "Ġpages": 6389,
      "Ġpoult": 6390,
      "leave": 6391,
      "leep": 6392,
      "lelight": 6393,
      "Ġecc": 6394,
      "Ġetern": 6395,
      "Ġetc": 6396,
      "asible": 6397,
      "orious": 6398,
      "orary": 6399,
      "orned": 6400,
      "Ġhy": 6401,
      "Ġhost": 6402,
      "Ġhue": 6403,
      "anch": 6404,
      "Ġinade": 6405,
      "Ġinfect": 6406,
      "Ġinformed": 6407,
      "Ġnod": 6408,
      "Ġnodd": 6409,
      "Ġnoisy": 6410,
      "esse": 6411,
      "escri": 6412,
      "atious": 6413,
      "atives": 6414,
      "atuation": 6415,
      "arls": 6416,
      "--,": 6417,
      "--.": 6418,
      "--_": 6419,
      "omed": 6420,
      "omeness": 6421,
      "verie": 6422,
      "Ġgif": 6423,
      "Ġgest": 6424,
      "Ġgross": 6425,
      "Ġgaining": 6426,
      "vement": 6427,
      "velo": 6428,
      "vealed": 6429,
      "Ġlent": 6430,
      "Ġlame": 6431,
      "Ġlinen": 6432,
      "Ġwaste": 6433,
      "ghing": 6434,
      "ster": 6435,
      "stay": 6436,
      "stood": 6437,
      "stru": 6438,
      "step": 6439,
      "stop": 6440,
      "stancy": 6441,
      "Ġsheet": 6442,
      "Ġthy": 6443,
      "Ġthri": 6444,
      "Ġthrew": 6445,
      "uting": 6446,
      "utions": 6447,
      "see": 6448,
      "seemed": 6449,
      "sellor": 6450,
      "Ġ\"`": 6451,
      "cending": 6452,
      "rich": 6453,
      "riment": 6454,
      "rick": 6455,
      "riously": 6456,
      "Ġreleas": 6457,
      "Ġreplete": 6458,
      "Ġreverie": 6459,
      "Ġrevealed": 6460,
      "entive": 6461,
      "entire": 6462,
      "entric": 6463,
      "Ġasper": 6464,
      "Ġasunder": 6465,
      "Ġaspired": 6466,
      "Ġasleep": 6467,
      "oward": 6468,
      "Ġforfe": 6469,
      "Ġforci": 6470,
      "Ġforwards": 6471,
      "etite": 6472,
      "etches": 6473,
      "Ġsung": 6474,
      "Ġsunday": 6475,
      "idant": 6476,
      "iderable": 6477,
      "Ġant": 6478,
      "Ġanne": 6479,
      "Ġweigh": 6480,
      "irm": 6481,
      "iration": 6482,
      "iriting": 6483,
      "cted": 6484,
      "Ġate": 6485,
      "Ġatone": 6486,
      "odies": 6487,
      "Ġkiss": 6488,
      "Ġkitty": 6489,
      "Ġkitche": 6490,
      "Ġbutter": 6491,
      "Ġbutler": 6492,
      "Ġbutcher": 6493,
      "illing": 6494,
      "Ġmurm": 6495,
      "urs": 6496,
      "urous": 6497,
      "ading": 6498,
      "aded": 6499,
      "Ġknitting": 6500,
      "Ġalluded": 6501,
      "Ġalluding": 6502,
      "roke": 6503,
      "rocation": 6504,
      "pere": 6505,
      "pelled": 6506,
      "Ġmeat": 6507,
      "terior": 6508,
      "quick": 6509,
      "Ġdeed": 6510,
      "Ġdeem": 6511,
      "Ġdeference": 6512,
      "Ġdeeper": 6513,
      "Ġdefend": 6514,
      "Ġdexter": 6515,
      "Ġdevelo": 6516,
      "Ġseize": 6517,
      "Ġseiz": 6518,
      "Ġemp": 6519,
      "Ġconcess": 6520,
      "Ġconcise": 6521,
      "Ġconjug": 6522,
      "Ġdoct": 6523,
      "Ġdoated": 6524,
      "Ġsale": 6525,
      "Ġsaving": 6526,
      "Ġsack": 6527,
      "Ġjuly": 6528,
      "andum": 6529,
      "Ġfrown": 6530,
      "Ġframe": 6531,
      "Ġframed": 6532,
      "Ġharp": 6533,
      "Ġharsh": 6534,
      "Ġharmony": 6535,
      "ppery": 6536,
      "pposing": 6537,
      "Ġstim": 6538,
      "Ġstain": 6539,
      "Ġstake": 6540,
      "Ġstag": 6541,
      "Ġstip": 6542,
      "Ġstability": 6543,
      "aks": 6544,
      "ession": 6545,
      "Ġmisled": 6546,
      "Ġmisinter": 6547,
      "Ġexten": 6548,
      "Ġexemption": 6549,
      "Ġexhaust": 6550,
      "Ġexterior": 6551,
      "ics": 6552,
      "icer": 6553,
      "icated": 6554,
      "icities": 6555,
      "icism": 6556,
      "icule": 6557,
      "ulated": 6558,
      "ours": 6559,
      "Ġfeed": 6560,
      "Ġfeasible": 6561,
      "merely": 6562,
      "george": 6563,
      "Ġlest": 6564,
      "Ġlect": 6565,
      "Ġleaning": 6566,
      "anty": 6567,
      "Ġwillingly": 6568,
      "Ġamid": 6569,
      "Ġamity": 6570,
      "Ġamuses": 6571,
      "Ġamply": 6572,
      "Ġambition": 6573,
      "redible": 6574,
      "Ġfaire": 6575,
      "Ġfailing": 6576,
      "Ġfagged": 6577,
      "ortions": 6578,
      "Ġperverse": 6579,
      "liance": 6580,
      "liest": 6581,
      "liction": 6582,
      "Ġshr": 6583,
      "Ġshower": 6584,
      "Ġshilling": 6585,
      "Ġaltern": 6586,
      "deceived": 6587,
      "delight": 6588,
      "Ġorchard": 6589,
      "Ġlip": 6590,
      "Ġlies": 6591,
      "Ġrouse": 6592,
      "Ġrare": 6593,
      "Ġrange": 6594,
      "Ġquality": 6595,
      "Ġquivering": 6596,
      "ittal": 6597,
      "Ġven": 6598,
      "Ġvan": 6599,
      "Ġviv": 6600,
      "reated": 6601,
      "Ġdiscom": 6602,
      "Ġdisci": 6603,
      "Ġdiseng": 6604,
      "Ġdiscourse": 6605,
      "Ġdisgu": 6606,
      "Ġdiscouragement": 6607,
      "Ġchick": 6608,
      "Ġchusing": 6609,
      "Ġages": 6610,
      "Ġagric": 6611,
      "Ġagrees": 6612,
      "Ġagony": 6613,
      "Ġeveryday": 6614,
      "Ġpremat": 6615,
      "Ġprecaut": 6616,
      "Ġenqu": 6617,
      "Ġenable": 6618,
      "Ġenemy": 6619,
      "Ġenlar": 6620,
      "Ġenrich": 6621,
      "ongru": 6622,
      "Ġintol": 6623,
      "Ġunqu": 6624,
      "Ġunable": 6625,
      "Ġunfa": 6626,
      "Ġunmer": 6627,
      "Ġunman": 6628,
      "Ġunhealth": 6629,
      "Ġunatt": 6630,
      "Ġungen": 6631,
      "Ġunans": 6632,
      "Ġunstead": 6633,
      "Ġuninterrupt": 6634,
      "Ġunaccountable": 6635,
      "Ġunheard": 6636,
      "Ġabusing": 6637,
      "Ġabhor": 6638,
      "Ġprocess": 6639,
      "Ġprojected": 6640,
      "Ġprolong": 6641,
      "Ġproclaimed": 6642,
      "Ġpropere": 6643,
      "Ġaffor": 6644,
      "Ġaffron": 6645,
      "Ġpoet": 6646,
      "Ġpock": 6647,
      "Ġpoign": 6648,
      "Ġpoem": 6649,
      "Ġpoison": 6650,
      "Ġpondering": 6651,
      "Ġpolite": 6652,
      "Ġwhence": 6653,
      "Ġcaps": 6654,
      "veniences": 6655,
      "ifice": 6656,
      "ilos": 6657,
      "!--_": 6658,
      "Ġacute": 6659,
      "Ġparts": 6660,
      "Ġpartake": 6661,
      "Ġpartially": 6662,
      "Ġcoars": 6663,
      "Ġcoffe": 6664,
      "ushing": 6665,
      "usage": 6666,
      "ushed": 6667,
      "usions": 6668,
      "usively": 6669,
      "Ġfried": 6670,
      "Ġcompliance": 6671,
      "aneous": 6672,
      "elton": 6673,
      "elpiece": 6674,
      "Ġworsh": 6675,
      "unting": 6676,
      "fare": 6677,
      "face": 6678,
      "Ġnowhere": 6679,
      "Ġshared": 6680,
      "Ġsharing": 6681,
      "Ġshabby": 6682,
      "ageable": 6683,
      "Ġspark": 6684,
      "Ġsplend": 6685,
      "ection": 6686,
      "Ġadoration": 6687,
      "Ġadapt": 6688,
      "aciously": 6689,
      "acitly": 6690,
      "Ġobedience": 6691,
      "Ġgold": 6692,
      "Ġgoss": 6693,
      "Ġgoose": 6694,
      "oses": 6695,
      "ruction": 6696,
      "Ġushered": 6697,
      "Ġplague": 6698,
      "rences": 6699,
      "Ġresisted": 6700,
      "Ġresiding": 6701,
      "Ġrescue": 6702,
      "Ġlikelihood": 6703,
      "throw": 6704,
      "throat": 6705,
      "thirty": 6706,
      "Ġhoarse": 6707,
      "?\"--\"": 6708,
      "Ġdears": 6709,
      "Ġdearly": 6710,
      "Ġconsumption": 6711,
      "Ġchamber": 6712,
      "Ġindef": 6713,
      "Ġindelic": 6714,
      "Ġfathers": 6715,
      "Ġunderrated": 6716,
      "Ġundergo": 6717,
      "Ġyounger": 6718,
      "Ġgroup": 6719,
      "Ġjustly": 6720,
      "Ġjustify": 6721,
      "assable": 6722,
      "Ġimply": 6723,
      "Ġimposed": 6724,
      "Ġimpute": 6725,
      "Ġimparted": 6726,
      "Ġimputed": 6727,
      "Ġimperfection": 6728,
      "Ġimpassable": 6729,
      "Ġoverchar": 6730,
      "Ġovertaken": 6731,
      "supposing": 6732,
      "Ġsuppers": 6733,
      "closed": 6734,
      "Ġrepul": 6735,
      "Ġrepressed": 6736,
      "Ġreplies": 6737,
      "ownish": 6738,
      "Ġardent": 6739,
      "Ġarisen": 6740,
      "Ġbelief": 6741,
      "Ġsubord": 6742,
      "Ġsubside": 6743,
      "Ġsubmitting": 6744,
      "Ġsublim": 6745,
      "Ġoffences": 6746,
      "Ġoffices": 6747,
      "Ġhereabouts": 6748,
      "igning": 6749,
      "Ġappeal": 6750,
      "Ġappeased": 6751,
      "Ġappealed": 6752,
      "ags": 6753,
      "Ġbranch": 6754,
      "Ġentang": 6755,
      "Ġapply": 6756,
      "Ġapplying": 6757,
      "Ġappreci": 6758,
      "Ġappetite": 6759,
      "pline": 6760,
      "Ġpassable": 6761,
      "Ġdesires": 6762,
      "Ġpew": 6763,
      "Ġpearls": 6764,
      "Ġretreated": 6765,
      "shened": 6766,
      "udes": 6767,
      "Ġvisible": 6768,
      "Ġvisibly": 6769,
      "Ġlasts": 6770,
      "Ġtrunk": 6771,
      "ixed": 6772,
      "Ġassuring": 6773,
      "Ġfelicities": 6774,
      "Ġdistaste": 6775,
      "amb": 6776,
      "amor": 6777,
      "Ġindist": 6778,
      "Ġblunt": 6779,
      "Ġpoorly": 6780,
      "Ġpresents": 6781,
      "Ġpresenting": 6782,
      "Ġacquittal": 6783,
      "Ġextract": 6784,
      "Ġdoubtingly": 6785,
      "before": 6786,
      "beaut": 6787,
      "because": 6788,
      "behaved": 6789,
      "Ġengra": 6790,
      "Ġscore": 6791,
      "Ġscale": 6792,
      "Ġscanty": 6793,
      "neither": 6794,
      "Ġconsiderations": 6795,
      "Ġnatured": 6796,
      "isting": 6797,
      "istence": 6798,
      "Ġsubjection": 6799,
      "service": 6800,
      "Ġcler": 6801,
      "Ġclot": 6802,
      "Ġclosing": 6803,
      "Ġclothed": 6804,
      "Ġclownish": 6805,
      "Ġgenius": 6806,
      "returning": 6807,
      "Ġsurrender": 6808,
      "Ġallowance": 6809,
      "Ġchildhood": 6810,
      "Ġdelights": 6811,
      "Ġglory": 6812,
      "Ġaccum": 6813,
      "Ġaccustom": 6814,
      "Ġdealings": 6815,
      "Ġgenerations": 6816,
      "Ġimagining": 6817,
      "Ġimaginations": 6818,
      "Ġevidence": 6819,
      "Ġconfinement": 6820,
      "Ġconfidant": 6821,
      "Ġrecently": 6822,
      "Ġrecalled": 6823,
      "Ġinterests": 6824,
      "Ġgenteel": 6825,
      "Ġrandom": 6826,
      "Ġadvances": 6827,
      "Ġadvising": 6828,
      "Ġadvisable": 6829,
      "vourable": 6830,
      "incere": 6831,
      "Ġilliter": 6832,
      "Ġilleg": 6833,
      "Ġstray": 6834,
      "Ġadmin": 6835,
      "told": 6836,
      "Ġimmense": 6837,
      "Ġbestow": 6838,
      "Ġbestowed": 6839,
      "Ġpersisting": 6840,
      "Ġaffectation": 6841,
      "monial": 6842,
      "Ġrefine": 6843,
      "Ġrefres": 6844,
      "Ġrefusing": 6845,
      "Ġworlds": 6846,
      "Ġequalled": 6847,
      "Ġinvention": 6848,
      "Ġelsewhere": 6849,
      "priated": 6850,
      "Ġgentlewoman": 6851,
      "Ġrested": 6852,
      "Ġrestless": 6853,
      "Ġexpert": 6854,
      "Ġincap": 6855,
      "Ġincumb": 6856,
      "Ġincredible": 6857,
      "Ġincongru": 6858,
      "Ġreads": 6859,
      "Ġreadiness": 6860,
      "Ġrespecting": 6861,
      "Ġrespected": 6862,
      "Ġrespectful": 6863,
      "remely": 6864,
      "Ġobserver": 6865,
      "Ġlessened": 6866,
      "Ġagreeableness": 6867,
      "Ġwilful": 6868,
      "Ġdispens": 6869,
      "Ġdispense": 6870,
      "Ġcomplains": 6871,
      "Ġminor": 6872,
      "Ġmotherly": 6873,
      "whisper": 6874,
      "Ġsupersed": 6875,
      "Ġsuffic": 6876,
      "Ġkeen": 6877,
      "Ġcheap": 6878,
      "Ġcontinuance": 6879,
      "Ġanswers": 6880,
      "Ġsurprizes": 6881,
      "Ġguide": 6882,
      "Ġdetain": 6883,
      "Ġdetaining": 6884,
      "Ġfavouring": 6885,
      "Ġobjected": 6886,
      "Ġreasons": 6887,
      "selina": 6888,
      "Ġprophe": 6889,
      "Ġproposing": 6890,
      "Ġproportions": 6891,
      "Ġcomplet": 6892,
      "Ġapproval": 6893,
      "Ġappropriated": 6894,
      "Ġsatisfies": 6895,
      "Ġboarder": 6896,
      "ernal": 6897,
      "ernation": 6898,
      "Ġflown": 6899,
      "Ġflower": 6900,
      "Ġfloor": 6901,
      "Ġflock": 6902,
      "Ġflirt": 6903,
      "Ġflakes": 6904,
      "Ġdiffidence": 6905,
      "Ġdiffident": 6906,
      "Ġbrotherly": 6907,
      "iplied": 6908,
      "Ġexcusable": 6909,
      "Ġmama": 6910,
      "igned": 6911,
      "ignedly": 6912,
      "Ġthankfully": 6913,
      "short": 6914,
      "Ġinfant": 6915,
      "Ġinfli": 6916,
      "Ġinfatuation": 6917,
      "Ġstoops": 6918,
      "Ġprobabilities": 6919,
      "Ġinterview": 6920,
      "Ġpleasantness": 6921,
      "Ġgratific": 6922,
      "approbation": 6923,
      "Ġsilver": 6924,
      "Ġeleven": 6925,
      "Ġpreviously": 6926,
      "Ġregards": 6927,
      "Ġregardless": 6928,
      "Ġexpressive": 6929,
      "Ġwavering": 6930,
      "Ġneeds": 6931,
      "Ġneeded": 6932,
      "Ġcheering": 6933,
      "Ġdinners": 6934,
      "Ġfullest": 6935,
      "Ġcomplimentary": 6936,
      "emn": 6937,
      "Ġoppress": 6938,
      "Ġopposition": 6939,
      "Ġpiqu": 6940,
      "Ġpurchas": 6941,
      "Ġtemporary": 6942,
      "Ġseriousness": 6943,
      "Ġremembering": 6944,
      "Ġawake": 6945,
      "Ġpark": 6946,
      "Ġparley": 6947,
      "Ġparishes": 6948,
      "Ġplayer": 6949,
      "Ġplayful": 6950,
      "Ġplayfully": 6951,
      "Ġfondness": 6952,
      "Ġeaster": 6953,
      "Ġhumane": 6954,
      "Ġexcepted": 6955,
      "Ġcoloured": 6956,
      "Ġfarthest": 6957,
      "Ġhelpless": 6958,
      "enses": 6959,
      "istened": 6960,
      "istency": 6961,
      "Ġreality": 6962,
      "Ġrealised": 6963,
      "Ġviewed": 6964,
      "Ġcharacters": 6965,
      "william": 6966,
      "Ġgram": 6967,
      "Ġgraver": 6968,
      "Ġgraces": 6969,
      "Ġgravel": 6970,
      "Ġgravity": 6971,
      "Ġconduce": 6972,
      "Ġcondemn": 6973,
      "Ġelegantly": 6974,
      "Ġhuswife": 6975,
      "Ġlamp": 6976,
      "Ġdecline": 6977,
      "Ġtriump": 6978,
      "Ġtribute": 6979,
      "Ġtrimming": 6980,
      "Ġswept": 6981,
      "Ġfreshened": 6982,
      "Ġdiscont": 6983,
      "Ġdangers": 6984,
      "Ġunchecked": 6985,
      "Ġcray": 6986,
      "Ġincline": 6987,
      "Ġinclinations": 6988,
      "Ġplanned": 6989,
      "ollecting": 6990,
      "Ġmusician": 6991,
      "Ġraising": 6992,
      "uries": 6993,
      "Ġrequiring": 6994,
      "Ġensure": 6995,
      "Ġacceptance": 6996,
      "Ġrecollecting": 6997,
      "Ġpersuadable": 6998,
      "Ġinquired": 6999,
      "Ġcommit": 7000,
      "Ġclaimed": 7001,
      "Ġsuspicious": 7002,
      "Ġsuspiciously": 7003,
      "Ġsimply": 7004,
      "Ġdreaded": 7005,
      "Ġintimates": 7006,
      "Ġsecondary": 7007,
      "Ġwindy": 7008,
      "Ġcounty": 7009,
      "Ġcouncil": 7010,
      "Ġcounsellor": 7011,
      "Ġcivilly": 7012,
      "Ġeyebrow": 7013,
      "Ġinspect": 7014,
      "Ġinsisted": 7015,
      "Ġinsolence": 7016,
      "Ġinsidious": 7017,
      "Ġinsinu": 7018,
      "Ġinsincere": 7019,
      "Ġslighting": 7020,
      "Ġsweetly": 7021,
      "Ġsweetest": 7022,
      "Ġsweetbread": 7023,
      "Ġtenaciously": 7024,
      "Ġmerry": 7025,
      "Ġmermaid": 7026,
      "Ġmerriment": 7027,
      "Ġconsequences": 7028,
      "Ġgrandpapa": 7029,
      "grand": 7030,
      "Ġconstruction": 7031,
      "Ġconsternation": 7032,
      "Ġplaintive": 7033,
      "Ġblushing": 7034,
      "Ġproceedings": 7035,
      "Ġmodes": 7036,
      "enger": 7037,
      "Ġexclusively": 7038,
      "Ġworkb": 7039,
      "Ġworked": 7040,
      "Ġcommunicating": 7041,
      "expect": 7042,
      "exam": 7043,
      "excell": 7044,
      "Ġtenderest": 7045,
      "Ġiron": 7046,
      "Ġirregular": 7047,
      "Ġrelating": 7048,
      "Ġrelates": 7049,
      "Ġgrows": 7050,
      "Ġrichly": 7051,
      "morrows": 7052,
      "Ġemploying": 7053,
      "gges": 7054,
      "Ġsights": 7055,
      "Ġforebod": 7056,
      "Ġpreventing": 7057,
      "Ġavail": 7058,
      "respect": 7059,
      "Ġfourteen": 7060,
      "Ġsuddenness": 7061,
      "Ġtroubles": 7062,
      "Ġinfluenced": 7063,
      "Ġearned": 7064,
      "Ġbelongs": 7065,
      "Ġdeepest": 7066,
      "Ġconcealed": 7067,
      "happy": 7068,
      "Ġjoining": 7069,
      "Ġalarms": 7070,
      "Ġunprep": 7071,
      "Ġprofit": 7072,
      "Ġprofits": 7073,
      "Ġprofusion": 7074,
      "Ġprovoc": 7075,
      "Ġconfessed": 7076,
      "Ġconfesses": 7077,
      "Ġobservant": 7078,
      "Ġobservance": 7079,
      "Ġescorted": 7080,
      "Ġdisappointing": 7081,
      "Ġpurposely": 7082,
      "within": 7083,
      "without": 7084,
      "Ġwelch": 7085,
      "Ġruns": 7086,
      "Ġindulgent": 7087,
      "Ġpictures": 7088,
      "Ġserviceable": 7089,
      "Ġsixp": 7090,
      "Ġrepeating": 7091,
      "fortunate": 7092,
      "Ġdesiring": 7093,
      "Ġdesirous": 7094,
      "Ġdescribing": 7095,
      "Ġlikenesses": 7096,
      "Ġsnowed": 7097,
      "Ġwretch": 7098,
      "Ġbordered": 7099,
      "Ġcalmer": 7100,
      "Ġfires": 7101,
      "Ġdriven": 7102,
      "Ġcommanded": 7103,
      "Ġleads": 7104,
      "Ġvariously": 7105,
      "Ġvariation": 7106,
      "Ġvarieties": 7107,
      "ificent": 7108,
      "Ġcontrition": 7109,
      "Ġtreacher": 7110,
      "Ġtremble": 7111,
      "Ġtouches": 7112,
      "Ġwednes": 7113,
      "Ġrationally": 7114,
      "Ġunhappiness": 7115,
      "Ġopportunities": 7116,
      "Ġbehindhand": 7117,
      "Ġgrievous": 7118,
      "Ġgrievance": 7119,
      "Ġceases": 7120,
      "Ġdestination": 7121,
      "Ġexerting": 7122,
      "Ġpreferable": 7123,
      "Ġcomprehended": 7124,
      "Ġreprobating": 7125,
      "Ġprivy": 7126,
      "Ġsimpleton": 7127,
      "Ġdisappointments": 7128,
      "Ġcongratulation": 7129,
      "Ġcongratulated": 7130,
      "Ġcongratulating": 7131,
      "Ġcongratulatory": 7132,
      "Ġconvictions": 7133,
      "Ġfearfully": 7134,
      "Ġordinary": 7135,
      "Ġprepare": 7136,
      "Ġpreposs": 7137,
      "Ġsentimentally": 7138,
      "rehensible": 7139,
      "particul": 7140,
      "Ġfarming": 7141,
      "Ġhesitations": 7142,
      "Ġeats": 7143,
      "Ġlightened": 7144,
      "Ġstrike": 7145,
      "Ġstriving": 7146,
      "Ġstrictly": 7147,
      "Ġprotracted": 7148,
      "Ġprotection": 7149,
      "Ġcoxe": 7150,
      "Ġconsenting": 7151,
      "Ġcontriving": 7152,
      "Ġclearing": 7153,
      "Ġarrangements": 7154,
      "Ġfasten": 7155,
      "Ġdrank": 7156,
      "Ġdrown": 7157,
      "Ġreceives": 7158,
      "Ġcomparative": 7159,
      "Ġcomparatively": 7160,
      "Ġarms": 7161,
      "Ġinconstancy": 7162,
      "Ġfootstep": 7163,
      "mans": 7164,
      "Ġsketches": 7165,
      "Ġsickness": 7166,
      "Ġbenefited": 7167,
      "Ġconnect": 7168,
      "Ġfrightful": 7169,
      "Ġimpropriety": 7170,
      "Ġapologise": 7171,
      "Ġreplying": 7172,
      "Ġdreamer": 7173,
      "Ġfools": 7174,
      "Ġaccomplish": 7175,
      "Ġinjure": 7176,
      "Ġinjurious": 7177,
      "Ġsuccessfully": 7178,
      "Ġmeasures": 7179,
      "Ġobjectionable": 7180,
      "Ġhumours": 7181,
      "Ġtrifles": 7182,
      "Ġtranspl": 7183,
      "Ġtransfer": 7184,
      "Ġtranscribed": 7185,
      "Ġtouching": 7186,
      "Ġsigned": 7187,
      "Ġsignified": 7188,
      "Ġmuttering": 7189,
      "Ġdivide": 7190,
      "Ġpractising": 7191,
      "Ġurging": 7192,
      "Ġurgent": 7193,
      "Ġurgency": 7194,
      "Ġcooled": 7195,
      "Ġartist": 7196,
      "Ġartifice": 7197,
      "Ġsuggesting": 7198,
      "Ġsuggestion": 7199,
      "Ġsuggestions": 7200,
      "judged": 7201,
      "Ġmessenger": 7202,
      "Ġhotter": 7203,
      "Ġyouthful": 7204,
      "Ġlanguor": 7205,
      "Ġseats": 7206,
      "Ġliberality": 7207,
      "Ġenchan": 7208,
      "Ġabsenting": 7209,
      "Ġcapabilities": 7210,
      "Ġbetraying": 7211,
      "Ġbroader": 7212,
      "Ġbroadwood": 7213,
      "Ġinterruption": 7214,
      "Ġparlours": 7215,
      "Ġmoderation": 7216,
      "open": 7217,
      "ophic": 7218,
      "Ġbasis": 7219,
      "Ġbargain": 7220,
      "Ġbragges": 7221,
      "Ġeighth": 7222,
      "Ġdepos": 7223,
      "Ġembrocation": 7224,
      "Ġsacrifices": 7225,
      "Ġdisgusting": 7226,
      "Ġdisgusted": 7227,
      "Ġdisgustingly": 7228,
      "Ġchristian": 7229,
      "Ġconsoling": 7230,
      "Ġsmoothed": 7231,
      "Ġreports": 7232,
      "Ġindisc": 7233,
      "Ġindignant": 7234,
      "Ġindignantly": 7235,
      "Ġpretending": 7236,
      "Ġdeservedly": 7237,
      "Ġprotested": 7238,
      "gentle": 7239,
      "gression": 7240,
      "Ġsleep": 7241,
      "Ġbirming": 7242,
      "Ġcandid": 7243,
      "Ġcandles": 7244,
      "Ġcandlelight": 7245,
      "Ġphilos": 7246,
      "Ġweakness": 7247,
      "Ġdistinguish": 7248,
      "Ġchecking": 7249,
      "Ġirritate": 7250,
      "Ġfoolishly": 7251,
      "Ġmeditated": 7252,
      "Ġmedium": 7253,
      "Ġchatty": 7254,
      "Ġpitch": 7255,
      "Ġpitied": 7256,
      "Ġpitiable": 7257,
      "Ġpitiful": 7258,
      "Ġfailure": 7259,
      "Ġqualified": 7260,
      "Ġvulgarity": 7261,
      "Ġpreserving": 7262,
      "Ġgoverned": 7263,
      "Ġmarks": 7264,
      "Ġmatrimonial": 7265,
      "Ġrestrained": 7266,
      "Ġremembrances": 7267,
      "Ġhorrors": 7268,
      "Ġpursuing": 7269,
      "Ġpursuits": 7270,
      "Ġunequivoc": 7271,
      "Ġlamenting": 7272,
      "Ġlamented": 7273,
      "Ġaccommodate": 7274,
      "Ġaccommodations": 7275,
      "Ġaccompanying": 7276,
      "Ġprincipals": 7277,
      "Ġindisposition": 7278,
      "Ġindisputable": 7279,
      "Ġcrowded": 7280,
      "board": 7281,
      "book": 7282,
      "better": 7283,
      "charming": 7284,
      "written": 7285,
      "Ġaugur": 7286,
      "handsome": 7287,
      "Ġbuy": 7288,
      "Ġburied": 7289,
      "Ġbuilt": 7290,
      "Ġdarker": 7291,
      "Ġdefence": 7292,
      "Ġdefiance": 7293,
      "Ġdefinition": 7294,
      "Ġfemales": 7295,
      "Ġlearned": 7296,
      "Ġpartiality": 7297,
      "Ġattacked": 7298,
      "Ġinconsiderable": 7299,
      "Ġinconsistency": 7300,
      "Ġgraciousness": 7301,
      "Ġsatisfactorily": 7302,
      "Ġhenceforward": 7303,
      "Ġceaseless": 7304,
      "humouredly": 7305,
      "Ġstrawberry": 7306,
      "Ġfatigue": 7307,
      "Ġfatigues": 7308,
      "Ġshrubs": 7309,
      "Ġauthorised": 7310,
      "Ġbreathing": 7311,
      "Ġcurt": 7312,
      "Ġnurse": 7313,
      "Ġdignified": 7314,
      "Ġpleading": 7315,
      "Ġlime": 7316,
      "Ġrenewing": 7317,
      "Ġdeceit": 7318,
      "Ġdecease": 7319,
      "Ġmisunderstood": 7320,
      "Ġexamine": 7321,
      "Ġexamined": 7322,
      "Ġpersevering": 7323,
      "Ġpersevered": 7324,
      "Ġrisks": 7325,
      "Ġdisplays": 7326,
      "Ġdisplayed": 7327,
      "Ġpopulous": 7328,
      "Ġcomposedly": 7329,
      "Ġobtru": 7330,
      "Ġgipsy": 7331,
      "Ġglowing": 7332,
      "Ġparentage": 7333,
      "Ġprivileged": 7334,
      "Ġirresolute": 7335,
      "Ġcorrespondence": 7336,
      "Ġembarrassed": 7337,
      "Ġsoftening": 7338,
      "Ġstupidity": 7339,
      "Ġstupidest": 7340,
      "marry": 7341,
      "headed": 7342,
      "Ġdrop": 7343,
      "Ġdryly": 7344,
      "Ġbends": 7345,
      "Ġpushing": 7346,
      "Ġyielded": 7347,
      "Ġlords": 7348,
      "Ġthirteen": 7349,
      "Ġthreatening": 7350,
      "Ġconveniently": 7351,
      "Ġstudied": 7352,
      "Ġfaithful": 7353,
      "Ġaffirm": 7354,
      "Ġaffliction": 7355,
      "Ġpointedly": 7356,
      "Ġriddles": 7357,
      "Ġrepetitions": 7358,
      "Ġarguments": 7359,
      "Ġdesigns": 7360,
      "Ġsurmised": 7361,
      "Ġexpedient": 7362,
      "Ġdraughts": 7363,
      "Ġreminding": 7364,
      "Ġcolouring": 7365,
      "Ġestimate": 7366,
      "Ġpuzzle": 7367,
      "Ġcordiality": 7368,
      "Ġtranquillised": 7369,
      "Ġunsuspected": 7370,
      "Ġlearnt": 7371,
      "Ġshrubberies": 7372,
      "?'\"": 7373,
      "Ġaverted": 7374,
      "Ġastray": 7375,
      "Ġswelling": 7376,
      "Ġmillion": 7377,
      "Ġfurnish": 7378,
      "Ġfurnished": 7379,
      "Ġfurniture": 7380,
      "Ġoneself": 7381,
      "Ġweariness": 7382,
      "Ġsolace": 7383,
      "Ġmeals": 7384,
      "Ġdelivered": 7385,
      "Ġperpetually": 7386,
      "Ġalteration": 7387,
      "Ġviolent": 7388,
      "Ġunperceived": 7389,
      "Ġcaptious": 7390,
      "Ġsharp": 7391,
      "Ġfirmly": 7392,
      "Ġundertaking": 7393,
      "Ġundertakes": 7394,
      "Ġoverheard": 7395,
      "Ġapartment": 7396,
      "Ġpronounce": 7397,
      "Ġsubduing": 7398,
      "Ġassociates": 7399,
      "Ġaccidentally": 7400,
      "Ġrecurrence": 7401,
      "Ġrefreshment": 7402,
      "Ġintellects": 7403,
      "Ġbrighter": 7404,
      "Ġwelcoming": 7405,
      "Ġcalculate": 7406,
      "Ġdestroyed": 7407,
      "Ġbenevolent": 7408,
      "Ġimproperly": 7409,
      "Ġheavens": 7410,
      "Ġamazingly": 7411,
      "Ġelderly": 7412,
      "Ġinevitably": 7413,
      "Ġrejoined": 7414,
      "Ġdisturbance": 7415,
      "Ġbitterly": 7416,
      "Ġingenious": 7417,
      "Ġingenuity": 7418,
      "Ġhazarded": 7419,
      "____": 7420,
      "blushing": 7421,
      "horses": 7422,
      "preted": 7423,
      "Ġ28": 7424,
      "Ġwidower": 7425,
      "Ġmagist": 7426,
      "Ġninth": 7427,
      "Ġninety": 7428,
      "Ġeggs": 7429,
      "Ġinherited": 7430,
      "attle": 7431,
      "Ġheroism": 7432,
      "Ġlists": 7433,
      "maids": 7434,
      "Ġdeplore": 7435,
      "Ġdemands": 7436,
      "Ġemotions": 7437,
      "Ġconquest": 7438,
      "Ġconquered": 7439,
      "Ġjumped": 7440,
      "Ġstores": 7441,
      "Ġroused": 7442,
      "Ġvirtues": 7443,
      "Ġdisgrace": 7444,
      "Ġprejudice": 7445,
      "Ġprejudiced": 7446,
      "Ġuntainted": 7447,
      "Ġuntoward": 7448,
      "Ġdespatch": 7449,
      "Ġdeserted": 7450,
      "Ġengrossed": 7451,
      "Ġsurpass": 7452,
      "Ġelevate": 7453,
      "Ġsummons": 7454,
      "Ġstruggle": 7455,
      "Ġstruggled": 7456,
      "ĠĠĠĠĠĠĠĠĠĠĠĠĠĠĠĠĠĠĠĠĠĠĠĠĠĠĠĠĠĠĠĠĠĠĠĠĠĠĠĠĠĠĠĠĠĠĠĠĠĠĠĠĠĠ": 7457,
      "Ġreconcile": 7458,
      "Ġforeseeing": 7459,
      "Ġrestraints": 7460,
      "Ġpunctual": 7461,
      "Ġcontemplation": 7462,
      "000": 7463,
      "broke": 7464,
      "lengths": 7465,
      "uousness": 7466,
      "Ġwalnut": 7467,
      "Ġwaltz": 7468,
      "Ġmaintenance": 7469,
      "Ġmiliti": 7470,
      "Ġcreate": 7471,
      "Ġcousin": 7472,
      "Ġcousins": 7473,
      "Ġnarration": 7474,
      "Ġdiverted": 7475,
      "Ġgathering": 7476,
      "Ġlands": 7477,
      "Ġshelter": 7478,
      "Ġsheltered": 7479,
      "Ġalleviation": 7480,
      "Ġalleviations": 7481,
      "quarters": 7482,
      "Ġcommendation": 7483,
      "Ġstables": 7484,
      "Ġstretch": 7485,
      "Ġstretching": 7486,
      "Ġshift": 7487,
      "Ġvacant": 7488,
      "Ġdispersed": 7489,
      "Ġpretension": 7490,
      "Ġpretensions": 7491,
      "Ġenvious": 7492,
      "Ġattractive": 7493,
      "Ġresigned": 7494,
      "thinks": 7495,
      "Ġimpertin": 7496,
      "Ġimpertinent": 7497,
      "Ġbriskly": 7498,
      "Ġasserted": 7499,
      "Ġscrape": 7500,
      "Ġscramble": 7501,
      "Ġadventure": 7502,
      "Ġexchange": 7503,
      "Ġunconcerned": 7504,
      "Ġunconsciously": 7505,
      "Ġcritical": 7506,
      "Ġforestall": 7507,
      "Ġdevoting": 7508,
      "Ġdevotion": 7509,
      "Ġsignificant": 7510,
      "Ġsignificantly": 7511,
      "Ġinconsiderate": 7512,
      "Ġdissipated": 7513,
      "Ġvouchsaf": 7514,
      "Ġvouchsafe": 7515,
      "Ġremonstrance": 7516,
      "Ġalphabets": 7517,
      "colours": 7518,
      "consider": 7519,
      "eleg": 7520,
      "obser": 7521,
      "Ġ10": 7522,
      "Ġadelaide": 7523,
      "Ġsneering": 7524,
      "Ġwarfare": 7525,
      "Ġwander": 7526,
      "Ġmourning": 7527,
      "recollecting": 7528,
      "Ġoxford": 7529,
      "Ġfetched": 7530,
      "Ġdialogue": 7531,
      "Ġpulse": 7532,
      "Ġportra": 7533,
      "Ġnovelty": 7534,
      "Ġlodged": 7535,
      "secret": 7536,
      "Ġissue": 7537,
      "Ġmultiplied": 7538,
      "Ġknocked": 7539,
      "Ġmemorandum": 7540,
      "Ġconcert": 7541,
      "Ġstomach": 7542,
      "Ġexecution": 7543,
      "Ġpermanently": 7544,
      "Ġornament": 7545,
      "Ġromance": 7546,
      "Ġrush": 7547,
      "Ġrumour": 7548,
      "Ġrubber": 7549,
      "Ġvillage": 7550,
      "Ġenlivened": 7551,
      "Ġshadow": 7552,
      "Ġattribut": 7553,
      "absolute": 7554,
      "perfectly": 7555,
      "Ġspecimens": 7556,
      "Ġimpede": 7557,
      "Ġimpartial": 7558,
      "Ġimpudent": 7559,
      "Ġprodigy": 7560,
      "Ġsubmissive": 7561,
      "Ġindustriously": 7562,
      "Ġacquirements": 7563,
      "Ġscolded": 7564,
      "Ġclosest": 7565,
      "Ġclouds": 7566,
      "Ġglasses": 7567,
      "Ġadmissible": 7568,
      "Ġcomplaisance": 7569,
      "Ġdecorum": 7570,
      "Ġproprietor": 7571,
      "courtship": 7572,
      "Ġflourishes": 7573,
      "Ġflatterer": 7574,
      "Ġabsurdity": 7575,
      "Ġcondescension": 7576,
      "Ġpatroness": 7577,
      "Ġeffusion": 7578,
      "Ġinsensibility": 7579,
      "Ġextravagance": 7580,
      "Ġborrowed": 7581,
      "Ġcourtesy": 7582,
      "Ġphysic": 7583,
      "Ġinvoluntarily": 7584,
      "Ġbuilding": 7585,
      "Ġdisinclination": 7586,
      "Ġbewitching": 7587,
      "Ġincommoded": 7588,
      "Ġdeliberately": 7589,
      "Ġmagnificent": 7590,
      "Ġinexpressibly": 7591,
      "Ġsurprising": 7592,
      "friendly": 7593,
      "Ġterribly": 7594,
      "Ġachieved": 7595,
      "Ġinnocently": 7596,
      "Ġumbrellas": 7597,
      "Ġindividual": 7598,
      "bathing": 7599,
      "breeding": 7600,
      "cuits": 7601,
      "candles": 7602,
      "careful": 7603,
      "desk": 7604,
      "dreadful": 7605,
      "extremely": 7606,
      "fashioned": 7607,
      "highbury": 7608,
      "laughing": 7609,
      "probably": 7610,
      "satisfied": 7611,
      "trimmed": 7612,
      "Ġverses": 7613,
      "Ġ--------": 7614,
      "Ġtippet": 7615,
      "Ġaimed": 7616,
      "Ġstone": 7617,
      "Ġsighed": 7618,
      "Ġwittier": 7619,
      "Ġwarrant": 7620,
      "Ġwainscot": 7621,
      "Ġmental": 7622,
      "Ġmantelpiece": 7623,
      "Ġmonday": 7624,
      "Ġmoonlight": 7625,
      "repeated": 7626,
      "hautboy": 7627,
      "Ġbiscuits": 7628,
      "Ġbanished": 7629,
      "Ġbountiful": 7630,
      "Ġblended": 7631,
      "Ġflew": 7632,
      "Ġflesh": 7633,
      "Ġhannah": 7634,
      "Ġdessert": 7635,
      "Ġdeduction": 7636,
      "Ġdimensions": 7637,
      "itimacy": 7638,
      "Ġpanic": 7639,
      "Ġpomp": 7640,
      "Ġpoultry": 7641,
      "Ġeccentric": 7642,
      "Ġeternal": 7643,
      "Ġinadequate": 7644,
      "Ġinfectious": 7645,
      "escribable": 7646,
      "entirely": 7647,
      "Ġforcibly": 7648,
      "Ġatonement": 7649,
      "Ġkissed": 7650,
      "Ġkitchen": 7651,
      "Ġdevelopment": 7652,
      "Ġseizure": 7653,
      "Ġconcession": 7654,
      "Ġconjugal": 7655,
      "Ġmisinterpreted": 7656,
      "Ġexhausted": 7657,
      "Ġfairest": 7658,
      "Ġalternative": 7659,
      "delightful": 7660,
      "Ġrarely": 7661,
      "Ġvivacity": 7662,
      "Ġdiscomposed": 7663,
      "Ġdiscipline": 7664,
      "Ġdisengage": 7665,
      "Ġchicken": 7666,
      "Ġpremature": 7667,
      "Ġintolerable": 7668,
      "Ġunfavourable": 7669,
      "Ġunmerited": 7670,
      "Ġunmanageable": 7671,
      "Ġunhealthy": 7672,
      "Ġunattended": 7673,
      "Ġunsteadiness": 7674,
      "Ġaffording": 7675,
      "Ġaffronted": 7676,
      "Ġpocket": 7677,
      "Ġpoignant": 7678,
      "Ġcoffee": 7679,
      "Ġsparkling": 7680,
      "Ġsplendour": 7681,
      "Ġovercharged": 7682,
      "Ġentangled": 7683,
      "Ġindistinct": 7684,
      "Ġextracts": 7685,
      "beautiful": 7686,
      "Ġaccustomed": 7687,
      "Ġilliterate": 7688,
      "Ġillegitimacy": 7689,
      "Ġrefreshing": 7690,
      "Ġincapable": 7691,
      "Ġincumbent": 7692,
      "Ġsuperseded": 7693,
      "Ġsufficed": 7694,
      "Ġflirtation": 7695,
      "Ġtriumphan": 7696,
      "Ġeyebrows": 7697,
      "Ġunprepared": 7698,
      "Ġtreachery": 7699,
      "Ġwednesday": 7700,
      "Ġbirmingham": 7701,
      "Ġphilosophic": 7702,
      "Ġwalnuts": 7703,
      "Ġmilitia": 7704,
      "!)--": 7705,
      "';": 7706,
      ").--": 7707,
      ");--": 7708,
      ".]": 7709,
      ".,\"": 7710,
      ".,'": 7711,
      "16": 7712,
      "816": 7713,
      ":'": 7714,
      ";'--": 7715,
      "?)--": 7716,
      "_!": 7717,
      "_'": 7718,
      "_:": 7719,
      "_?": 7720,
      "_?\"": 7721,
      "_,\"--": 7722,
      "ae": 7723,
      "av": 7724,
      "ax": 7725,
      "avery": 7726,
      "amp": 7727,
      "aus": 7728,
      "aps": 7729,
      "action": 7730,
      "afer": 7731,
      "aits": 7732,
      "avour": 7733,
      "avers": 7734,
      "aments": 7735,
      "aunted": 7736,
      "bi": 7737,
      "bu": 7738,
      "bri": 7739,
      "bow": 7740,
      "bal": 7741,
      "bak": 7742,
      "bot": 7743,
      "best": 7744,
      "bus": 7745,
      "bol": 7746,
      "bade": 7747,
      "bare": 7748,
      "balls": 7749,
      "bited": 7750,
      "braid": 7751,
      "bacy": 7752,
      "bband": 7753,
      "blu": 7754,
      "bath": 7755,
      "bbed": 7756,
      "boured": 7757,
      "banity": 7758,
      "bridge": 7759,
      "briety": 7760,
      "bleness": 7761,
      "bham": 7762,
      "birth": 7763,
      "binet": 7764,
      "baits": 7765,
      "co": 7766,
      "cle": 7767,
      "cas": 7768,
      "car": 7769,
      "cst": 7770,
      "cill": 7771,
      "cant": 7772,
      "cred": 7773,
      "cry": 7774,
      "cost": 7775,
      "city": 7776,
      "cast": 7777,
      "ciness": 7778,
      "cary": 7779,
      "circ": 7780,
      "cult": 7781,
      "cap": 7782,
      "catch": 7783,
      "cises": 7784,
      "cilled": 7785,
      "cakes": 7786,
      "coat": 7787,
      "cusable": 7788,
      "das": 7789,
      "dro": 7790,
      "dure": 7791,
      "dance": 7792,
      "dness": 7793,
      "dress": 7794,
      "dings": 7795,
      "doub": 7796,
      "diss": 7797,
      "dances": 7798,
      "dating": 7799,
      "dirty": 7800,
      "dote": 7801,
      "dleness": 7802,
      "ee": 7803,
      "eu": 7804,
      "eer": 7805,
      "equ": 7806,
      "eli": 7807,
      "east": 7808,
      "eful": 7809,
      "each": 7810,
      "eps": 7811,
      "ease": 7812,
      "eye": 7813,
      "egr": 7814,
      "epless": 7815,
      "fo": 7816,
      "far": 7817,
      "fet": 7818,
      "fton": 7819,
      "find": 7820,
      "father": 7821,
      "furn": 7822,
      "fine": 7823,
      "fused": 7824,
      "ffic": 7825,
      "fres": 7826,
      "fright": 7827,
      "fetch": 7828,
      "fold": 7829,
      "ffere": 7830,
      "flow": 7831,
      "gard": 7832,
      "gest": 7833,
      "gings": 7834,
      "gave": 7835,
      "girl": 7836,
      "gitation": 7837,
      "gued": 7838,
      "gating": 7839,
      "gressed": 7840,
      "gover": 7841,
      "gallant": 7842,
      "glance": 7843,
      "gacity": 7844,
      "hon": 7845,
      "hus": 7846,
      "ia": 7847,
      "ien": 7848,
      "ias": 7849,
      "iat": 7850,
      "ilf": 7851,
      "iate": 7852,
      "ived": 7853,
      "iber": 7854,
      "iations": 7855,
      "iances": 7856,
      "iplicity": 7857,
      "iableness": 7858,
      "ienced": 7859,
      "ipping": 7860,
      "ilful": 7861,
      "jac": 7862,
      "joint": 7863,
      "james": 7864,
      "july": 7865,
      "ky": 7866,
      "kin": 7867,
      "kind": 7868,
      "ksome": 7869,
      "kingly": 7870,
      "kitty": 7871,
      "lis": 7872,
      "lore": 7873,
      "lower": 7874,
      "lord": 7875,
      "love": 7876,
      "lins": 7877,
      "latter": 7878,
      "lamed": 7879,
      "lcer": 7880,
      "lacing": 7881,
      "logue": 7882,
      "listened": 7883,
      "mis": 7884,
      "mith": 7885,
      "mid": 7886,
      "mal": 7887,
      "mess": 7888,
      "mour": 7889,
      "mate": 7890,
      "mity": 7891,
      "mane": 7892,
      "mos": 7893,
      "mine": 7894,
      "mum": 7895,
      "moment": 7896,
      "mist": 7897,
      "mired": 7898,
      "mination": 7899,
      "mark": 7900,
      "minary": 7901,
      "mency": 7902,
      "moving": 7903,
      "meth": 7904,
      "mulous": 7905,
      "nu": 7906,
      "nal": 7907,
      "nation": 7908,
      "nry": 7909,
      "nance": 7910,
      "nel": 7911,
      "nine": 7912,
      "nip": 7913,
      "nons": 7914,
      "nnight": 7915,
      "names": 7916,
      "named": 7917,
      "ole": 7918,
      "oid": 7919,
      "ope": 7920,
      "oak": 7921,
      "oose": 7922,
      "oper": 7923,
      "oated": 7924,
      "oft": 7925,
      "oiling": 7926,
      "opping": 7927,
      "oidable": 7928,
      "oeu": 7929,
      "pr": 7930,
      "put": 7931,
      "pse": 7932,
      "pion": 7933,
      "pher": 7934,
      "pal": 7935,
      "pro": 7936,
      "phan": 7937,
      "port": 7938,
      "priet": 7939,
      "pite": 7940,
      "pies": 7941,
      "pace": 7942,
      "pared": 7943,
      "pens": 7944,
      "position": 7945,
      "pressed": 7946,
      "pitable": 7947,
      "pleasant": 7948,
      "poc": 7949,
      "pening": 7950,
      "ported": 7951,
      "pieces": 7952,
      "prehensible": 7953,
      "pilf": 7954,
      "rd": 7955,
      "rou": 7956,
      "ran": 7957,
      "rment": 7958,
      "rast": 7959,
      "run": 7960,
      "rating": 7961,
      "rised": 7962,
      "rines": 7963,
      "rates": 7964,
      "risy": 7965,
      "rants": 7966,
      "ristened": 7967,
      "sy": 7968,
      "son": 7969,
      "sad": 7970,
      "sour": 7971,
      "sive": 7972,
      "sac": 7973,
      "six": 7974,
      "show": 7975,
      "sitting": 7976,
      "sens": 7977,
      "school": 7978,
      "slow": 7979,
      "scre": 7980,
      "tt": 7981,
      "tre": 7982,
      "tle": 7983,
      "tar": 7984,
      "tain": 7985,
      "tall": 7986,
      "ties": 7987,
      "tied": 7988,
      "tired": 7989,
      "taylor": 7990,
      "times": 7991,
      "trees": 7992,
      "tesse": 7993,
      "tacitly": 7994,
      "tattle": 7995,
      "upe": 7996,
      "uck": 7997,
      "uently": 7998,
      "ugg": 7999,
      "uously": 8000,
      "vill": 8001,
      "vad": 8002,
      "vant": 8003,
      "vite": 8004,
      "vol": 8005,
      "vass": 8006,
      "vided": 8007,
      "vished": 8008,
      "vring": 8009,
      "vidently": 8010,
      "vatory": 8011,
      "viti": 8012,
      "varying": 8013,
      "vinced": 8014,
      "ws": 8015,
      "wing": 8016,
      "wes": 8017,
      "wic": 8018,
      "wink": 8019,
      "wind": 8020,
      "walk": 8021,
      "ware": 8022,
      "warted": 8023,
      "wrote": 8024,
      "wanted": 8025,
      "worthy": 8026,
      "wdling": 8027,
      "yst": 8028,
      "yet": 8029,
      "yel": 8030,
      "york": 8031,
      "yards": 8032,
      "yran": 8033,
      "zy": 8034,
      "zard": 8035,
      "zig": 8036,
      "zags": 8037,
      "Ġ'": 8038,
      "Ġ7": 8039,
      "Ġ8": 8040,
      "Ġed": 8041,
      "Ġ--\"": 8042,
      "Ġverse": 8043,
      "Ġzig": 8044,
      "Ġtha": 8045,
      "Ġted": 8046,
      "Ġtan": 8047,
      "Ġtur": 8048,
      "Ġtro": 8049,
      "Ġtart": 8050,
      "Ġtun": 8051,
      "Ġtie": 8052,
      "Ġties": 8053,
      "Ġtaut": 8054,
      "Ġtens": 8055,
      "Ġters": 8056,
      "Ġtune": 8057,
      "Ġtumb": 8058,
      "Ġtittle": 8059,
      "Ġtires": 8060,
      "Ġtacitly": 8061,
      "Ġtax": 8062,
      "Ġtyran": 8063,
      "hel": 8064,
      "held": 8065,
      "heum": 8066,
      "heres": 8067,
      "herence": 8068,
      "hemat": 8069,
      "hets": 8070,
      "hecary": 8071,
      "henry": 8072,
      "Ġald": 8073,
      "Ġaus": 8074,
      "Ġaust": 8075,
      "Ġawe": 8076,
      "Ġaright": 8077,
      "Ġahead": 8078,
      "inar": 8079,
      "inst": 8080,
      "incl": 8081,
      "inction": 8082,
      "infer": 8083,
      "inist": 8084,
      "inating": 8085,
      "inished": 8086,
      "inarily": 8087,
      "inuing": 8088,
      "insuf": 8089,
      "interest": 8090,
      "inacity": 8091,
      "instead": 8092,
      "incre": 8093,
      "invite": 8094,
      "Ġsed": 8095,
      "Ġsar": 8096,
      "Ġsch": 8097,
      "Ġshan": 8098,
      "Ġsway": 8099,
      "Ġscept": 8100,
      "Ġsedu": 8101,
      "Ġsash": 8102,
      "Ġwreat": 8103,
      "Ġwake": 8104,
      "Ġwide": 8105,
      "Ġwins": 8106,
      "Ġwaking": 8107,
      "Ġwilt": 8108,
      "Ġwounded": 8109,
      "Ġwaded": 8110,
      "Ġmim": 8111,
      "Ġmal": 8112,
      "Ġmic": 8113,
      "Ġmick": 8114,
      "Ġmute": 8115,
      "Ġmock": 8116,
      "Ġmitche": 8117,
      "Ġmirth": 8118,
      "Ġmounted": 8119,
      "rel": 8120,
      "rev": 8121,
      "reen": 8122,
      "rear": 8123,
      "rema": 8124,
      "really": 8125,
      "rection": 8126,
      "reason": 8127,
      "rempt": 8128,
      "remonious": 8129,
      "rers": 8130,
      "refused": 8131,
      "remark": 8132,
      "Ġoath": 8133,
      "Ġomit": 8134,
      "Ġolive": 8135,
      "Ġomitting": 8136,
      "Ġoyst": 8137,
      "hast": 8138,
      "hael": 8139,
      "having": 8140,
      "habited": 8141,
      "ouched": 8142,
      "ourers": 8143,
      "Ġben": 8144,
      "Ġble": 8145,
      "Ġbal": 8146,
      "Ġbul": 8147,
      "Ġbone": 8148,
      "Ġbake": 8149,
      "Ġbos": 8150,
      "Ġbound": 8151,
      "Ġbury": 8152,
      "Ġbars": 8153,
      "Ġbase": 8154,
      "Ġbang": 8155,
      "Ġbord": 8156,
      "Ġbash": 8157,
      "Ġbows": 8158,
      "Ġbounded": 8159,
      "Ġbounds": 8160,
      "Ġbodies": 8161,
      "Ġbias": 8162,
      "Ġice": 8163,
      "Ġido": 8164,
      "Ġidleness": 8165,
      "eration": 8166,
      "erate": 8167,
      "erning": 8168,
      "erget": 8169,
      "ervour": 8170,
      "erfully": 8171,
      "erial": 8172,
      "erney": 8173,
      "erates": 8174,
      "eroom": 8175,
      "ervatory": 8176,
      "Ġtheod": 8177,
      "nds": 8178,
      "ndages": 8179,
      "ndwic": 8180,
      "Ġcod": 8181,
      "Ġcli": 8182,
      "Ġcry": 8183,
      "Ġcell": 8184,
      "Ġcra": 8185,
      "Ġcather": 8186,
      "Ġcost": 8187,
      "Ġcust": 8188,
      "Ġcert": 8189,
      "Ġcree": 8190,
      "Ġcip": 8191,
      "Ġcows": 8192,
      "Ġciti": 8193,
      "Ġcattle": 8194,
      "Ġtom": 8195,
      "Ġtoss": 8196,
      "Ġtotter": 8197,
      "Ġtooth": 8198,
      "Ġtoken": 8199,
      "Ġtones": 8200,
      "Ġtorment": 8201,
      "onne": 8202,
      "onist": 8203,
      "Ġfed": 8204,
      "Ġfur": 8205,
      "Ġfight": 8206,
      "Ġfest": 8207,
      "Ġfun": 8208,
      "Ġfence": 8209,
      "Ġfren": 8210,
      "Ġfiness": 8211,
      "Ġfits": 8212,
      "Ġfalls": 8213,
      "Ġfitted": 8214,
      "Ġfath": 8215,
      "Ġfuss": 8216,
      "Ġfenced": 8217,
      "Ġflying": 8218,
      "Ġfervour": 8219,
      "inging": 8220,
      "ingering": 8221,
      "Ġheed": 8222,
      "Ġheire": 8223,
      "Ġheap": 8224,
      "Ġhealed": 8225,
      "Ġhems": 8226,
      "enes": 8227,
      "enness": 8228,
      "enient": 8229,
      "eners": 8230,
      "encer": 8231,
      "encouragement": 8232,
      "enza": 8233,
      "eded": 8234,
      "edal": 8235,
      "ederates": 8236,
      "Ġhay": 8237,
      "Ġhated": 8238,
      "Ġhaber": 8239,
      "Ġhaunt": 8240,
      "Ġhapha": 8241,
      "Ġhaunted": 8242,
      "Ġhaunting": 8243,
      "Ġnon": 8244,
      "Ġnour": 8245,
      "Ġnest": 8246,
      "Ġnought": 8247,
      "Ġnons": 8248,
      "Ġnicer": 8249,
      "Ġdit": 8250,
      "Ġdas": 8251,
      "Ġdur": 8252,
      "Ġdart": 8253,
      "Ġdil": 8254,
      "Ġdus": 8255,
      "Ġdru": 8256,
      "Ġdint": 8257,
      "Ġdated": 8258,
      "Ġdup": 8259,
      "Ġdiet": 8260,
      "Ġdili": 8261,
      "Ġdork": 8262,
      "Ġdying": 8263,
      "Ġdrud": 8264,
      "Ġdaring": 8265,
      "Ġdirt": 8266,
      "Ġduly": 8267,
      "Ġdupe": 8268,
      "Ġbeet": 8269,
      "Ġbeaming": 8270,
      "Ġbefri": 8271,
      "Ġbefriend": 8272,
      "Ġbeavers": 8273,
      "Ġbeheld": 8274,
      "lle": 8275,
      "llent": 8276,
      "llation": 8277,
      "llied": 8278,
      "llards": 8279,
      "llenness": 8280,
      "iten": 8281,
      "itance": 8282,
      "itage": 8283,
      "itence": 8284,
      "itious": 8285,
      "itary": 8286,
      "iters": 8287,
      "isition": 8288,
      "isons": 8289,
      "isking": 8290,
      "istered": 8291,
      "iscerned": 8292,
      "Ġpent": 8293,
      "Ġpill": 8294,
      "Ġpore": 8295,
      "Ġpall": 8296,
      "Ġpic": 8297,
      "Ġpour": 8298,
      "Ġpink": 8299,
      "Ġpull": 8300,
      "Ġpars": 8301,
      "Ġpick": 8302,
      "Ġpup": 8303,
      "Ġpens": 8304,
      "Ġpantry": 8305,
      "Ġpacing": 8306,
      "Ġpedal": 8307,
      "lee": 8308,
      "leen": 8309,
      "leful": 8310,
      "leham": 8311,
      "legance": 8312,
      "lework": 8313,
      "legating": 8314,
      "Ġecl": 8315,
      "Ġepit": 8316,
      "Ġecst": 8317,
      "Ġejac": 8318,
      "Ġeyel": 8319,
      "Ġerection": 8320,
      "asies": 8321,
      "asively": 8322,
      "ashamed": 8323,
      "asures": 8324,
      "asket": 8325,
      "assembled": 8326,
      "asked": 8327,
      "oried": 8328,
      "orating": 8329,
      "orney": 8330,
      "ordered": 8331,
      "orbing": 8332,
      "ormous": 8333,
      "ornful": 8334,
      "oratives": 8335,
      "Ġhid": 8336,
      "Ġhood": 8337,
      "Ġhous": 8338,
      "Ġhired": 8339,
      "Ġhym": 8340,
      "Ġhinde": 8341,
      "Ġhumph": 8342,
      "Ġhunting": 8343,
      "aned": 8344,
      "anim": 8345,
      "anry": 8346,
      "anne": 8347,
      "anza": 8348,
      "Ġinse": 8349,
      "Ġinad": 8350,
      "Ġinfa": 8351,
      "Ġinward": 8352,
      "Ġinsu": 8353,
      "Ġinference": 8354,
      "Ġinability": 8355,
      "Ġinroad": 8356,
      "Ġinatt": 8357,
      "Ġinhabited": 8358,
      "Ġnobility": 8359,
      "Ġnomin": 8360,
      "Ġnoviti": 8361,
      "ese": 8362,
      "essel": 8363,
      "espion": 8364,
      "ator": 8365,
      "atic": 8366,
      "atable": 8367,
      "ature": 8368,
      "atus": 8369,
      "atible": 8370,
      "atig": 8371,
      "atched": 8372,
      "ativen": 8373,
      "ara": 8374,
      "aries": 8375,
      "ariable": 8376,
      "arrick": 8377,
      "aratus": 8378,
      "--:": 8379,
      "--.\"": 8380,
      "--.'": 8381,
      "omise": 8382,
      "omanry": 8383,
      "verb": 8384,
      "verings": 8385,
      "Ġheritage": 8386,
      "Ġital": 8387,
      "Ġgal": 8388,
      "Ġgli": 8389,
      "Ġgout": 8390,
      "Ġgate": 8391,
      "Ġgang": 8392,
      "Ġgames": 8393,
      "Ġgrud": 8394,
      "Ġgreet": 8395,
      "Ġgains": 8396,
      "Ġgarter": 8397,
      "Ġginger": 8398,
      "Ġglee": 8399,
      "Ġgarrick": 8400,
      "veying": 8401,
      "Ġlur": 8402,
      "Ġlain": 8403,
      "Ġlot": 8404,
      "Ġlic": 8405,
      "Ġlone": 8406,
      "Ġlined": 8407,
      "Ġloth": 8408,
      "Ġlang": 8409,
      "Ġlimes": 8410,
      "Ġlonel": 8411,
      "Ġleng": 8412,
      "Ġlingu": 8413,
      "Ġlung": 8414,
      "Ġlacing": 8415,
      "Ġlamb": 8416,
      "Ġlingering": 8417,
      "Ġlenient": 8418,
      "Ġnotes": 8419,
      "Ġnotch": 8420,
      "Ġnoticed": 8421,
      "hatically": 8422,
      "Ġwashing": 8423,
      "Ġwashed": 8424,
      "Ġwasted": 8425,
      "lyhead": 8426,
      "stic": 8427,
      "stra": 8428,
      "stone": 8429,
      "stained": 8430,
      "strick": 8431,
      "stopping": 8432,
      "Ġsheep": 8433,
      "Ġshedd": 8434,
      "Ġshells": 8435,
      "Ġsheeps": 8436,
      "Ġshepher": 8437,
      "Ġthread": 8438,
      "Ġthwarted": 8439,
      "utal": 8440,
      "utation": 8441,
      "uteness": 8442,
      "church": 8443,
      "chili": 8444,
      "christ": 8445,
      "seven": 8446,
      "seers": 8447,
      "seys": 8448,
      "semble": 8449,
      "Ġ\"'": 8450,
      "Ġ\"--": 8451,
      "ioned": 8452,
      "ionably": 8453,
      "ceremonious": 8454,
      "rid": 8455,
      "riot": 8456,
      "ridden": 8457,
      "rifice": 8458,
      "ricted": 8459,
      "riae": 8460,
      "rille": 8461,
      "Ġred": 8462,
      "Ġrede": 8463,
      "Ġremed": 8464,
      "Ġrender": 8465,
      "Ġrelic": 8466,
      "Ġrendering": 8467,
      "Ġrejection": 8468,
      "Ġrevive": 8469,
      "Ġreigning": 8470,
      "Ġrevol": 8471,
      "Ġreinst": 8472,
      "Ġreassembled": 8473,
      "Ġreanim": 8474,
      "Ġresemble": 8475,
      "ents": 8476,
      "enting": 8477,
      "entation": 8478,
      "entment": 8479,
      "entance": 8480,
      "entious": 8481,
      "entiet": 8482,
      "entimes": 8483,
      "entiful": 8484,
      "entrated": 8485,
      "entatious": 8486,
      "ayton": 8487,
      "Ġaspect": 8488,
      "Ġascending": 8489,
      "owing": 8490,
      "owedly": 8491,
      "Ġforcing": 8492,
      "Ġforswe": 8493,
      "Ġforbade": 8494,
      "eteen": 8495,
      "ithwa": 8496,
      "imen": 8497,
      "imate": 8498,
      "imag": 8499,
      "immedi": 8500,
      "imney": 8501,
      "Ġsup": 8502,
      "Ġsullenness": 8503,
      "ides": 8504,
      "idance": 8505,
      "idering": 8506,
      "idote": 8507,
      "Ġanal": 8508,
      "Ġanci": 8509,
      "Ġanec": 8510,
      "Ġwept": 8511,
      "Ġweary": 8512,
      "Ġwearying": 8513,
      "ira": 8514,
      "irable": 8515,
      "irted": 8516,
      "irons": 8517,
      "cting": 8518,
      "ctive": 8519,
      "hers": 8520,
      "Ġult": 8521,
      "Ġulcer": 8522,
      "Ġsoli": 8523,
      "Ġatmos": 8524,
      "odied": 8525,
      "odical": 8526,
      "alis": 8527,
      "alone": 8528,
      "alence": 8529,
      "alified": 8530,
      "almane": 8531,
      "Ġwhim": 8532,
      "Ġwhirl": 8533,
      "Ġwhiten": 8534,
      "Ġkite": 8535,
      "Ġbutton": 8536,
      "made": 8537,
      "maple": 8538,
      "makes": 8539,
      "madness": 8540,
      "Ġmud": 8541,
      "Ġmule": 8542,
      "Ġmuff": 8543,
      "urred": 8544,
      "urry": 8545,
      "urance": 8546,
      "urged": 8547,
      "uratively": 8548,
      "adings": 8549,
      "adoring": 8550,
      "adair": 8551,
      "adorned": 8552,
      "admired": 8553,
      "advant": 8554,
      "adrille": 8555,
      "Ġknit": 8556,
      "Ġknight": 8557,
      "Ġknack": 8558,
      "Ġknives": 8559,
      "Ġknife": 8560,
      "Ġknee": 8561,
      "Ġallay": 8562,
      "Ġallies": 8563,
      "Ġallied": 8564,
      "Ġallusions": 8565,
      "Ġalliances": 8566,
      "rot": 8567,
      "roved": 8568,
      "roach": 8569,
      "ropri": 8570,
      "ropriety": 8571,
      "rospect": 8572,
      "rovided": 8573,
      "rostic": 8574,
      "pel": 8575,
      "peare": 8576,
      "people": 8577,
      "Ġmend": 8578,
      "Ġmechan": 8579,
      "ters": 8580,
      "terings": 8581,
      "quy": 8582,
      "quor": 8583,
      "quant": 8584,
      "quel": 8585,
      "Ġdefe": 8586,
      "Ġdefect": 8587,
      "Ġdeci": 8588,
      "Ġdepri": 8589,
      "Ġdevi": 8590,
      "Ġdemer": 8591,
      "Ġdejection": 8592,
      "Ġdeceptions": 8593,
      "Ġdeafer": 8594,
      "Ġdews": 8595,
      "Ġdelegating": 8596,
      "Ġsell": 8597,
      "Ġseren": 8598,
      "Ġselect": 8599,
      "Ġsealed": 8600,
      "Ġseminary": 8601,
      "Ġsequel": 8602,
      "Ġempt": 8603,
      "Ġeminent": 8604,
      "Ġemulate": 8605,
      "Ġconci": 8606,
      "Ġconverse": 8607,
      "Ġconceptions": 8608,
      "Ġconveniences": 8609,
      "Ġconveying": 8610,
      "tonness": 8611,
      "Ġdog": 8612,
      "Ġdoer": 8613,
      "Ġdoat": 8614,
      "Ġdoom": 8615,
      "Ġdoth": 8616,
      "Ġdoings": 8617,
      "Ġdoci": 8618,
      "Ġdoomed": 8619,
      "Ġdoleful": 8620,
      "ored": 8621,
      "orer": 8622,
      "Ġcomment": 8623,
      "Ġcommiss": 8624,
      "Ġcomments": 8625,
      "Ġcomtesse": 8626,
      "bleached": 8627,
      "Ġsaun": 8628,
      "Ġsaves": 8629,
      "Ġsaunder": 8630,
      "Ġsample": 8631,
      "Ġsails": 8632,
      "Ġsacred": 8633,
      "Ġsagacity": 8634,
      "Ġsandwic": 8635,
      "ainable": 8636,
      "Ġjum": 8637,
      "Ġjew": 8638,
      "Ġjokes": 8639,
      "Ġmyster": 8640,
      "Ġnept": 8641,
      "Ġnearest": 8642,
      "lfully": 8643,
      "Ġfrau": 8644,
      "Ġfrag": 8645,
      "Ġharry": 8646,
      "Ġharmon": 8647,
      "Ġharbour": 8648,
      "Ġharboured": 8649,
      "ppics": 8650,
      "ational": 8651,
      ".--_": 8652,
      "Ġsting": 8653,
      "Ġstil": 8654,
      "Ġstol": 8655,
      "Ġstab": 8656,
      "Ġstare": 8657,
      "Ġstared": 8658,
      "Ġstars": 8659,
      "Ġstating": 8660,
      "Ġstale": 8661,
      "Ġstream": 8662,
      "Ġstroke": 8663,
      "Ġstuck": 8664,
      "Ġstanza": 8665,
      "akened": 8666,
      "essing": 8667,
      "oting": 8668,
      "otes": 8669,
      "otting": 8670,
      "otland": 8671,
      "othecary": 8672,
      "Ġmisbe": 8673,
      "Ġmisapp": 8674,
      "Ġexag": 8675,
      "Ġexisted": 8676,
      "Ġexhib": 8677,
      "allop": 8678,
      "allowing": 8679,
      "Ġwhiche": 8680,
      "Ġanything": 8681,
      "icate": 8682,
      "icine": 8683,
      "icising": 8684,
      "icament": 8685,
      "iciating": 8686,
      "ulse": 8687,
      "ulity": 8688,
      "ulations": 8689,
      "ulging": 8690,
      "ulative": 8691,
      "fever": 8692,
      "feel": 8693,
      "fearing": 8694,
      "feeling": 8695,
      "arto": 8696,
      "artened": 8697,
      "ourse": 8698,
      "Ġfeet": 8699,
      "Ġfemin": 8700,
      "Ġfeigning": 8701,
      "geon": 8702,
      "gered": 8703,
      "selfish": 8704,
      "hanged": 8705,
      "hanced": 8706,
      "Ġlock": 8707,
      "Ġloser": 8708,
      "Ġlocked": 8709,
      "Ġleather": 8710,
      "Ġlevity": 8711,
      "Ġlending": 8712,
      "Ġleague": 8713,
      "Ġleaned": 8714,
      "antic": 8715,
      "Ġmisses": 8716,
      "Ġmisspent": 8717,
      "Ġamounted": 8718,
      "Ġamiableness": 8719,
      "Ġfare": 8720,
      "Ġfacing": 8721,
      "Ġmustered": 8722,
      "Ġthereabouts": 8723,
      "orting": 8724,
      "ortant": 8725,
      "Ġpermission": 8726,
      "Ġperusal": 8727,
      "Ġpermit": 8728,
      "Ġpervert": 8729,
      "lio": 8730,
      "lived": 8731,
      "lives": 8732,
      "liating": 8733,
      "lized": 8734,
      "liked": 8735,
      "libacy": 8736,
      "Ġwheat": 8737,
      "Ġshy": 8738,
      "Ġshow": 8739,
      "Ġshod": 8740,
      "Ġshine": 8741,
      "Ġshows": 8742,
      "Ġshivering": 8743,
      "Ġalthough": 8744,
      "Ġaladd": 8745,
      "Ġaltar": 8746,
      "outed": 8747,
      "Ġmanagement": 8748,
      "Ġmanaged": 8749,
      "Ġmanche": 8750,
      "Ġmansion": 8751,
      "Ġmania": 8752,
      "Ġmanoeu": 8753,
      "decl": 8754,
      "delic": 8755,
      "dearer": 8756,
      "dearest": 8757,
      "Ġorphan": 8758,
      "Ġlifted": 8759,
      "Ġlibr": 8760,
      "Ġliquor": 8761,
      "arding": 8762,
      "Ġring": 8763,
      "Ġrow": 8764,
      "Ġrud": 8765,
      "Ġrave": 8766,
      "Ġrack": 8767,
      "Ġrued": 8768,
      "Ġrained": 8769,
      "Ġrarity": 8770,
      "Ġrises": 8771,
      "Ġrows": 8772,
      "Ġramb": 8773,
      "Ġrheum": 8774,
      "Ġrisking": 8775,
      "Ġquits": 8776,
      "Ġquaint": 8777,
      "Ġqueen": 8778,
      "Ġqueer": 8779,
      "Ġquadrille": 8780,
      "Ġquarto": 8781,
      "inking": 8782,
      "inkling": 8783,
      "urels": 8784,
      "Ġseeking": 8785,
      "Ġelms": 8786,
      "Ġelbow": 8787,
      "oken": 8788,
      "inder": 8789,
      "indif": 8790,
      "indled": 8791,
      "indign": 8792,
      "indicated": 8793,
      "indescribable": 8794,
      "indulging": 8795,
      "Ġwest": 8796,
      "Ġwestern": 8797,
      "Ġvag": 8798,
      "Ġvoted": 8799,
      "Ġvoc": 8800,
      "Ġvict": 8801,
      "Ġvowed": 8802,
      "Ġvarying": 8803,
      "Ġvessel": 8804,
      "Ġvindicated": 8805,
      "ellig": 8806,
      "Ġdish": 8807,
      "Ġdissent": 8808,
      "Ġdishes": 8809,
      "Ġdiscri": 8810,
      "Ġdismay": 8811,
      "Ġdisingen": 8812,
      "Ġdispelled": 8813,
      "Ġdisservice": 8814,
      "Ġdisrespect": 8815,
      "Ġdismal": 8816,
      "Ġdisordered": 8817,
      "Ġdisadvant": 8818,
      "Ġdispel": 8819,
      "Ġdisliked": 8820,
      "Ġchil": 8821,
      "Ġchoose": 8822,
      "Ġchristened": 8823,
      "Ġchimney": 8824,
      "Ġhows": 8825,
      "Ġagitate": 8826,
      "Ġagitating": 8827,
      "Ġaggrand": 8828,
      "Ġaggression": 8829,
      "Ġaghast": 8830,
      "mper": 8831,
      "mpers": 8832,
      "Ġprecl": 8833,
      "Ġpreached": 8834,
      "Ġpresid": 8835,
      "Ġpresides": 8836,
      "Ġprecon": 8837,
      "Ġprecision": 8838,
      "Ġpreface": 8839,
      "Ġenab": 8840,
      "Ġenum": 8841,
      "Ġensu": 8842,
      "Ġenig": 8843,
      "Ġenvi": 8844,
      "Ġenem": 8845,
      "Ġenlight": 8846,
      "Ġenclosed": 8847,
      "Ġenmity": 8848,
      "Ġennu": 8849,
      "Ġenerget": 8850,
      "Ġenormous": 8851,
      "Ġenhanced": 8852,
      "ends": 8853,
      "Ġcanvass": 8854,
      "Ġwhoever": 8855,
      "Ġwholes": 8856,
      "mentioned": 8857,
      "rage": 8858,
      "races": 8859,
      "raising": 8860,
      "rapped": 8861,
      "raph": 8862,
      "Ġintreat": 8863,
      "Ġintrig": 8864,
      "Ġintegr": 8865,
      "Ġintends": 8866,
      "Ġunost": 8867,
[...]
